{
  "version": "1.0",
  "truncation": null,
  "padding": null,
  "added_tokens": [
    {
      "id": 0,
      "content": "<pad>",
      "single_word": false,
      "lstrip": false,
      "rstrip": false,
      "normalized": false,
      "special": true
    },
    {
      "id": 1,
      "content": "<bos>",
      "single_word": false,
      "lstrip": false,
      "rstrip": false,
      "normalized": false,
      "special": true
    },
    {
      "id": 2,
      "content": "<eos>",
      "single_word": false,
      "lstrip": false,
      "rstrip": false,
      "normalized": false,
      "special": true
    }
  ],
  "normalizer": null,
  "pre_tokenizer": {
    "type": "ByteLevel",
    "add_prefix_space": false,
    "trim_offsets": true,
    "use_regex": true
  },
  "post_processor": null,
  "decoder": {
    "type": "ByteLevel",
    "add_prefix_space": true,
    "trim_offsets": true,
    "use_regex": true
  },
  "model": {
    "type": "BPE",
    "dropout": null,
    "unk_token": null,
    "continuing_subword_prefix": null,
    "end_of_word_suffix": null,
    "fuse_unk": false,
    "byte_fallback": false,
    "ignore_merges": false,
    "vocab": {
      "<pad>": 0,
      "<bos>": 1,
      "<eos>": 2,
      "!": 3,
      "\"": 4,
      "#": 5,
      "$": 6,
      "%": 7,
      "&": 8,
      "'": 9,
      "(": 10,
      ")": 11,
      "*": 12,
      "+": 13,
      ",": 14,
      "-": 15,
      ".": 16,
      "/": 17,
      "0": 18,
      "1": 19,
      "2": 20,
      "3": 21,
      "4": 22,
      "5": 23,
      "6": 24,
      "7": 25,
      "8": 26,
      "9": 27,
      ":": 28,
      ";": 29,
      "<": 30,
      "=": 31,
      ">": 32,
      "?": 33,
      "@": 34,
      "A": 35,
      "B": 36,
      "C": 37,
      "D": 38,
      "E": 39,
      "F": 40,
      "G": 41,
      "H": 42,
      "I": 43,
      "J": 44,
      "K": 45,
      "L": 46,
      "M": 47,
      "N": 48,
      "O": 49,
      "P": 50,
      "Q": 51,
      "R": 52,
      "S": 53,
      "T": 54,
      "U": 55,
      "V": 56,
      "W": 57,
      "X": 58,
      "Y": 59,
      "Z": 60,
      "[": 61,
      "\\": 62,
      "]": 63,
      "^": 64,
      "_": 65,
      "`": 66,
      "a": 67,
      "b": 68,
      "c": 69,
      "d": 70,
      "e": 71,
      "f": 72,
      "g": 73,
      "h": 74,
      "i": 75,
      "j": 76,
      "k": 77,
      "l": 78,
      "m": 79,
      "n": 80,
      "o": 81,
      "p": 82,
      "q": 83,
      "r": 84,
      "s": 85,
      "t": 86,
      "u": 87,
      "v": 88,
      "w": 89,
      "x": 90,
      "y": 91,
      "z": 92,
      "{": 93,
      "|": 94,
      "}": 95,
      "~": 96,
      "¡": 97,
      "¢": 98,
      "£": 99,
      "¤": 100,
      "¥": 101,
      "¦": 102,
      "§": 103,
      "¨": 104,
      "©": 105,
      "ª": 106,
      "«": 107,
      "¬": 108,
      "®": 109,
      "¯": 110,
      "°": 111,
      "±": 112,
      "²": 113,
      "³": 114,
      "´": 115,
      "µ": 116,
      "¶": 117,
      "·": 118,
      "¸": 119,
      "¹": 120,
      "º": 121,
      "»": 122,
      "¼": 123,
      "½": 124,
      "¾": 125,
      "¿": 126,
      "Â": 127,
      "Ã": 128,
      "Ä": 129,
      "Å": 130,
      "Î": 131,
      "Ï": 132,
      "Ð": 133,
      "Ñ": 134,
      "Ø": 135,
      "Ù": 136,
      "Ú": 137,
      "Û": 138,
      "á": 139,
      "â": 140,
      "ã": 141,
      "ä": 142,
      "å": 143,
      "æ": 144,
      "ç": 145,
      "è": 146,
      "é": 147,
      "ï": 148,
      "ĉ": 149,
      "Ċ": 150,
      "Č": 151,
      "č": 152,
      "Ġ": 153,
      "Ģ": 154,
      "ģ": 155,
      "Ĥ": 156,
      "ĥ": 157,
      "Ħ": 158,
      "ħ": 159,
      "Ĩ": 160,
      "ĩ": 161,
      "Ī": 162,
      "ī": 163,
      "Ĭ": 164,
      "ĭ": 165,
      "Į": 166,
      "į": 167,
      "İ": 168,
      "ı": 169,
      "Ĳ": 170,
      "ĳ": 171,
      "Ĵ": 172,
      "ĵ": 173,
      "Ķ": 174,
      "ķ": 175,
      "ĸ": 176,
      "Ĺ": 177,
      "ĺ": 178,
      "Ļ": 179,
      "ļ": 180,
      "Ľ": 181,
      "ľ": 182,
      "Ŀ": 183,
      "ŀ": 184,
      "Ł": 185,
      "ł": 186,
      "Ń": 187,
      "ĠĠ": 188,
      "ĠĠĠĠ": 189,
      "ĠĠĠ": 190,
      "ĊĠĠĠĠ": 191,
      "se": 192,
      "in": 193,
      "re": 194,
      "on": 195,
      "te": 196,
      "ĊĠĠĠĠĠĠĠ": 197,
      "ĠĠĠĠĠĠĠĠ": 198,
      "st": 199,
      "or": 200,
      "ĊĠĠĠ": 201,
      "de": 202,
      "le": 203,
      "th": 204,
      "Ġ=": 205,
      "lf": 206,
      "al": 207,
      "self": 208,
      "me": 209,
      "ar": 210,
      "ti": 211,
      "er": 212,
      "Ġi": 213,
      "Ġa": 214,
      "Ġ'": 215,
      "Ġc": 216,
      "ĠĠĠĠĠĠĠ": 217,
      "Ġself": 218,
      "en": 219,
      "ro": 220,
      "--": 221,
      "Ġf": 222,
      "ĊĠĠĠĠĠĠĠĠĠĠĠĠ": 223,
      "ĊĠĠĠĠĠĠĠĠĠĠĠ": 224,
      "as": 225,
      "at": 226,
      "Ġth": 227,
      "an": 228,
      "\"\"": 229,
      "Ġre": 230,
      "tion": 231,
      "ce": 232,
      "et": 233,
      "):": 234,
      "Ġp": 235,
      "Ġn": 236,
      "ue": 237,
      "ur": 238,
      "mp": 239,
      "',": 240,
      "Ġs": 241,
      "Ġt": 242,
      "Ġin": 243,
      "Ġthe": 244,
      "li": 245,
      "Ġo": 246,
      "def": 247,
      "ing": 248,
      "ser": 249,
      "ame": 250,
      "Ġ#": 251,
      "ate": 252,
      "ct": 253,
      "pe": 254,
      "co": 255,
      "un": 256,
      "Ġ(": 257,
      "lo": 258,
      "Ġe": 259,
      "Ġb": 260,
      "di": 261,
      "ĊĊĠĠĠ": 262,
      "Ġm": 263,
      "Ġw": 264,
      "ri": 265,
      "ut": 266,
      "fi": 267,
      "ra": 268,
      "()": 269,
      "##": 270,
      "ul": 271,
      "id": 272,
      "si": 273,
      "Ġdef": 274,
      "ch": 275,
      "Ġ\"": 276,
      "nt": 277,
      "Ġ[": 278,
      "ck": 279,
      "urn": 280,
      "\"\"\"": 281,
      "----": 282,
      "')": 283,
      "val": 284,
      "ad": 285,
      "ter": 286,
      "Ġif": 287,
      "Ġ0": 288,
      "ort": 289,
      "turn": 290,
      "el": 291,
      "ĊĠĠĠĠĠĠĠĠĠĠĠĠĠĠĠ": 292,
      "ge": 293,
      "ot": 294,
      "Ġis": 295,
      "('": 296,
      "od": 297,
      "sert": 298,
      "Ġd": 299,
      "arg": 300,
      "ab": 301,
      "__": 302,
      "Ġreturn": 303,
      "qu": 304,
      "ss": 305,
      "con": 306,
      "ol": 307,
      "ke": 308,
      "Ġfor": 309,
      "is": 310,
      "name": 311,
      "it": 312,
      "one": 313,
      "ĠT": 314,
      "':": 315,
      "Ġan": 316,
      "Ġto": 317,
      "Ġ\"\"\"": 318,
      "Ġu": 319,
      "ype": 320,
      "test": 321,
      "),": 322,
      "ap": 323,
      "ed": 324,
      "op": 325,
      "get": 326,
      "::": 327,
      "value": 328,
      "ass": 329,
      "il": 330,
      "set": 331,
      "tr": 332,
      "ĊĊĠĠĠĠĠĠĠ": 333,
      "Ċĉ": 334,
      "ode": 335,
      "],": 336,
      "up": 337,
      "Ġof": 338,
      "xt": 339,
      "ls": 340,
      "la": 341,
      "mport": 342,
      "ver": 343,
      "rom": 344,
      "Ġst": 345,
      "Ġcon": 346,
      "Ġ1": 347,
      "ult": 348,
      "ction": 349,
      "pa": 350,
      "Ġh": 351,
      "assert": 352,
      "es": 353,
      "ĠS": 354,
      "))": 355,
      "00": 356,
      "vi": 357,
      "args": 358,
      "None": 359,
      "Ġ_": 360,
      "ma": 361,
      "Ġ-": 362,
      "==": 363,
      "der": 364,
      "ata": 365,
      "ĊĠĠĠĠĠĠĠĠĠĠĠĠĠĠĠĠĠĠĠĠ": 366,
      "._": 367,
      "ĊĊ": 368,
      "\",": 369,
      "rue": 370,
      "ule": 371,
      "####": 372,
      "int": 373,
      "ith": 374,
      "lass": 375,
      "am": 376,
      "Ġas": 377,
      "um": 378,
      "ve": 379,
      "ĠA": 380,
      "par": 381,
      "ĠC": 382,
      "ment": 383,
      "sion": 384,
      "he": 385,
      "Ġand": 386,
      "key": 387,
      "])": 388,
      "ile": 389,
      "Ġex": 390,
      "qual": 391,
      "able": 392,
      "Ġnot": 393,
      "ror": 394,
      "Ġ*": 395,
      "per": 396,
      "all": 397,
      "ĠI": 398,
      "ent": 399,
      "ex": 400,
      "res": 401,
      "['": 402,
      "ation": 403,
      "ase": 404,
      "(\"": 405,
      "odule": 406,
      "Ġtest": 407,
      "to": 408,
      "--------": 409,
      "ub": 410,
      "ĠL": 411,
      "ect": 412,
      "ĊĠĠĠĠĠ": 413,
      "Ġimport": 414,
      "Ġ%": 415,
      "from": 416,
      "Ġ2": 417,
      "age": 418,
      "str": 419,
      "ĠF": 420,
      "=\"": 421,
      "ow": 422,
      "ted": 423,
      "list": 424,
      "Ġg": 425,
      "for": 426,
      "bu": 427,
      "Ġde": 428,
      "class": 429,
      "eld": 430,
      "lin": 431,
      "Ġvalue": 432,
      "Ġ+": 433,
      "add": 434,
      "Ġdi": 435,
      "Ġor": 436,
      "text": 437,
      "put": 438,
      "and": 439,
      "pro": 440,
      "ĠNone": 441,
      "que": 442,
      "ig": 443,
      "ĠP": 444,
      "Equal": 445,
      "ĊĠĠĠĠĠĠĠĠĠĠĠĠĠĠĠĠ": 446,
      "Ġbe": 447,
      "Ġres": 448,
      "time": 449,
      "end": 450,
      "Ġ==": 451,
      "Ġ{": 452,
      "file": 453,
      "True": 454,
      "bj": 455,
      "ption": 456,
      "len": 457,
      "Ġse": 458,
      "ht": 459,
      "']": 460,
      "ER": 461,
      "type": 462,
      "Ċĉĉ": 463,
      "ns": 464,
      "ew": 465,
      "Ġwith": 466,
      "Ġr": 467,
      "ĊĠĠĠĠĠĠĠĠĠĠĠĠĠĠĠĠĠĠĠ": 468,
      "alse": 469,
      "ault": 470,
      "Ġ:": 471,
      "Er": 472,
      "\")": 473,
      "Ġname": 474,
      "Error": 475,
      "ta": 476,
      "Ġco": 477,
      "IN": 478,
      "ty": 479,
      "Re": 480,
      "path": 481,
      "ys": 482,
      "out": 483,
      "ho": 484,
      "ic": 485,
      "tem": 486,
      "iz": 487,
      "Ġ<": 488,
      "quest": 489,
      "ĊĠ": 490,
      "mple": 491,
      "assertEqual": 492,
      "ack": 493,
      "ise": 494,
      "app": 495,
      "ure": 496,
      "pt": 497,
      "module": 498,
      "po": 499,
      "mb": 500,
      "Ġpro": 501,
      "kw": 502,
      "ask": 503,
      "dd": 504,
      "mo": 505,
      "ĠD": 506,
      "'),": 507,
      "Ġme": 508,
      "Ġpar": 509,
      "Ġlo": 510,
      "In": 511,
      "Get": 512,
      "bject": 513,
      "sh": 514,
      "ci": 515,
      "thod": 516,
      "='": 517,
      "Ġ**": 518,
      "====": 519,
      "tri": 520,
      "Ġns": 521,
      "wor": 522,
      "Ġfile": 523,
      "########": 524,
      "Ġv": 525,
      "ĊĠĠĠĠĠĠĠĠĠĠĠĠĠĠĠĠĠĠ": 526,
      "ly": 527,
      "kwargs": 528,
      "ĠM": 529,
      "stan": 530,
      "fo": 531,
      "([": 532,
      "data": 533,
      "ces": 534,
      "unction": 535,
      "ĠO": 536,
      "che": 537,
      "ist": 538,
      "AT": 539,
      "ĠĠĠĠĠĠĠĠĠĠĠĠĠĠĠĠ": 540,
      "ĠĊĠĠĠĠĠĠĠĠĠĠĠĠĠĠĠĠĠĠ": 541,
      "option": 542,
      "ff": 543,
      "Ġy": 544,
      "ield": 545,
      "col": 546,
      "ctor": 547,
      "Ġassert": 548,
      "ray": 549,
      "rent": 550,
      "lic": 551,
      "red": 552,
      "Ġen": 553,
      "ress": 554,
      "Ġ__": 555,
      "us": 556,
      "reate": 557,
      "if": 558,
      "mat": 559,
      "est": 560,
      "ind": 561,
      "sc": 562,
      "Ġ>": 563,
      "fig": 564,
      "Ġ`": 565,
      "Ġel": 566,
      "roup": 567,
      "ange": 568,
      "bo": 569,
      "ĠR": 570,
      "Ġma": 571,
      "Ġun": 572,
      "unt": 573,
      "Ġx": 574,
      "tro": 575,
      "ry": 576,
      "array": 577,
      "Ġstr": 578,
      "cess": 579,
      "com": 580,
      "ON": 581,
      "sp": 582,
      "our": 583,
      "Ġ('": 584,
      "ang": 585,
      "import": 586,
      "ĊĠĠĠĠĠĠĠĠ": 587,
      "Ġelse": 588,
      "IT": 589,
      "Val": 590,
      "ĠE": 591,
      "(*": 592,
      "Ġthat": 593,
      "param": 594,
      "Ġkey": 595,
      "Ġthis": 596,
      "date": 597,
      "Ġit": 598,
      "Ġ3": 599,
      "art": 600,
      "line": 601,
      "Ġl": 602,
      "AL": 603,
      "py": 604,
      "pre": 605,
      "ĠW": 606,
      "Con": 607,
      "ĠN": 608,
      "rint": 609,
      "Ġon": 610,
      "pon": 611,
      "ĠG": 612,
      "ĠB": 613,
      "25": 614,
      "Ġuse": 615,
      "RE": 616,
      "net": 617,
      "fa": 618,
      "ten": 619,
      "'):": 620,
      "bute": 621,
      "Ġset": 622,
      "ag": 623,
      ").": 624,
      "code": 625,
      "..": 626,
      "Ġ->": 627,
      "vent": 628,
      "ary": 629,
      "method": 630,
      "Ġpa": 631,
      "fe": 632,
      "ST": 633,
      "mode": 634,
      "pv": 635,
      "om": 636,
      "Ġdata": 637,
      "Ġat": 638,
      "Ġwh": 639,
      "url": 640,
      "oc": 641,
      "</": 642,
      "ator": 643,
      "Ġcls": 644,
      "ac": 645,
      "De": 646,
      "ssage": 647,
      "ĠThe": 648,
      "tribute": 649,
      "Value": 650,
      "cept": 651,
      "ree": 652,
      "vice": 653,
      "dex": 654,
      "Type": 655,
      "Ġtype": 656,
      "ext": 657,
      "ense": 658,
      "Ġal": 659,
      "jo": 660,
      "Ġfrom": 661,
      "Ġfunction": 662,
      "Ġra": 663,
      "Ġby": 664,
      "low": 665,
      "Ġget": 666,
      "__(": 667,
      "ĠTrue": 668,
      "dir": 669,
      "stance": 670,
      "OR": 671,
      "version": 672,
      "os": 673,
      "Ġresult": 674,
      "ponse": 675,
      "----------------": 676,
      "01": 677,
      "ore": 678,
      "AR": 679,
      "ther": 680,
      "LE": 681,
      "ize": 682,
      "ir": 683,
      "ener": 684,
      "ms": 685,
      "ĠU": 686,
      "ample": 687,
      "rap": 688,
      "late": 689,
      "umn": 690,
      "append": 691,
      "\":": 692,
      "ou": 693,
      "work": 694,
      "tic": 695,
      "Ġout": 696,
      "Ċĉĉĉ": 697,
      "ill": 698,
      "ari": 699,
      "init": 700,
      "ren": 701,
      "tp": 702,
      "ĠFalse": 703,
      "Ġlen": 704,
      "ader": 705,
      "atch": 706,
      "ded": 707,
      "error": 708,
      "contro": 709,
      "Ġos": 710,
      "Set": 711,
      "ET": 712,
      "user": 713,
      "lu": 714,
      "ds": 715,
      "tive": 716,
      "32": 717,
      "rite": 718,
      "pp": 719,
      "comp": 720,
      "field": 721,
      "ock": 722,
      "ne": 723,
      "min": 724,
      "ild": 725,
      "port": 726,
      "ca": 727,
      "temp": 728,
      "lay": 729,
      "EN": 730,
      "\">": 731,
      "lement": 732,
      "ĊĊĠ": 733,
      "_.": 734,
      "False": 735,
      "abel": 736,
      "Ġ4": 737,
      "read": 738,
      "Ġlist": 739,
      "heck": 740,
      "ans": 741,
      "Ġraise": 742,
      "Ġ)": 743,
      "valid": 744,
      "Ġint": 745,
      "dict": 746,
      "ok": 747,
      "try": 748,
      "cted": 749,
      "ml": 750,
      "controls": 751,
      "ble": 752,
      "ĊĠĠĠĠĠĠĠĠĠĠĠĠĠĠĠĠĠĠĠĠĠĠĠĠĠĠĠĠ": 753,
      "Ġare": 754,
      "ings": 755,
      "load": 756,
      "und": 757,
      "map": 758,
      "Ġ##": 759,
      "ses": 760,
      "count": 761,
      "Ġwe": 762,
      "ource": 763,
      "ze": 764,
      "cur": 765,
      "db": 766,
      "icense": 767,
      "cal": 768,
      "qui": 769,
      "ost": 770,
      "Ipv": 771,
      "Test": 772,
      "back": 773,
      "den": 774,
      "wa": 775,
      "ddress": 776,
      "of": 777,
      "ĊĠĠĠĠĠĠĠĠĠĠĠĠĠĠĠĠĠĠĠĠĠĠĠ": 778,
      "object": 779,
      "stru": 780,
      "gs": 781,
      "Ġtry": 782,
      "Ġch": 783,
      "uld": 784,
      "'],": 785,
      "AN": 786,
      "join": 787,
      "ip": 788,
      "Ġ@": 789,
      "lient": 790,
      "ape": 791,
      "root": 792,
      "og": 793,
      "inter": 794,
      "group": 795,
      "ave": 796,
      "lib": 797,
      "lect": 798,
      "Ġdefault": 799,
      "Field": 800,
      "ec": 801,
      "request": 802,
      "Ġcol": 803,
      "Name": 804,
      "Ke": 805,
      "Ġexcept": 806,
      "Ġsh": 807,
      "mber": 808,
      "default": 809,
      "fix": 810,
      "ll": 811,
      "ception": 812,
      "ango": 813,
      "ial": 814,
      "ust": 815,
      "ĊĠĠĠĠĠĠĠĠĠ": 816,
      "[\"": 817,
      "gn": 818,
      "ĠLicense": 819,
      "Ġpre": 820,
      "Ġprint": 821,
      ">>": 822,
      "own": 823,
      "jango": 824,
      "//": 825,
      "sub": 826,
      "St": 827,
      "ool": 828,
      "========": 829,
      "ument": 830,
      "Ġmodule": 831,
      "size": 832,
      "ard": 833,
      "string": 834,
      "At": 835,
      "10": 836,
      "state": 837,
      "ts": 838,
      "():": 839,
      "his": 840,
      "Ġsys": 841,
      "by": 842,
      "log": 843,
      "Pro": 844,
      "tent": 845,
      "Ġ{'": 846,
      "Key": 847,
      "ght": 848,
      "''": 849,
      "Ġsub": 850,
      "Ġcan": 851,
      "Ġmode": 852,
      "tain": 853,
      "Ġnew": 854,
      "################": 855,
      "Ġwill": 856,
      "Ġ}": 857,
      "IC": 858,
      "sed": 859,
      "thon": 860,
      "SE": 861,
      "Ġarray": 862,
      "ĠH": 863,
      "Ġtime": 864,
      "mit": 865,
      "Ġconst": 866,
      "instance": 867,
      "pen": 868,
      "64": 869,
      "scri": 870,
      "Se": 871,
      "**": 872,
      "umb": 873,
      "Ġnp": 874,
      "tes": 875,
      "da": 876,
      "peci": 877,
      "Ġoption": 878,
      "form": 879,
      "uti": 880,
      "ome": 881,
      "ated": 882,
      "ved": 883,
      "ĠIn": 884,
      "stri": 885,
      "\"]": 886,
      "Ġclass": 887,
      "Ġpath": 888,
      "ES": 889,
      "member": 890,
      "son": 891,
      "lif": 892,
      "Ġ[]": 893,
      "ong": 894,
      ".__": 895,
      "gth": 896,
      "ID": 897,
      "equal": 898,
      "ature": 899,
      "ume": 900,
      "opy": 901,
      "config": 902,
      "(),": 903,
      "start": 904,
      "mail": 905,
      "tring": 906,
      "ters": 907,
      "Ġuser": 908,
      "row": 909,
      "ref": 910,
      "Ġrequest": 911,
      "attr": 912,
      "ĊĊĠĠĠĠĠĠĠĠĠĠĠ": 913,
      "ine": 914,
      "Ġversion": 915,
      "ĊĠĠĠĠĠĠĠĠĠĠĠĠĠĠĠĠĠĠĠĠĠĠĠĠĠĠĠĠĠĠĠĠĠĠĠĠ": 916,
      "Ġno": 917,
      "core": 918,
      "Ġdo": 919,
      "())": 920,
      "ign": 921,
      "new": 922,
      "right": 923,
      "eturn": 924,
      "UT": 925,
      "ash": 926,
      "create": 927,
      "oid": 928,
      "lock": 929,
      "Ġlog": 930,
      "ger": 931,
      "uth": 932,
      "ĠIf": 933,
      "Ġ[],": 934,
      "ariable": 935,
      "ĠThis": 936,
      "Ġall": 937,
      "hould": 938,
      "input": 939,
      "AP": 940,
      "format": 941,
      "info": 942,
      "ity": 943,
      "link": 944,
      "check": 945,
      "Ġ5": 946,
      "models": 947,
      "://": 948,
      "umber": 949,
      "Ex": 950,
      "arget": 951,
      "Ġcur": 952,
      "vir": 953,
      "max": 954,
      "List": 955,
      "Ġ/": 956,
      "Ser": 957,
      "TER": 958,
      "ven": 959,
      "node": 960,
      "Ġser": 961,
      "Ġid": 962,
      "write": 963,
      "Ġobject": 964,
      "unc": 965,
      "andle": 966,
      "Ġparam": 967,
      "Ġapp": 968,
      "'}": 969,
      "main": 970,
      "ED": 971,
      "ual": 972,
      "ises": 973,
      "network": 974,
      "12": 975,
      "Ra": 976,
      "ull": 977,
      "Ch": 978,
      "ime": 979,
      "mand": 980,
      "word": 981,
      "result": 982,
      "Ġ['": 983,
      ":`": 984,
      "Ġstring": 985,
      "with": 986,
      "lace": 987,
      "Co": 988,
      "use": 989,
      "Ġcomp": 990,
      "ING": 991,
      "Ġk": 992,
      "Ġj": 993,
      "ich": 994,
      "no": 995,
      "Ġpass": 996,
      "fields": 997,
      "ory": 998,
      "lit": 999,
      "Ġshould": 1000,
      "Address": 1001,
      "host": 1002,
      "Ġhe": 1003,
      "'])": 1004,
      "ding": 1005,
      "ration": 1006,
      "parse": 1007,
      "ulti": 1008,
      "mon": 1009,
      "ark": 1010,
      "ee": 1011,
      "File": 1012,
      "context": 1013,
      "Ġelif": 1014,
      "du": 1015,
      "run": 1016,
      "Ġla": 1017,
      "process": 1018,
      "base": 1019,
      "return": 1020,
      "perty": 1021,
      "arch": 1022,
      "va": 1023,
      "Ġsup": 1024,
      "template": 1025,
      "ww": 1026,
      "ont": 1027,
      "Ġ>>>": 1028,
      "IG": 1029,
      "indow": 1030,
      "Ġarg": 1031,
      "Ġ!": 1032,
      "Ġnode": 1033,
      "mpty": 1034,
      "ight": 1035,
      "label": 1036,
      ".\"\"\"": 1037,
      "exp": 1038,
      "Item": 1039,
      "sys": 1040,
      "Data": 1041,
      "rep": 1042,
      "Ġcom": 1043,
      "tle": 1044,
      "Ġexp": 1045,
      "Ġoutput": 1046,
      "čĊĠĠĠĠĠĠĠ": 1047,
      "Ġ+=": 1048,
      "DE": 1049,
      "Ġ!=": 1050,
      "Ġline": 1051,
      "Ġmessage": 1052,
      "pecifi": 1053,
      "TE": 1054,
      "Ġstate": 1055,
      "lose": 1056,
      "face": 1057,
      "http": 1058,
      "Def": 1059,
      "ner": 1060,
      "Attribute": 1061,
      "'s": 1062,
      "pected": 1063,
      "index": 1064,
      "sent": 1065,
      "11": 1066,
      "Ġcheck": 1067,
      "ĠQ": 1068,
      "Ġcontext": 1069,
      "tial": 1070,
      "ran": 1071,
      "sible": 1072,
      "nd": 1073,
      "Ġfa": 1074,
      "Ġwhich": 1075,
      "Pa": 1076,
      "ute": 1077,
      "ION": 1078,
      "Base": 1079,
      "tings": 1080,
      "ach": 1081,
      "Ġbu": 1082,
      "ĠRe": 1083,
      "view": 1084,
      "ound": 1085,
      "clu": 1086,
      "Ġ{}": 1087,
      "Ġac": 1088,
      "std": 1089,
      "].": 1090,
      "names": 1091,
      "mage": 1092,
      "ctions": 1093,
      "sta": 1094,
      "led": 1095,
      "ations": 1096,
      "Ġ&": 1097,
      "().": 1098,
      "scription": 1099,
      "ties": 1100,
      "Ġresponse": 1101,
      "ph": 1102,
      "orm": 1103,
      "Ġper": 1104,
      "move": 1105,
      "Ġitem": 1106,
      "Ġfield": 1107,
      "loat": 1108,
      "ally": 1109,
      "arn": 1110,
      "ĠAN": 1111,
      "ValueError": 1112,
      "ĉĉ": 1113,
      "title": 1114,
      "Ġhas": 1115,
      "Ġother": 1116,
      "Par": 1117,
      "client": 1118,
      "Ġ6": 1119,
      "Ġconfig": 1120,
      "atus": 1121,
      "'t": 1122,
      "olumn": 1123,
      "UL": 1124,
      "ctory": 1125,
      "20": 1126,
      "Ġli": 1127,
      "uint": 1128,
      "ream": 1129,
      "ĠV": 1130,
      "Raises": 1131,
      "99": 1132,
      "ix": 1133,
      "RO": 1134,
      "assertTrue": 1135,
      "assertRaises": 1136,
      "IL": 1137,
      "\"),": 1138,
      "HT": 1139,
      "AM": 1140,
      "ETTER": 1141,
      "ps": 1142,
      "ĠX": 1143,
      "'))": 1144,
      "ĠLETTER": 1145,
      "sign": 1146,
      "oft": 1147,
      "im": 1148,
      "AS": 1149,
      "Ġbase": 1150,
      "xx": 1151,
      "Ġerror": 1152,
      "ant": 1153,
      "uple": 1154,
      "ware": 1155,
      "Ġadd": 1156,
      "Ġisinstance": 1157,
      "Ġle": 1158,
      "ject": 1159,
      "ĠĠĠĠĠ": 1160,
      "quired": 1161,
      "pos": 1162,
      "CT": 1163,
      "ay": 1164,
      "eturns": 1165,
      "message": 1166,
      "Ġ\\": 1167,
      "sk": 1168,
      "Ġhave": 1169,
      "Time": 1170,
      "0000": 1171,
      "Text": 1172,
      "fy": 1173,
      "task": 1174,
      "nection": 1175,
      "Ġvalues": 1176,
      "ord": 1177,
      "Ġpy": 1178,
      "Ġyou": 1179,
      "we": 1180,
      "structor": 1181,
      "sing": 1182,
      "Ġ..": 1183,
      "men": 1184,
      "Ġup": 1185,
      "md": 1186,
      "Ġused": 1187,
      "item": 1188,
      "Ġdict": 1189,
      "length": 1190,
      "call": 1191,
      "IP": 1192,
      "gis": 1193,
      "Ġrange": 1194,
      "Ġunder": 1195,
      "((": 1196,
      "16": 1197,
      "Ġbut": 1198,
      "ĠGet": 1199,
      "raph": 1200,
      "ite": 1201,
      "html": 1202,
      "ton": 1203,
      "Ġinter": 1204,
      "ked": 1205,
      "utils": 1206,
      "django": 1207,
      "CH": 1208,
      "print": 1209,
      "String": 1210,
      "Ġspecifi": 1211,
      "split": 1212,
      "``": 1213,
      "En": 1214,
      "Ġelement": 1215,
      "not": 1216,
      "response": 1217,
      "Ġmethod": 1218,
      "=[": 1219,
      "shape": 1220,
      "feren": 1221,
      "ĠĠĠĠĠĠ": 1222,
      "ĠEx": 1223,
      "Ġany": 1224,
      "ery": 1225,
      "idget": 1226,
      "UR": 1227,
      "ep": 1228,
      "keys": 1229,
      "ublic": 1230,
      "table": 1231,
      "Ġurl": 1232,
      "24": 1233,
      "Ġpo": 1234,
      "Id": 1235,
      "cs": 1236,
      "yn": 1237,
      "be": 1238,
      "trl": 1239,
      "params": 1240,
      "ick": 1241,
      "Default": 1242,
      "park": 1243,
      "Ġcreate": 1244,
      "Ġrun": 1245,
      "Ġmap": 1246,
      "ax": 1247,
      "vel": 1248,
      "Ġcode": 1249,
      "Ġ.": 1250,
      "'.": 1251,
      "event": 1252,
      "pri": 1253,
      "rans": 1254,
      "Res": 1255,
      "sions": 1256,
      "andom": 1257,
      "mask": 1258,
      "mbda": 1259,
      "'\\": 1260,
      "Ġwhen": 1261,
      "Ġcurrent": 1262,
      "elper": 1263,
      "255": 1264,
      "AB": 1265,
      "func": 1266,
      "Ġ``": 1267,
      "ance": 1268,
      "irst": 1269,
      "IM": 1270,
      "To": 1271,
      "lean": 1272,
      "output": 1273,
      "my": 1274,
      "Ġindex": 1275,
      "Ġne": 1276,
      "Ġht": 1277,
      "elp": 1278,
      "Ġinput": 1279,
      "ols": 1280,
      "trol": 1281,
      "Ctrl": 1282,
      "ĠTest": 1283,
      "gin": 1284,
      "rame": 1285,
      "dit": 1286,
      "rc": 1287,
      "Ġevent": 1288,
      "lete": 1289,
      "open": 1290,
      "ializ": 1291,
      "Ġdoc": 1292,
      "fil": 1293,
      "sor": 1294,
      "address": 1295,
      "json": 1296,
      "ĠReturns": 1297,
      "ALL": 1298,
      "04": 1299,
      "15": 1300,
      "Ġgroup": 1301,
      "--------------------------------": 1302,
      "ameters": 1303,
      "doc": 1304,
      "so": 1305,
      "ENT": 1306,
      "ql": 1307,
      "Ġgi": 1308,
      "any": 1309,
      "(_": 1310,
      "function": 1311,
      "ĊĠĠĠĠĠĠĠĠĠĠĠĠĠ": 1312,
      "oo": 1313,
      "Ġargs": 1314,
      "Ġcopy": 1315,
      "Path": 1316,
      "abc": 1317,
      "Ġ'''": 1318,
      "Ġfe": 1319,
      "Mode": 1320,
      "gra": 1321,
      "vol": 1322,
      "Ġhost": 1323,
      "oftware": 1324,
      "Ġdate": 1325,
      "tocol": 1326,
      "Ġdire": 1327,
      "ken": 1328,
      "gister": 1329,
      "close": 1330,
      "Ġ7": 1331,
      "ĠK": 1332,
      "Ġmo": 1333,
      "19": 1334,
      "const": 1335,
      "values": 1336,
      "ĠCon": 1337,
      "clude": 1338,
      "').": 1339,
      "ers": 1340,
      "ĊĠĠĠĠĠĠĠĠĠĠĠĠĠĠ": 1341,
      "Ġbool": 1342,
      "select": 1343,
      "ors": 1344,
      "ĊĠĠĠĠĠĠĠĠĠĠĠĠĠĠĠĠĠĠĠĠĠĠĠĠĠĠĠ": 1345,
      "Ġstart": 1346,
      "bin": 1347,
      "gr": 1348,
      "spe": 1349,
      "exec": 1350,
      "ures": 1351,
      "obj": 1352,
      "Ġtask": 1353,
      "las": 1354,
      "ies": 1355,
      "lat": 1356,
      "mis": 1357,
      "Ġtext": 1358,
      "query": 1359,
      "stant": 1360,
      "Ġmodels": 1361,
      ".,": 1362,
      "nect": 1363,
      "its": 1364,
      "mary": 1365,
      "teger": 1366,
      "Ġsc": 1367,
      "do": 1368,
      "Ġmock": 1369,
      "CO": 1370,
      "pace": 1371,
      "ffer": 1372,
      "Ġ--": 1373,
      "Ġmatch": 1374,
      "ments": 1375,
      "bug": 1376,
      "lection": 1377,
      "tions": 1378,
      "IS": 1379,
      "ANT": 1380,
      "sg": 1381,
      "Ġ10": 1382,
      "uto": 1383,
      "Ptr": 1384,
      "yle": 1385,
      "msg": 1386,
      "Ġmay": 1387,
      "14": 1388,
      "ids": 1389,
      "Ġ'\\": 1390,
      "Ġfirst": 1391,
      "copy": 1392,
      "types": 1393,
      "amples": 1394,
      "cation": 1395,
      "Ġattribute": 1396,
      "options": 1397,
      "void": 1398,
      "čĊĠĠĠ": 1399,
      "Ġsa": 1400,
      "================": 1401,
      "23": 1402,
      "prefix": 1403,
      "viron": 1404,
      "Ġdjango": 1405,
      "update": 1406,
      "cre": 1407,
      "Ġone": 1408,
      "lines": 1409,
      "nel": 1410,
      "Ġwor": 1411,
      "ocket": 1412,
      "Ġcontain": 1413,
      "ML": 1414,
      "ain": 1415,
      "State": 1416,
      "stribu": 1417,
      "target": 1418,
      "org": 1419,
      "TR": 1420,
      "ting": 1421,
      "quen": 1422,
      "Ġte": 1423,
      "ody": 1424,
      "Ġonly": 1425,
      "api": 1426,
      "Ġad": 1427,
      "})": 1428,
      "empty": 1429,
      "Ġgiven": 1430,
      "ped": 1431,
      "ld": 1432,
      "Ġoptions": 1433,
      "fla": 1434,
      "Ġopen": 1435,
      "ĠOR": 1436,
      "Ġ]": 1437,
      "Ġnumber": 1438,
      "auth": 1439,
      "utton": 1440,
      "200": 1441,
      "pi": 1442,
      "Ġso": 1443,
      "Inter": 1444,
      "[:": 1445,
      "ache": 1446,
      "tual": 1447,
      "var": 1448,
      "pack": 1449,
      "ft": 1450,
      "Ġab": 1451,
      "ĠGener": 1452,
      "pass": 1453,
      "Ġz": 1454,
      "Ġipv": 1455,
      "Ġroot": 1456,
      "trans": 1457,
      "perties": 1458,
      "err": 1459,
      "cond": 1460,
      "content": 1461,
      "exten": 1462,
      "LI": 1463,
      "cr": 1464,
      "mock": 1465,
      "Ġparent": 1466,
      "17": 1467,
      "onent": 1468,
      "Ġexpected": 1469,
      "PO": 1470,
      "ĠPy": 1471,
      "andler": 1472,
      "ops": 1473,
      "Ġgener": 1474,
      "Request": 1475,
      "Ġvariable": 1476,
      "service": 1477,
      "Un": 1478,
      "constructor": 1479,
      ")))": 1480,
      "ĠLAT": 1481,
      "ĠLATIN": 1482,
      "')])": 1483,
      "Ġnames": 1484,
      "python": 1485,
      "Case": 1486,
      "ĠSee": 1487,
      "={": 1488,
      "block": 1489,
      "Event": 1490,
      "NU": 1491,
      "na": 1492,
      "Ġ|": 1493,
      "ilter": 1494,
      "local": 1495,
      "Ġmax": 1496,
      "model": 1497,
      "Ġ--------": 1498,
      "race": 1499,
      "rapper": 1500,
      "env": 1501,
      "Me": 1502,
      "change": 1503,
      "13": 1504,
      "ank": 1505,
      "cope": 1506,
      "ves": 1507,
      "Ġvi": 1508,
      "orted": 1509,
      "Ġdescription": 1510,
      "Di": 1511,
      "dices": 1512,
      "ava": 1513,
      "Ġread": 1514,
      "Ġmore": 1515,
      "FI": 1516,
      "coding": 1517,
      "Ġmust": 1518,
      "Node": 1519,
      "status": 1520,
      "Ġresults": 1521,
      "22": 1522,
      "Ġ(\"": 1523,
      "are": 1524,
      "Ġ'%": 1525,
      "sition": 1526,
      "Ġtag": 1527,
      "foo": 1528,
      "dat": 1529,
      "iled": 1530,
      "ference": 1531,
      "Ġsize": 1532,
      "ultip": 1533,
      "50": 1534,
      "Ġformat": 1535,
      "Ġhttp": 1536,
      "201": 1537,
      "icode": 1538,
      "'}),": 1539,
      "the": 1540,
      "ĠY": 1541,
      "allback": 1542,
      "find": 1543,
      "over": 1544,
      "253": 1545,
      ":`.": 1546,
      "18": 1547,
      "acket": 1548,
      "Ġver": 1549,
      "utf": 1550,
      "ression": 1551,
      "HO": 1552,
      "Size": 1553,
      "angu": 1554,
      "virtual": 1555,
      "ollow": 1556,
      "Is": 1557,
      "anguage": 1558,
      "cate": 1559,
      "Ġvalid": 1560,
      "Ġrequired": 1561,
      "Ġsu": 1562,
      "tin": 1563,
      "lob": 1564,
      "internet": 1565,
      "tity": 1566,
      "ak": 1567,
      "LO": 1568,
      "annel": 1569,
      "float": 1570,
      "column": 1571,
      "hoi": 1572,
      "ĠOF": 1573,
      "www": 1574,
      "*-": 1575,
      "ym": 1576,
      "################################": 1577,
      "OT": 1578,
      "element": 1579,
      "gen": 1580,
      "filename": 1581,
      "30": 1582,
      "ĊĊĊĠĠĠ": 1583,
      "raw": 1584,
      "Ġ-*-": 1585,
      "oper": 1586,
      "Ġdoes": 1587,
      ")]": 1588,
      "num": 1589,
      "ste": 1590,
      "derr": 1591,
      "man": 1592,
      "><": 1593,
      "Po": 1594,
      "xtra": 1595,
      "nsor": 1596,
      "ĠWIT": 1597,
      "HE": 1598,
      "AG": 1599,
      "ĠAn": 1600,
      "bar": 1601,
      "čĊĠĠĠĠĠĠĠĠĠĠĠ": 1602,
      "Column": 1603,
      "fer": 1604,
      "ĠDe": 1605,
      "Ġfiles": 1606,
      "Ġcommand": 1607,
      "AC": 1608,
      "KE": 1609,
      "itial": 1610,
      "Ġrep": 1611,
      "idth": 1612,
      "here": 1613,
      "eta": 1614,
      "Ġval": 1615,
      "Ġargument": 1616,
      "All": 1617,
      "ake": 1618,
      "lot": 1619,
      "****": 1620,
      "Ġ8": 1621,
      "Ġtuple": 1622,
      "ox": 1623,
      "Ġend": 1624,
      "filter": 1625,
      "tifi": 1626,
      "abase": 1627,
      "tail": 1628,
      "ell": 1629,
      "gor": 1630,
      "sa": 1631,
      "rect": 1632,
      "Ġimp": 1633,
      "fore": 1634,
      "render": 1635,
      "aders": 1636,
      "Ġdistribu": 1637,
      "arker": 1638,
      "Check": 1639,
      "Ġover": 1640,
      "struct": 1641,
      "Ġcolumn": 1642,
      "Ġsource": 1643,
      "Ġtrans": 1644,
      "ast": 1645,
      "Ġro": 1646,
      "Ġorder": 1647,
      "ists": 1648,
      "sets": 1649,
      "US": 1650,
      "Ġvoid": 1651,
      "Context": 1652,
      "uid": 1653,
      "ĠSet": 1654,
      "Char": 1655,
      "55": 1656,
      "]]": 1657,
      "connect": 1658,
      "span": 1659,
      "ote": 1660,
      "other": 1661,
      "rule": 1662,
      "cei": 1663,
      "imple": 1664,
      "sw": 1665,
      "property": 1666,
      "onents": 1667,
      "ump": 1668,
      "Ġshape": 1669,
      "></": 1670,
      "CON": 1671,
      "email": 1672,
      "ion": 1673,
      "variable": 1674,
      "Ġax": 1675,
      "lication": 1676,
      "reg": 1677,
      "quot": 1678,
      "For": 1679,
      "ging": 1680,
      "np": 1681,
      "oi": 1682,
      "dition": 1683,
      "license": 1684,
      "objects": 1685,
      "utable": 1686,
      "Ġstd": 1687,
      "ĠString": 1688,
      "Ġwork": 1689,
      "\"))": 1690,
      "EV": 1691,
      "Ġattr": 1692,
      "ĠValueError": 1693,
      "dent": 1694,
      "datetime": 1695,
      "Ġlabel": 1696,
      "current": 1697,
      "Net": 1698,
      "Object": 1699,
      "Model": 1700,
      "MP": 1701,
      "ĠIN": 1702,
      "TestCase": 1703,
      "Create": 1704,
      "cp": 1705,
      "atures": 1706,
      "fir": 1707,
      "Ġparams": 1708,
      "ler": 1709,
      "Ġaddress": 1710,
      "ĠGNU": 1711,
      "][": 1712,
      "range": 1713,
      "force": 1714,
      "inal": 1715,
      "ĠPublic": 1716,
      "Vi": 1717,
      "Ġcal": 1718,
      "ither": 1719,
      "Ġ</": 1720,
      "Service": 1721,
      "čĊ": 1722,
      "Ġoff": 1723,
      "ili": 1724,
      "else": 1725,
      "Ġuid": 1726,
      "ĠSM": 1727,
      "tools": 1728,
      "opyright": 1729,
      "Ġsame": 1730,
      "Ġlong": 1731,
      "Ġpri": 1732,
      "Ġproperty": 1733,
      "Ġkeys": 1734,
      "lector": 1735,
      "Ġmin": 1736,
      "source": 1737,
      "session": 1738,
      "Ar": 1739,
      "Fa": 1740,
      "Up": 1741,
      "vate": 1742,
      "Ġdtype": 1743,
      "Ġ201": 1744,
      "Ġmake": 1745,
      "ĠGeneral": 1746,
      "tree": 1747,
      "---": 1748,
      "Ġusing": 1749,
      "ager": 1750,
      "\".": 1751,
      "000": 1752,
      "Ġserver": 1753,
      "Ġ'$": 1754,
      "ĠANY": 1755,
      "cap": 1756,
      "Ġcr": 1757,
      "cor": 1758,
      "Tag": 1759,
      "ccess": 1760,
      "als": 1761,
      "Ġlambda": 1762,
      "ync": 1763,
      "fter": 1764,
      "Ġtemplate": 1765,
      "Add": 1766,
      "wx": 1767,
      "match": 1768,
      "Exception": 1769,
      "ĠSMALL": 1770,
      "DO": 1771,
      "Ġexec": 1772,
      "bool": 1773,
      "tag": 1774,
      "Ġpart": 1775,
      "([[": 1776,
      "quence": 1777,
      "Ġnet": 1778,
      "Ġsuper": 1779,
      "river": 1780,
      "Not": 1781,
      "ĠJ": 1782,
      "uration": 1783,
      "bose": 1784,
      ")),": 1785,
      "FA": 1786,
      "ittest": 1787,
      "49": 1788,
      "27": 1789,
      "ful": 1790,
      "ĠCo": 1791,
      "88": 1792,
      "FT": 1793,
      "order": 1794,
      "Ġpos": 1795,
      "abled": 1796,
      "ĠUn": 1797,
      "kemon": 1798,
      "gorith": 1799,
      "56": 1800,
      "vide": 1801,
      "Ns": 1802,
      "ink": 1803,
      "ined": 1804,
      "Ġag": 1805,
      "adata": 1806,
      "Pre": 1807,
      "Ġge": 1808,
      "ats": 1809,
      "ĠCopyright": 1810,
      "ustom": 1811,
      "Fe": 1812,
      "Ġ',": 1813,
      "Ġdirectory": 1814,
      "dio": 1815,
      "Ġchange": 1816,
      "present": 1817,
      "APIT": 1818,
      "lease": 1819,
      "Ġdup": 1820,
      "mote": 1821,
      "replace": 1822,
      "40": 1823,
      "old": 1824,
      "part": 1825,
      "Ġprocess": 1826,
      "LIC": 1827,
      "Ġcontent": 1828,
      "ometry": 1829,
      "APITAL": 1830,
      "AD": 1831,
      "div": 1832,
      "lated": 1833,
      "results": 1834,
      "60": 1835,
      "cy": 1836,
      "ĠZ": 1837,
      "Ġtarget": 1838,
      "Ġmask": 1839,
      "last": 1840,
      "iter": 1841,
      "les": 1842,
      "Ġentry": 1843,
      "pk": 1844,
      "ĠIP": 1845,
      "Ċĉĉĉĉ": 1846,
      "has": 1847,
      "store": 1848,
      "Count": 1849,
      "Ġoper": 1850,
      "rid": 1851,
      "verse": 1852,
      "igh": 1853,
      "AME": 1854,
      "Ġdistributed": 1855,
      "Ġcontrol": 1856,
      "ĠCAPITAL": 1857,
      "Ċĉĉĉĉĉ": 1858,
      "Ġmodel": 1859,
      "ski": 1860,
      "QU": 1861,
      "Ġsome": 1862,
      "Ġmsg": 1863,
      "stamp": 1864,
      "ĠAND": 1865,
      "ning": 1866,
      "asked": 1867,
      "termin": 1868,
      "parent": 1869,
      "ĠAr": 1870,
      "Tool": 1871,
      "lected": 1872,
      "lish": 1873,
      "ameter": 1874,
      "Ġstyle": 1875,
      "apping": 1876,
      "util": 1877,
      "Ġfields": 1878,
      "Ġmodi": 1879,
      "cf": 1880,
      "mory": 1881,
      "')],": 1882,
      "Ġback": 1883,
      "Device": 1884,
      "EX": 1885,
      "Ġfla": 1886,
      "sit": 1887,
      "gram": 1888,
      "graph": 1889,
      "static": 1890,
      "PE": 1891,
      "password": 1892,
      "su": 1893,
      "Ġuv": 1894,
      "nown": 1895,
      "stra": 1896,
      "Ġdataset": 1897,
      "tra": 1898,
      "Ġref": 1899,
      "igration": 1900,
      "strip": 1901,
      "Ġport": 1902,
      "files": 1903,
      "33": 1904,
      "Ġtable": 1905,
      "Ġinto": 1906,
      "settings": 1907,
      "Ġwithout": 1908,
      "gorithm": 1909,
      "The": 1910,
      "ymb": 1911,
      "less": 1912,
      "page": 1913,
      "ĠWAR": 1914,
      "Ġprefix": 1915,
      "ights": 1916,
      "({": 1917,
      "++": 1918,
      "TP": 1919,
      "Ġeither": 1920,
      "Ġreturned": 1921,
      "ialize": 1922,
      "]))": 1923,
      "bl": 1924,
      "pb": 1925,
      "child": 1926,
      "ĠColumn": 1927,
      "ackage": 1928,
      "ĠPython": 1929,
      "Class": 1930,
      "example": 1931,
      "build": 1932,
      "29": 1933,
      "No": 1934,
      "nal": 1935,
      "now": 1936,
      "Ġar": 1937,
      "Ġ'<": 1938,
      "Ġcase": 1939,
      "Ġdf": 1940,
      "box": 1941,
      "components": 1942,
      "Ġ},": 1943,
      "Tree": 1944,
      "swith": 1945,
      "wh": 1946,
      "gener": 1947,
      "sum": 1948,
      "attribute": 1949,
      "Ġsee": 1950,
      "Ġenv": 1951,
      "job": 1952,
      "curity": 1953,
      "ormal": 1954,
      "Cur": 1955,
      "remove": 1956,
      "char": 1957,
      "Ġrule": 1958,
      "command": 1959,
      "flow": 1960,
      "Ġsign": 1961,
      "Ġeach": 1962,
      "Date": 1963,
      "UP": 1964,
      "cmd": 1965,
      "seq": 1966,
      "Bu": 1967,
      "UN": 1968,
      "ie": 1969,
      "lour": 1970,
      "ĊĠĠĠĠĠĠĠĠĠĠĠĠĠĠĠĠĠĠĠĠĠĠĠĠ": 1971,
      "ĠCON": 1972,
      "book": 1973,
      "tainer": 1974,
      "Ġ/>": 1975,
      "tmp": 1976,
      "Ġ\"\"": 1977,
      "ish": 1978,
      "...": 1979,
      "account": 1980,
      "FF": 1981,
      "Ġyield": 1982,
      "RANT": 1983,
      "cer": 1984,
      "Ġ[\"": 1985,
      "ffset": 1986,
      "lugin": 1987,
      "Ġclient": 1988,
      "Ref": 1989,
      "Ġfilename": 1990,
      "Ġsubprocess": 1991,
      "IGHT": 1992,
      "28": 1993,
      "br": 1994,
      "delete": 1995,
      "Ġexception": 1996,
      "ĊĠĠĠĠĠĠĠĠĊĠĠĠĠĠĠĠ": 1997,
      "ULT": 1998,
      "Ġlink": 1999,
      "Ġcall": 2000,
      "vision": 2001,
      "req": 2002,
      "round": 2003,
      "ffe": 2004,
      "ĠWARRANT": 2005,
      "actions": 2006,
      "ique": 2007,
      "Ġrow": 2008,
      "ĊĉĠ": 2009,
      "cli": 2010,
      "hash": 2011,
      "mt": 2012,
      "He": 2013,
      "SS": 2014,
      "iss": 2015,
      "ero": 2016,
      "Ġform": 2017,
      "active": 2018,
      "ias": 2019,
      "yload": 2020,
      "lied": 2021,
      "Ġwas": 2022,
      "exception": 2023,
      "Ġneed": 2024,
      "59": 2025,
      "Ġthen": 2026,
      "Valid": 2027,
      "34": 2028,
      "]),": 2029,
      "pol": 2030,
      "stream": 2031,
      "properties": 2032,
      "Ġload": 2033,
      "repr": 2034,
      "Element": 2035,
      "CharField": 2036,
      "older": 2037,
      "Ġtests": 2038,
      "Index": 2039,
      "Ġdocument": 2040,
      "Ġchild": 2041,
      "cls": 2042,
      "Ġcor": 2043,
      "ates": 2044,
      "vert": 2045,
      "ĠPar": 2046,
      "batch": 2047,
      "ched": 2048,
      "Ġhelp": 2049,
      "lasses": 2050,
      "Group": 2051,
      "ources": 2052,
      "cache": 2053,
      "`.": 2054,
      "Ġyour": 2055,
      "ility": 2056,
      "Lay": 2057,
      "Ġfollow": 2058,
      "Ġop": 2059,
      "Ġdel": 2060,
      "Ġcount": 2061,
      "show": 2062,
      "methods": 2063,
      "Ġallow": 2064,
      "As": 2065,
      "RA": 2066,
      "layer": 2067,
      "Ġspecified": 2068,
      "Ġdatetime": 2069,
      "Ġsoftware": 2070,
      "arning": 2071,
      "[-": 2072,
      "action": 2073,
      "Ġren": 2074,
      "cii": 2075,
      "atabase": 2076,
      "Ġobj": 2077,
      "server": 2078,
      ")],": 2079,
      "OP": 2080,
      "body": 2081,
      "abs": 2082,
      "mation": 2083,
      "Window": 2084,
      "Helper": 2085,
      "NAME": 2086,
      "ous": 2087,
      "sten": 2088,
      "ĊĠĠĠĠĠĠĠĠĠĠ": 2089,
      "ESS": 2090,
      "items": 2091,
      "spec": 2092,
      "Interface": 2093,
      "\"])": 2094,
      "MM": 2095,
      "cord": 2096,
      "rag": 2097,
      "wait": 2098,
      "EVT": 2099,
      "čĊĠĠĠĠĠĠĠĠĠĠĠĠĠĠĠ": 2100,
      "limit": 2101,
      "Ġextra": 2102,
      "added": 2103,
      "IGN": 2104,
      "tify": 2105,
      "post": 2106,
      "TH": 2107,
      "width": 2108,
      "description": 2109,
      "debug": 2110,
      "tinue": 2111,
      "ince": 2112,
      "%(": 2113,
      "Py": 2114,
      "keep": 2115,
      "ITY": 2116,
      "quire": 2117,
      "Ġregister": 2118,
      "Ġoffset": 2119,
      "80": 2120,
      "Ġ'/": 2121,
      "Ġfloat": 2122,
      "Ġinstance": 2123,
      "umns": 2124,
      "KEY": 2125,
      "del": 2126,
      "make": 2127,
      "Info": 2128,
      "Ġlast": 2129,
      "SP": 2130,
      "ized": 2131,
      "mission": 2132,
      "Ġaxis": 2133,
      "EM": 2134,
      "User": 2135,
      "xy": 2136,
      "Ġwx": 2137,
      "rp": 2138,
      "ution": 2139,
      "','": 2140,
      "Config": 2141,
      "By": 2142,
      "sql": 2143,
      "Attr": 2144,
      "Ġspecific": 2145,
      "ĠYou": 2146,
      "Box": 2147,
      "Packet": 2148,
      "expected": 2149,
      "Ġlocal": 2150,
      "Message": 2151,
      "site": 2152,
      "Ġsupport": 2153,
      "Ġlimit": 2154,
      "Wrapper": 2155,
      "frame": 2156,
      "Ġthan": 2157,
      "Ġlength": 2158,
      "wo": 2159,
      "xml": 2160,
      "Ġconnection": 2161,
      "pool": 2162,
      "ART": 2163,
      "volume": 2164,
      "Lo": 2165,
      "her": 2166,
      "reak": 2167,
      "encode": 2168,
      "conf": 2169,
      "Ġsta": 2170,
      "backend": 2171,
      "Ġreg": 2172,
      "ATE": 2173,
      "Ġwhile": 2174,
      "tails": 2175,
      "ceived": 2176,
      "search": 2177,
      "Ġexten": 2178,
      "compile": 2179,
      "cl": 2180,
      "helper": 2181,
      "ating": 2182,
      "Ġsample": 2183,
      "ĊĠĠĠĠĠĠĠĠĠĠĠĠĠĠĠĠĠĠĠĠĠĠĠĠĠĠĠĠĠ": 2184,
      "pop": 2185,
      "section": 2186,
      "Ġsp": 2187,
      "Ġbla": 2188,
      "Ġuint": 2189,
      "fail": 2190,
      "Button": 2191,
      "ha": 2192,
      "Ġ9": 2193,
      "Ġkwargs": 2194,
      "Ġchoi": 2195,
      "Ġdis": 2196,
      "Ġresp": 2197,
      "ĠDO": 2198,
      "Ġchar": 2199,
      "random": 2200,
      "Ġauth": 2201,
      "argv": 2202,
      "stdout": 2203,
      "Ġnon": 2204,
      "RL": 2205,
      "UB": 2206,
      "Ġ[[": 2207,
      "xxxx": 2208,
      "Ġpython": 2209,
      ".\"": 2210,
      "Callback": 2211,
      "stall": 2212,
      "Ġcontinue": 2213,
      ")):": 2214,
      "splay": 2215,
      "libr": 2216,
      "37": 2217,
      "Ġquery": 2218,
      "Ġaction": 2219,
      "otal": 2220,
      "ublish": 2221,
      "Ġrandom": 2222,
      "ĠWe": 2223,
      "Ġ&',": 2224,
      "Ġ'.": 2225,
      "Ġwri": 2226,
      "Ġ200": 2227,
      "oreign": 2228,
      "duct": 2229,
      "alt": 2230,
      "Ġsk": 2231,
      "uture": 2232,
      "fied": 2233,
      "Ġ\"%": 2234,
      "exit": 2235,
      "Ġhere": 2236,
      "ultiple": 2237,
      "Module": 2238,
      "java": 2239,
      "coun": 2240,
      "itmap": 2241,
      "ĊĠĠĠĠĠĠĠĠĠĠĠĠĠĠĠĠĠ": 2242,
      "HTML": 2243,
      ")\"\"\"": 2244,
      "mod": 2245,
      "lice": 2246,
      "ĠTHE": 2247,
      "dataset": 2248,
      "ĊĠĠĠĠĠĠĠĠĠĠĠĠĠĠĠĠĠĠĠĠĠĠĠĠĠĠĠĠĠĠĠ": 2249,
      "\\\\": 2250,
      "image": 2251,
      "oog": 2252,
      "level": 2253,
      "testType": 2254,
      "first": 2255,
      "Current": 2256,
      "67": 2257,
      "thing": 2258,
      "ĊĠĠĠĠĠĠĠĠĠĠĠĠĠĠĠĠĠĠĠĠĠĠĠĠĠĠĠĠĠĠĠĠĠĠĠĠĠĠĠĠĠĠĠĠ": 2259,
      "Attributes": 2260,
      "uff": 2261,
      "ersion": 2262,
      "Ġpage": 2263,
      "AND": 2264,
      "Ġpassword": 2265,
      "IR": 2266,
      "Log": 2267,
      "TY": 2268,
      "down": 2269,
      "dis": 2270,
      "ĊĠĠĠĠĠĠĠĠĠĠĠĠĠĠĠĠĠĠĠĠĠ": 2271,
      "'].": 2272,
      "trib": 2273,
      "100": 2274,
      "Out": 2275,
      "quet": 2276,
      "Ġsess": 2277,
      "URL": 2278,
      "CL": 2279,
      "NO": 2280,
      "gh": 2281,
      "Ġimage": 2282,
      "44": 2283,
      "ative": 2284,
      "df": 2285,
      "save": 2286,
      "tadata": 2287,
      "ĠFor": 2288,
      "TEST": 2289,
      "Ġupdate": 2290,
      "FILE": 2291,
      "coder": 2292,
      "Ġhash": 2293,
      "oogle": 2294,
      "]])": 2295,
      "ĠĊĠĠĠ": 2296,
      "paces": 2297,
      "Ġses": 2298,
      "ATH": 2299,
      "bytes": 2300,
      "script": 2301,
      "package": 2302,
      "case": 2303,
      "edit": 2304,
      "Ġreturns": 2305,
      "Tests": 2306,
      "cul": 2307,
      "Ġfilter": 2308,
      "ride": 2309,
      "ĠSt": 2310,
      "point": 2311,
      "YR": 2312,
      "Result": 2313,
      "font": 2314,
      "Ġ>',": 2315,
      "ready": 2316,
      "next": 2317,
      "lear": 2318,
      "Ġpas": 2319,
      "Ġtmp": 2320,
      "Ġman": 2321,
      "ĠBO": 2322,
      "LIST": 2323,
      "02": 2324,
      "TO": 2325,
      "environ": 2326,
      "Ġexist": 2327,
      "token": 2328,
      "ticle": 2329,
      "Ġtensor": 2330,
      "stderr": 2331,
      "ensor": 2332,
      "choi": 2333,
      "Ġsettings": 2334,
      "TypeId": 2335,
      "Dict": 2336,
      "null": 2337,
      "uuid": 2338,
      "related": 2339,
      "til": 2340,
      "day": 2341,
      "Ġjson": 2342,
      "cing": 2343,
      "number": 2344,
      "inv": 2345,
      "ntry": 2346,
      "true": 2347,
      "lambda": 2348,
      "Ġfail": 2349,
      "]],": 2350,
      "Ġafter": 2351,
      "terator": 2352,
      "ĠSoftware": 2353,
      "formation": 2354,
      "Ġcomple": 2355,
      "interface": 2356,
      "wise": 2357,
      "Ġtitle": 2358,
      "fit": 2359,
      "constant": 2360,
      "Ġhandle": 2361,
      "Ġits": 2362,
      "Ġalso": 2363,
      "INGS": 2364,
      "Ġsession": 2365,
      "Com": 2366,
      "lt": 2367,
      "rate": 2368,
      "ĠĊĠĠĠĠĠĠĠĠĠĠĠ": 2369,
      "Ġbet": 2370,
      "Protocol": 2371,
      "Ġlogging": 2372,
      "39": 2373,
      "89": 2374,
      "Ġ(_": 2375,
      "ctionary": 2376,
      "From": 2377,
      "rix": 2378,
      "admin": 2379,
      "gg": 2380,
      "Ġ,": 2381,
      "Ġblock": 2382,
      "ript": 2383,
      "connection": 2384,
      "Ġparser": 2385,
      "Ġfound": 2386,
      "latform": 2387,
      "cated": 2388,
      "},": 2389,
      "Ġmasked": 2390,
      "lation": 2391,
      "exists": 2392,
      "lend": 2393,
      "Ġ>=": 2394,
      "ILITY": 2395,
      "View": 2396,
      "Ġtrue": 2397,
      "Ġwrite": 2398,
      "lause": 2399,
      "Ġdir": 2400,
      "ify": 2401,
      "ialized": 2402,
      "Str": 2403,
      "ide": 2404,
      "Ġtemp": 2405,
      "sen": 2406,
      "Ġret": 2407,
      "Ġtra": 2408,
      "ilable": 2409,
      "queue": 2410,
      "Ġprogram": 2411,
      "TypeError": 2412,
      "ializer": 2413,
      "io": 2414,
      "Ġerr": 2415,
      "resh": 2416,
      "Ġlanguage": 2417,
      "flags": 2418,
      "library": 2419,
      "meta": 2420,
      "color": 2421,
      "licit": 2422,
      "Host": 2423,
      "PATH": 2424,
      "]:": 2425,
      "handler": 2426,
      "entry": 2427,
      "oding": 2428,
      "Ġdb": 2429,
      "Ġlook": 2430,
      "layout": 2431,
      "Ġfeature": 2432,
      "blank": 2433,
      "tx": 2434,
      "Ġdmp": 2435,
      "tests": 2436,
      "vider": 2437,
      "Ġbytes": 2438,
      "Ġright": 2439,
      "inish": 2440,
      "let": 2441,
      "Ġwhere": 2442,
      "ĠHT": 2443,
      "system": 2444,
      "Param": 2445,
      "ĊĊĠĠĠĠĠĠĠĠĠĠĠĠĠĠĠ": 2446,
      "Ġcoding": 2447,
      "cket": 2448,
      "gex": 2449,
      "chema": 2450,
      "imp": 2451,
      "sup": 2452,
      "win": 2453,
      "terms": 2454,
      "Ġdetails": 2455,
      "icker": 2456,
      "(['": 2457,
      "CE": 2458,
      "patch": 2459,
      "uct": 2460,
      "ĊĠĠĠĠĊĠĠĠ": 2461,
      "Ġimple": 2462,
      "Ġign": 2463,
      "ingle": 2464,
      "serialize": 2465,
      "Ġalong": 2466,
      "HOUT": 2467,
      "ĠArgs": 2468,
      "Ġcmd": 2469,
      "Ġnum": 2470,
      "Ġthere": 2471,
      "ily": 2472,
      "Map": 2473,
      "rou": 2474,
      "ĠIS": 2475,
      "ORT": 2476,
      "Ġmapper": 2477,
      "FAULT": 2478,
      "ĠIPv": 2479,
      "ries": 2480,
      "Ġ00": 2481,
      "sport": 2482,
      "extra": 2483,
      "ĠWITHOUT": 2484,
      "licenses": 2485,
      "oreignKey": 2486,
      "86": 2487,
      "security": 2488,
      "stop": 2489,
      "idden": 2490,
      "ĊĊĉ": 2491,
      "rel": 2492,
      "Ġparameter": 2493,
      "Ġexpression": 2494,
      "issing": 2495,
      "Sh": 2496,
      "XT": 2497,
      "Ġ----": 2498,
      "register": 2499,
      "header": 2500,
      "Option": 2501,
      "ators": 2502,
      "username": 2503,
      "groups": 2504,
      "startswith": 2505,
      "Feature": 2506,
      "'/": 2507,
      "IES": 2508,
      "future": 2509,
      "this": 2510,
      "Control": 2511,
      "'''": 2512,
      "dump": 2513,
      "Ġbuild": 2514,
      "signed": 2515,
      "\"):": 2516,
      "Ġph": 2517,
      "like": 2518,
      "Ġ...": 2519,
      "Ġelements": 2520,
      "Do": 2521,
      "Sub": 2522,
      "sparse": 2523,
      "tegr": 2524,
      "tition": 2525,
      "Ġnext": 2526,
      "Ġsearch": 2527,
      "COMM": 2528,
      "Ġchoices": 2529,
      "VE": 2530,
      "dtype": 2531,
      "scope": 2532,
      "argument": 2533,
      "OL": 2534,
      "ERR": 2535,
      "callback": 2536,
      "extend": 2537,
      "Output": 2538,
      "lendar": 2539,
      "ARE": 2540,
      "Bar": 2541,
      "ear": 2542,
      "ium": 2543,
      "ook": 2544,
      "dep": 2545,
      "dev": 2546,
      "Ġ''": 2547,
      "Ġnull": 2548,
      "Ġemail": 2549,
      "Ġheader": 2550,
      "Header": 2551,
      "Ġblah": 2552,
      "26": 2553,
      "IZ": 2554,
      "mark": 2555,
      "alias": 2556,
      "Ġact": 2557,
      "ĠTO": 2558,
      "Response": 2559,
      "offset": 2560,
      "Ġfind": 2561,
      "Ġindices": 2562,
      "mar": 2563,
      "Container": 2564,
      "RAW": 2565,
      "send": 2566,
      "indices": 2567,
      "remote": 2568,
      "INE": 2569,
      "Input": 2570,
      "optional": 2571,
      "Ġstatic": 2572,
      "77": 2573,
      "ĠTree": 2574,
      "Ġtoken": 2575,
      "ĠCreate": 2576,
      "ERS": 2577,
      "ron": 2578,
      "ĠFOR": 2579,
      "Ġ----------": 2580,
      "03": 2581,
      "Per": 2582,
      "oot": 2583,
      "place": 2584,
      "widget": 2585,
      "zip": 2586,
      "timeout": 2587,
      "Ġimplied": 2588,
      "Ġpassed": 2589,
      "Frame": 2590,
      "Or": 2591,
      "emp": 2592,
      "repo": 2593,
      "Ġ'-": 2594,
      "atter": 2595,
      "ĠCheck": 2596,
      "Reg": 2597,
      "Ġoptional": 2598,
      "Ġinterface": 2599,
      "assertAll": 2600,
      "Ġparse": 2601,
      "Ġobjects": 2602,
      "primary": 2603,
      "ABILITY": 2604,
      "05": 2605,
      "dered": 2606,
      "channel": 2607,
      "ĠType": 2608,
      "ĠNo": 2609,
      "mapper": 2610,
      "Ġversionadded": 2611,
      "ĠException": 2612,
      "Entry": 2613,
      "git": 2614,
      "yp": 2615,
      "Ġcv": 2616,
      "asic": 2617,
      "Ġwant": 2618,
      "']:": 2619,
      "feature": 2620,
      "HTMLEqual": 2621,
      "An": 2622,
      "Len": 2623,
      "Ġinclude": 2624,
      "Ġbin": 2625,
      "pokemon": 2626,
      "08": 2627,
      "Widget": 2628,
      "src": 2629,
      "tuple": 2630,
      "~~": 2631,
      "repe": 2632,
      "assertHTMLEqual": 2633,
      "INT": 2634,
      "usr": 2635,
      "Ġmain": 2636,
      "lobal": 2637,
      "36": 2638,
      "Task": 2639,
      "Ġutf": 2640,
      "assertFalse": 2641,
      "Ġdest": 2642,
      "project": 2643,
      "mented": 2644,
      "FOR": 2645,
      "ared": 2646,
      "served": 2647,
      "uble": 2648,
      "ĠParameters": 2649,
      "ground": 2650,
      "{}": 2651,
      "device": 2652,
      "Ġpackage": 2653,
      "Ġwidget": 2654,
      "Ġgr": 2655,
      "Ġselect": 2656,
      "Ġunicode": 2657,
      "Ġlate": 2658,
      "errors": 2659,
      "cause": 2660,
      "Ġgeometry": 2661,
      "Link": 2662,
      "driver": 2663,
      "ib": 2664,
      "top": 2665,
      "txt": 2666,
      "vm": 2667,
      "achine": 2668,
      "MA": 2669,
      "Ġview": 2670,
      "Ġca": 2671,
      "rable": 2672,
      "ĊĠĠĠĠĠĠĠĠĠĠĠĠĠĠĠĠĠĠĠĠĠĠĠĠĠ": 2673,
      "Ġdiffe": 2674,
      "NetDevice": 2675,
      ")])": 2676,
      "ose": 2677,
      "uri": 2678,
      "Ġorig": 2679,
      "ĠEn": 2680,
      "urllib": 2681,
      "Selection": 2682,
      "Checker": 2683,
      "CK": 2684,
      "Return": 2685,
      "ud": 2686,
      "('/": 2687,
      "subprocess": 2688,
      "'})": 2689,
      "web": 2690,
      "Ġcreated": 2691,
      "oolean": 2692,
      "changed": 2693,
      "Picker": 2694,
      "ĠKey": 2695,
      "real": 2696,
      "enter": 2697,
      "gest": 2698,
      "ĠIt": 2699,
      "lassi": 2700,
      "\"],": 2701,
      "Simple": 2702,
      "av": 2703,
      "Ġlines": 2704,
      "ĠDRAW": 2705,
      "TEXT": 2706,
      "functions": 2707,
      "partner": 2708,
      "Ġfollowing": 2709,
      "ĠBOX": 2710,
      "ĠDRAWINGS": 2711,
      "QL": 2712,
      "ĠPro": 2713,
      "Ġmath": 2714,
      "brow": 2715,
      "button": 2716,
      "Ġsocket": 2717,
      "vices": 2718,
      "Ġbefore": 2719,
      "features": 2720,
      "Ġattributes": 2721,
      "={'": 2722,
      "swig": 2723,
      "nu": 2724,
      "Ġ<=": 2725,
      "ĠUN": 2726,
      "75": 2727,
      ":%": 2728,
      "vor": 2729,
      "required": 2730,
      "conds": 2731,
      "ĠAt": 2732,
      "andard": 2733,
      "dense": 2734,
      "Ġhasattr": 2735,
      "Ġstdout": 2736,
      "45": 2737,
      "UM": 2738,
      "eval": 2739,
      "none": 2740,
      "left": 2741,
      "Ġauto": 2742,
      "Ġreal": 2743,
      "Ġopt": 2744,
      "Ġmarker": 2745,
      "ĠSe": 2746,
      "aml": 2747,
      "exc": 2748,
      "Ġraw": 2749,
      "nodes": 2750,
      "ĠExamples": 2751,
      ".\")": 2752,
      "Al": 2753,
      "PI": 2754,
      "ored": 2755,
      "Ġ[(": 2756,
      "olve": 2757,
      "Ġ20": 2758,
      "Ġbeen": 2759,
      "umpy": 2760,
      "Image": 2761,
      "Machine": 2762,
      "Socket": 2763,
      "alog": 2764,
      "Ġap": 2765,
      "Ġ'--": 2766,
      "ryp": 2767,
      "Server": 2768,
      "Ġrender": 2769,
      "DB": 2770,
      "ati": 2771,
      "window": 2772,
      "orph": 2773,
      "Ġcache": 2774,
      "Ġinitial": 2775,
      "Ġstream": 2776,
      "most": 2777,
      "Ġparameters": 2778,
      "ĠNot": 2779,
      "domain": 2780,
      "ĠZZ": 2781,
      "Row": 2782,
      "false": 2783,
      "Ġq": 2784,
      "unittest": 2785,
      "long": 2786,
      "plot": 2787,
      "sec": 2788,
      "raise": 2789,
      "profile": 2790,
      "Ġtypes": 2791,
      "Filter": 2792,
      "mal": 2793,
      "orter": 2794,
      "ĠID": 2795,
      "Ġbyte": 2796,
      "********": 2797,
      "ERROR": 2798,
      "07": 2799,
      "ni": 2800,
      "ĊĠĠ": 2801,
      "rectory": 2802,
      "Ġrepo": 2803,
      "Ġbreak": 2804,
      "Ġencoding": 2805,
      "Ġservice": 2806,
      "vironment": 2807,
      "Ge": 2808,
      "IO": 2809,
      "aa": 2810,
      "Ġ'__": 2811,
      "Ġinteger": 2812,
      "Ġdatabase": 2813,
      "Ġdep": 2814,
      "stead": 2815,
      "ĠWITH": 2816,
      "Ġmodify": 2817,
      "Back": 2818,
      "ki": 2819,
      "ĊĠĠĠĠĠĠ": 2820,
      "Ġfalse": 2821,
      "Ġempty": 2822,
      "ello": 2823,
      "Ġconstant": 2824,
      "Ġpresent": 2825,
      "binary": 2826,
      "With": 2827,
      "olume": 2828,
      "collect": 2829,
      "arnings": 2830,
      "imum": 2831,
      "84": 2832,
      "CR": 2833,
      "ba": 2834,
      "decode": 2835,
      "Ġscope": 2836,
      "Ġinstead": 2837,
      "Ġwindow": 2838,
      "particle": 2839,
      "modules": 2840,
      "ĠWindow": 2841,
      "REE": 2842,
      "COMMAND": 2843,
      "ForeignKey": 2844,
      "bit": 2845,
      "sort": 2846,
      "Ġkeep": 2847,
      "Ġass": 2848,
      "ĠFound": 2849,
      "ĊĉĉĊĉ": 2850,
      "ENSE": 2851,
      "memory": 2852,
      "Ġob": 2853,
      "setup": 2854,
      "penden": 2855,
      "executable": 2856,
      "mer": 2857,
      "fixt": 2858,
      "sitive": 2859,
      "Ġdictionary": 2860,
      "Ġuseful": 2861,
      "Ġjust": 2862,
      "================================": 2863,
      "multi": 2864,
      "unk": 2865,
      "vided": 2866,
      "vailable": 2867,
      "Ġarguments": 2868,
      "Buffer": 2869,
      ".')": 2870,
      "only": 2871,
      "Ġsum": 2872,
      "missions": 2873,
      "ymbol": 2874,
      "(?": 2875,
      "We": 2876,
      "gine": 2877,
      "wn": 2878,
      "Ġqu": 2879,
      "metadata": 2880,
      "Ġeven": 2881,
      "istory": 2882,
      "Ġalready": 2883,
      "DEF": 2884,
      "Ġaccess": 2885,
      "42": 2886,
      "Client": 2887,
      "ia": 2888,
      "inp": 2889,
      "lex": 2890,
      "ĠMo": 2891,
      "ĠOption": 2892,
      "Ġweb": 2893,
      "AA": 2894,
      "samples": 2895,
      "ui": 2896,
      "Ġremove": 2897,
      "etch": 2898,
      "Ġtop": 2899,
      "ĠCYR": 2900,
      "ILLIC": 2901,
      "ĠCYRILLIC": 2902,
      "Int": 2903,
      "This": 2904,
      "auto": 2905,
      "ĠAll": 2906,
      "coded": 2907,
      "ĠFoundation": 2908,
      "Font": 2909,
      "fn": 2910,
      "nse": 2911,
      "UBLE": 2912,
      "+)": 2913,
      "PRE": 2914,
      "Th": 2915,
      "Ġstatus": 2916,
      "except": 2917,
      "forms": 2918,
      "Ġsecond": 2919,
      "ĠURL": 2920,
      "dentity": 2921,
      "\"].": 2922,
      "ULL": 2923,
      "stract": 2924,
      "79": 2925,
      "Iterator": 2926,
      "score": 2927,
      "Ġ[])": 2928,
      "Ġprovided": 2929,
      "ĠDE": 2930,
      "ATION": 2931,
      "Settings": 2932,
      "Ġdomain": 2933,
      "ferences": 2934,
      "Ġpoint": 2935,
      "attributes": 2936,
      "06": 2937,
      "=(": 2938,
      "play": 2939,
      "Ġfree": 2940,
      "Ġnow": 2941,
      "classmethod": 2942,
      "Action": 2943,
      "Write": 2944,
      "nc": 2945,
      "allow": 2946,
      "Ġids": 2947,
      "amily": 2948,
      "parser": 2949,
      "ways": 2950,
      "Colour": 2951,
      "IPE": 2952,
      "delta": 2953,
      "fg": 2954,
      "ported": 2955,
      "wrap": 2956,
      "tep": 2957,
      "Ġcre": 2958,
      "Ġspe": 2959,
      "side": 2960,
      "verbose": 2961,
      "peri": 2962,
      "Ġ{\"": 2963,
      "ift": 2964,
      "Ġstruct": 2965,
      "precated": 2966,
      "quires": 2967,
      "Comp": 2968,
      "Ġlevel": 2969,
      "Enable": 2970,
      "Ġverbose": 2971,
      "ymorph": 2972,
      "ĠWARRANTIES": 2973,
      "ymorphic": 2974,
      "=_": 2975,
      "App": 2976,
      "WOR": 2977,
      "used": 2978,
      "style": 2979,
      "unique": 2980,
      "Ġbody": 2981,
      "fake": 2982,
      "TYPE": 2983,
      "choices": 2984,
      "aded": 2985,
      "ric": 2986,
      "protocol": 2987,
      "yspark": 2988,
      "ĠOpen": 2989,
      "lower": 2990,
      "ĠAnsible": 2991,
      "assertAllEqual": 2992,
      "(__": 2993,
      ".*": 2994,
      ":]": 2995,
      "ECT": 2996,
      "Run": 2997,
      "Trace": 2998,
      "classes": 2999,
      "uce": 3000,
      "Ġfunc": 3001,
      "See": 3002,
      "ĠDOUBLE": 3003,
      "WN": 3004,
      "lus": 3005,
      "medi": 3006,
      "Ġfont": 3007,
      "Ġrepresent": 3008,
      "Ġdist": 3009,
      "Ġbecause": 3010,
      "Ġsystem": 3011,
      "duce": 3012,
      "leanup": 3013,
      "author": 3014,
      "native": 3015,
      "variables": 3016,
      "click": 3017,
      "lassifi": 3018,
      "bind": 3019,
      "marker": 3020,
      "ason": 3021,
      "licy": 3022,
      "Ġcalled": 3023,
      "Dis": 3024,
      "Has": 3025,
      "OK": 3026,
      "XX": 3027,
      "Ġforce": 3028,
      "Bitmap": 3029,
      "If": 3030,
      "metri": 3031,
      "mpy": 3032,
      "lative": 3033,
      "Ġdebug": 3034,
      "Instance": 3035,
      "STAT": 3036,
      "https": 3037,
      ")[": 3038,
      "FO": 3039,
      "LL": 3040,
      "fd": 3041,
      "non": 3042,
      "Ġjoin": 3043,
      "include": 3044,
      "Ġ\"-": 3045,
      "iso": 3046,
      "ĠtestType": 3047,
      "ystem": 3048,
      "comment": 3049,
      "Ġfunctions": 3050,
      "namespaces": 3051,
      "Parser": 3052,
      "Validator": 3053,
      "Help": 3054,
      "nb": 3055,
      "Ġ$": 3056,
      "Ġold": 3057,
      "idx": 3058,
      "Ġconstructor": 3059,
      "pache": 3060,
      "entries": 3061,
      "access": 3062,
      "wxEVT": 3063,
      "ĠComp": 3064,
      "MachineState": 3065,
      "Pcap": 3066,
      "ini": 3067,
      "Ġ'{": 3068,
      "Ġcustom": 3069,
      "Ġthread": 3070,
      "Ġreceived": 3071,
      "assertIs": 3072,
      "Ġshow": 3073,
      ":`~": 3074,
      "DEFAULT": 3075,
      "Ġmessages": 3076,
      "IME": 3077,
      "/%": 3078,
      "ef": 3079,
      "zy": 3080,
      "Ġterms": 3081,
      "ĊĠĠĠĠĠĠĠĠĠĠĠĠĠĠĠĠĠĠĠĠĠĠ": 3082,
      "\").": 3083,
      "Integer": 3084,
      "ĠRa": 3085,
      "Position": 3086,
      "Ascii": 3087,
      "21": 3088,
      "act": 3089,
      "can": 3090,
      "tf": 3091,
      "Ġsy": 3092,
      "dicate": 3093,
      "fill": 3094,
      "ular": 3095,
      "Ġlike": 3096,
      "manager": 3097,
      "ĠTypeError": 3098,
      "PIPE": 3099,
      "sm": 3100,
      "tab": 3101,
      "Ġ],": 3102,
      "Ġtf": 3103,
      "contrib": 3104,
      "math": 3105,
      "ĠNOT": 3106,
      "Ġtimeout": 3107,
      "IONS": 3108,
      "chedule": 3109,
      "#!": 3110,
      "handle": 3111,
      "pure": 3112,
      "stal": 3113,
      "Ġreq": 3114,
      "Ġsorted": 3115,
      "Ġsingle": 3116,
      "ession": 3117,
      "buf": 3118,
      "256": 3119,
      "Stream": 3120,
      "35": 3121,
      "_(": 3122,
      "comple": 3123,
      "Ġdon": 3124,
      "Ġexample": 3125,
      "ĠFree": 3126,
      "Ġpayload": 3127,
      "Ġgetattr": 3128,
      "lush": 3129,
      "ĊĠĠĠĠĠĠĠĠĠĠĠĠĠĠĠĠĠĠĠĠĠĠĠĠĠĠĠĠĠĠĠĠĠĠĠ": 3130,
      "Ġnetwork": 3131,
      "Ġdifferent": 3132,
      "=['": 3133,
      "Ac": 3134,
      "Root": 3135,
      "cb": 3136,
      "elif": 3137,
      "spark": 3138,
      "tk": 3139,
      "Ġ((": 3140,
      "riter": 3141,
      "very": 3142,
      "ERCH": 3143,
      "pose": 3144,
      "Ġvari": 3145,
      "ween": 3146,
      "menu": 3147,
      "ARTIC": 3148,
      "\"}": 3149,
      "Imp": 3150,
      "oci": 3151,
      "Ġredi": 3152,
      "olute": 3153,
      "IND": 3154,
      "enerp": 3155,
      "hosts": 3156,
      "ĠAttribute": 3157,
      "NESS": 3158,
      "SH": 3159,
      "tex": 3160,
      "Ġpublish": 3161,
      "dist": 3162,
      "Ġexc": 3163,
      "axis": 3164,
      "Fla": 3165,
      "`,": 3166,
      "clo": 3167,
      "some": 3168,
      "wd": 3169,
      "release": 3170,
      "deration": 3171,
      "Ġavailable": 3172,
      "izer": 3173,
      "Ġunittest": 3174,
      "cast": 3175,
      "extension": 3176,
      "UD": 3177,
      "bility": 3178,
      "istr": 3179,
      "plugin": 3180,
      "ĊĊĠĠĠĠĠ": 3181,
      "Ġip": 3182,
      "Ġclf": 3183,
      "Ġreference": 3184,
      "Ġsql": 3185,
      "pect": 3186,
      "opt": 3187,
      "ĠFIT": 3188,
      "ĠPo": 3189,
      "columns": 3190,
      "Ġcolor": 3191,
      "video": 3192,
      "Ġflag": 3193,
      "ERCHANT": 3194,
      "ĠFITNESS": 3195,
      "hd": 3196,
      "sma": 3197,
      "Ġplace": 3198,
      "Ġnumpy": 3199,
      "Ġthey": 3200,
      "__,": 3201,
      "Ġstderr": 3202,
      "headers": 3203,
      "ĠImport": 3204,
      "times": 3205,
      "Ġmenu": 3206,
      "cision": 3207,
      "Ġbuil": 3208,
      "fixture": 3209,
      "Bad": 3210,
      "Number": 3211,
      "OFT": 3212,
      "SER": 3213,
      "au": 3214,
      "Ġapi": 3215,
      "rop": 3216,
      "ured": 3217,
      "ĠMERCHANT": 3218,
      "reduce": 3219,
      "ĊĠĠĠĠĠĠĠĠĠĠĠĠĠĠĠĠĠĠĠĠĠĠĠĠĠĠĠĠĠĠ": 3220,
      "Start": 3221,
      "Ġheaders": 3222,
      "Ġabs": 3223,
      "Ġdoesn": 3224,
      "85": 3225,
      "Imple": 3226,
      "big": 3227,
      "ja": 3228,
      "Ġthem": 3229,
      ")).": 3230,
      "ANG": 3231,
      "states": 3232,
      "Ġattrs": 3233,
      "09": 3234,
      "ling": 3235,
      "ward": 3236,
      "urse": 3237,
      "Ġscore": 3238,
      "Ġbo": 3239,
      "short": 3240,
      "bove": 3241,
      "umerate": 3242,
      "ransport": 3243,
      "ULAR": 3244,
      "ordin": 3245,
      "CONF": 3246,
      "(-": 3247,
      "66": 3248,
      "PRO": 3249,
      "Source": 3250,
      "sv": 3251,
      "insert": 3252,
      "Ġtwo": 3253,
      "props": 3254,
      "ĠPUR": 3255,
      "ĠPARTIC": 3256,
      "Ġsec": 3257,
      "moves": 3258,
      "Ġalgorithm": 3259,
      "ĠQgs": 3260,
      "DefaultAttributes": 3261,
      "POSE": 3262,
      "pkg": 3263,
      "Layer": 3264,
      "ĠPURPOSE": 3265,
      "ĠPARTICULAR": 3266,
      "utes": 3267,
      "aris": 3268,
      "enable": 3269,
      "Ġpacket": 3270,
      "unicode": 3271,
      "ĠAdd": 3272,
      "ĠĠĠĠĠĠĠĠĠĠĠĠĠĠĠĠĠĠĠĠĠĠĠĠ": 3273,
      "common": 3274,
      "private": 3275,
      "AGE": 3276,
      "Network": 3277,
      "=%": 3278,
      "Trans": 3279,
      "]['": 3280,
      "see": 3281,
      "invalid": 3282,
      "encoding": 3283,
      "Ġspeci": 3284,
      "Ġselected": 3285,
      "ship": 3286,
      "Child": 3287,
      "Ġaccount": 3288,
      "ixin": 3289,
      "operator": 3290,
      "inished": 3291,
      "jvm": 3292,
      "roid": 3293,
      "Ġinformation": 3294,
      "ris": 3295,
      "ĠCh": 3296,
      "Ġ%(": 3297,
      "Content": 3298,
      "called": 3299,
      "dentifi": 3300,
      "Ġusername": 3301,
      "Ġinputs": 3302,
      "tice": 3303,
      "Ġiter": 3304,
      "('\\": 3305,
      "Ġ12": 3306,
      "ĠSH": 3307,
      "Ġdec": 3308,
      "ATTR": 3309,
      "Ġcontaining": 3310,
      "Line": 3311,
      "lang": 3312,
      "Ġabove": 3313,
      "ĠSIGN": 3314,
      "ization": 3315,
      "labels": 3316,
      "pha": 3317,
      "Ġabout": 3318,
      "Ġcorrect": 3319,
      "herit": 3320,
      "Col": 3321,
      "Man": 3322,
      "VAL": 3323,
      "af": 3324,
      "Ġinclu": 3325,
      "tran": 3326,
      "Ġvar": 3327,
      "POST": 3328,
      "Prefix": 3329,
      "Code": 3330,
      "DAT": 3331,
      "imat": 3332,
      "uch": 3333,
      "sel": 3334,
      "Ġfull": 3335,
      "Ġtree": 3336,
      "collector": 3337,
      "ĠBase": 3338,
      "dirname": 3339,
      "ouquet": 3340,
      "step": 3341,
      "marked": 3342,
      "Loc": 3343,
      "Mo": 3344,
      "On": 3345,
      "migration": 3346,
      "stub": 3347,
      "arm": 3348,
      "roll": 3349,
      "aster": 3350,
      "Ġoc": 3351,
      "loy": 3352,
      "__)": 3353,
      "Ġdimen": 3354,
      "Ġadded": 3355,
      "Ġnamespace": 3356,
      "ClassDefaultAttributes": 3357,
      "Ġlater": 3358,
      "#!/": 3359,
      "=-": 3360,
      "BU": 3361,
      "Page": 3362,
      "Ġdelete": 3363,
      "ĠConfig": 3364,
      "Array": 3365,
      "ĠMERCHANTABILITY": 3366,
      "BO": 3367,
      "Dir": 3368,
      "mi": 3369,
      "platform": 3370,
      "Ġite": 3371,
      "Ġ'&": 3372,
      "Ġpost": 3373,
      "display": 3374,
      "esc": 3375,
      "timestamp": 3376,
      "lyr": 3377,
      "tical": 3378,
      "users": 3379,
      "Ġmethods": 3380,
      "Ġscript": 3381,
      "hoice": 3382,
      "operations": 3383,
      "stener": 3384,
      ")'": 3385,
      "Gener": 3386,
      "Open": 3387,
      "stats": 3388,
      "loss": 3389,
      "Ġest": 3390,
      "ĊĠĠĠĠĠĠĠĠĠĠĠĠĠĠĠĠĠĠĠĠĠĠĠĠĠĠ": 3391,
      "252": 3392,
      "cale": 3393,
      "čĊč": 3394,
      "Ġbinary": 3395,
      "SA": 3396,
      "mc": 3397,
      "Ġ),": 3398,
      "Ġtri": 3399,
      "Ġ\"'": 3400,
      "addr": 3401,
      "ait": 3402,
      "ned": 3403,
      "tw": 3404,
      "ination": 3405,
      "Ġsave": 3406,
      "commit": 3407,
      "ĠNote": 3408,
      "ĠsetUp": 3409,
      "Ġpaths": 3410,
      "newexp": 3411,
      "eeded": 3412,
      "Ġerrors": 3413,
      "servicelist": 3414,
      "Ġsuccess": 3415,
      "Ġdocumentation": 3416,
      "Ġtensorflow": 3417,
      "Ġobtain": 3418,
      "87": 3419,
      "LINE": 3420,
      "Ġsort": 3421,
      "resource": 3422,
      "Select": 3423,
      "Ġprimary": 3424,
      "DEFIN": 3425,
      "fs": 3426,
      "sure": 3427,
      "Ġspark": 3428,
      "('-": 3429,
      "ĠApache": 3430,
      "application": 3431,
      "ĠMe": 3432,
      "Dele": 3433,
      "logger": 3434,
      "attrs": 3435,
      "links": 3436,
      "Ġignore": 3437,
      "arison": 3438,
      "54": 3439,
      "many": 3440,
      "pyspark": 3441,
      "inder": 3442,
      "Ġinfo": 3443,
      "liter": 3444,
      "location": 3445,
      "dic": 3446,
      "ged": 3447,
      "('%": 3448,
      "ĠSpark": 3449,
      "ector": 3450,
      "Ġidx": 3451,
      "Ġcontains": 3452,
      "ACK": 3453,
      "safe": 3454,
      "train": 3455,
      "repeated": 3456,
      "Cache": 3457,
      "EST": 3458,
      "IB": 3459,
      "IRE": 3460,
      "css": 3461,
      "evol": 3462,
      "orig": 3463,
      "dest": 3464,
      "rays": 3465,
      "ĠMock": 3466,
      "ixed": 3467,
      "HTTP": 3468,
      "Ġhtml": 3469,
      "polymorphic": 3470,
      "-%": 3471,
      "LD": 3472,
      "bot": 3473,
      "full": 3474,
      "ould": 3475,
      "zero": 3476,
      "Ġsrc": 3477,
      "Ġmat": 3478,
      "Ġ[('": 3479,
      "mentation": 3480,
      "hether": 3481,
      "Change": 3482,
      "Ġitems": 3483,
      "Ġvariables": 3484,
      "USER": 3485,
      "ditional": 3486,
      "istry": 3487,
      "61": 3488,
      "Ad": 3489,
      "CC": 3490,
      "grid": 3491,
      "nap": 3492,
      "vl": 3493,
      "Ġmulti": 3494,
      "Ġmultiple": 3495,
      "Ġ\"\\": 3496,
      "opts": 3497,
      "Ġ16": 3498,
      "esca": 3499,
      "ĠList": 3500,
      "Ġparts": 3501,
      "ĠUser": 3502,
      "Ġnodes": 3503,
      "ldp": 3504,
      "Ġbetween": 3505,
      "DIR": 3506,
      "Tensor": 3507,
      "WARE": 3508,
      "hen": 3509,
      "inx": 3510,
      "thread": 3511,
      "Ġ'_": 3512,
      "Ġcell": 3513,
      "sis": 3514,
      "ĠPre": 3515,
      "tach": 3516,
      "cimal": 3517,
      "ACE": 3518,
      "rypto": 3519,
      "Implemented": 3520,
      "Popen": 3521,
      "SET": 3522,
      "`\")": 3523,
      "trace": 3524,
      "inally": 3525,
      "team": 3526,
      "deo": 3527,
      "ards": 3528,
      "Ġclose": 3529,
      "Ġsince": 3530,
      "comb": 3531,
      "loc": 3532,
      "ĊĉĊ": 3533,
      "visit": 3534,
      "Ġexists": 3535,
      "(\"%": 3536,
      ">>>": 3537,
      "Ġleft": 3538,
      "skip": 3539,
      "attern": 3540,
      "OS": 3541,
      "gt": 3542,
      "sFile": 3543,
      "sep": 3544,
      "tom": 3545,
      "lists": 3546,
      "Ġenumerate": 3547,
      "ĠNO": 3548,
      "byte": 3549,
      "callable": 3550,
      "Ġlabels": 3551,
      "Ġagain": 3552,
      "Ġsure": 3553,
      "cies": 3554,
      "ffect": 3555,
      "stribute": 3556,
      "inputs": 3557,
      "'},": 3558,
      "expdat": 3559,
      "ranch": 3560,
      "ABLE": 3561,
      "CS": 3562,
      "Empty": 3563,
      "ru": 3564,
      "sample": 3565,
      "total": 3566,
      "zer": 3567,
      "initial": 3568,
      "urls": 3569,
      "Ġtrace": 3570,
      "Ġtake": 3571,
      "sity": 3572,
      "Ġdown": 3573,
      "apache": 3574,
      "assertIn": 3575,
      "ĠName": 3576,
      "dirs": 3577,
      "Ġmatches": 3578,
      "Ġdisable": 3579,
      "emplate": 3580,
      "DEFINED": 3581,
      "Handler": 3582,
      "ME": 3583,
      "ving": 3584,
      "Ġ'',": 3585,
      "Ġcallback": 3586,
      "Ġds": 3587,
      "Ġ11": 3588,
      "']['": 3589,
      "Ġ>>": 3590,
      "ĠGe": 3591,
      "signature": 3592,
      "----------------------------------------------------------------": 3593,
      "Ġreplace": 3594,
      "ĠWARRANTY": 3595,
      "Session": 3596,
      "card": 3597,
      "fc": 3598,
      "family": 3599,
      "mun": 3600,
      "wer": 3601,
      "rest": 3602,
      "atype": 3603,
      "Ġpi": 3604,
      "Ġsw": 3605,
      "Ġbatch": 3606,
      "Ġwho": 3607,
      "Ġsequence": 3608,
      "moved": 3609,
      "ONT": 3610,
      "000000": 3611,
      "execute": 3612,
      "Command": 3613,
      "ĠSparkContext": 3614,
      "CA": 3615,
      "ws": 3616,
      "annot": 3617,
      "Ġwarnings": 3618,
      "Ġwould": 3619,
      "parameters": 3620,
      "Ġdevice": 3621,
      "Ġdense": 3622,
      "Ġsend": 3623,
      "Ġproperties": 3624,
      "Ġsetup": 3625,
      "curses": 3626,
      "Ġpyl": 3627,
      "({'": 3628,
      "havi": 3629,
      "ĠNotImplemented": 3630,
      "ĠAttributeError": 3631,
      "mapping": 3632,
      "Ġeta": 3633,
      "Ġwrap": 3634,
      "respon": 3635,
      "Ġwithin": 3636,
      "Reference": 3637,
      "assertEquals": 3638,
      "Ġ30": 3639,
      "Ġuses": 3640,
      "REQU": 3641,
      "control": 3642,
      "interval": 3643,
      "Ġapplication": 3644,
      "Ġfailed": 3645,
      "RefCount": 3646,
      "ufffe": 3647,
      "FORM": 3648,
      "SimpleRefCount": 3649,
      "ĠUNDEFINED": 3650,
      "ĠImportError": 3651,
      "And": 3652,
      "PER": 3653,
      "Version": 3654,
      "hidden": 3655,
      "pl": 3656,
      "yaml": 3657,
      "aly": 3658,
      "Ġnd": 3659,
      "oto": 3660,
      "([])": 3661,
      "Ġmail": 3662,
      ").__": 3663,
      "validate": 3664,
      "ĠVersion": 3665,
      "grade": 3666,
      "Ġoriginal": 3667,
      "Down": 3668,
      "MO": 3669,
      "ude": 3670,
      "mes": 3671,
      "tiv": 3672,
      "Ġim": 3673,
      "raises": 3674,
      "ĠSAP": 3675,
      "ĠSQL": 3676,
      "ummy": 3677,
      "paths": 3678,
      "jobs": 3679,
      "WORD": 3680,
      ")\"": 3681,
      "CP": 3682,
      "fr": 3683,
      "lap": 3684,
      "reen": 3685,
      "almost": 3686,
      "Ġmy": 3687,
      "Ġ\"/": 3688,
      "position": 3689,
      "login": 3690,
      "Ġlogger": 3691,
      "DataFrame": 3692,
      "Ġ60": 3693,
      "################################################################": 3694,
      "MPL": 3695,
      "Ġwriting": 3696,
      "PickerCtrl": 3697,
      "nbsp": 3698,
      "escape": 3699,
      "31": 3700,
      "fds": 3701,
      "Ġul": 3702,
      "role": 3703,
      "ditions": 3704,
      "Ġdefined": 3705,
      "Ġweights": 3706,
      "Ġtimestamp": 3707,
      "AttributeValue": 3708,
      "OFTWARE": 3709,
      "97": 3710,
      "HER": 3711,
      "Label": 3712,
      "PORT": 3713,
      "Vector": 3714,
      "_,": 3715,
      "soft": 3716,
      "ux": 3717,
      "where": 3718,
      "rer": 3719,
      "algorithm": 3720,
      "Ġour": 3721,
      "itch": 3722,
      "Ġstandard": 3723,
      "tool": 3724,
      "Ġgra": 3725,
      "tact": 3726,
      "ickle": 3727,
      "rpc": 3728,
      "Ġactual": 3729,
      "ath": 3730,
      "ber": 3731,
      "go": 3732,
      "gory": 3733,
      "ĠĊĠĠĠĠĠĠĠ": 3734,
      "ctype": 3735,
      "__.": 3736,
      "isted": 3737,
      "Ġstop": 3738,
      "Ġgover": 3739,
      "lenium": 3740,
      "ĊĠĠĠĠĠĠĠĠĠĠĠĠĠĠĠĠĠĠĠĠĠĠĠĠĠĠĠĠĠĠĠĠ": 3741,
      "ogr": 3742,
      "Ġapplic": 3743,
      "Ġsignature": 3744,
      "Ġ-------": 3745,
      "47": 3746,
      "Mask": 3747,
      "ail": 3748,
      "ttp": 3749,
      "tered": 3750,
      "tensor": 3751,
      "med": 3752,
      "peline": 3753,
      "()[": 3754,
      "ternal": 3755,
      "Ġ_(\"": 3756,
      "ĠPer": 3757,
      "ROM": 3758,
      "Ġgenerated": 3759,
      "Ġpartner": 3760,
      "Ġpublished": 3761,
      "38": 3762,
      "google": 3763,
      "known": 3764,
      "sq": 3765,
      "uter": 3766,
      "lem": 3767,
      "tities": 3768,
      "Ġconf": 3769,
      "\");": 3770,
      "Ġmember": 3771,
      "Ġvl": 3772,
      "ports": 3773,
      "END": 3774,
      "gnu": 3775,
      "ignore": 3776,
      "imator": 3777,
      "'d": 3778,
      "Auto": 3779,
      "language": 3780,
      "mk": 3781,
      "ng": 3782,
      "anel": 3783,
      "__':": 3784,
      "Ġ100": 3785,
      "peration": 3786,
      "hook": 3787,
      "Connection": 3788,
      "Ġalways": 3789,
      "ĠUse": 3790,
      "Ġbuffer": 3791,
      "Ġconfiguration": 3792,
      "Edit": 3793,
      "Jo": 3794,
      "PAR": 3795,
      "VER": 3796,
      "cc": 3797,
      "hs": 3798,
      "ive": 3799,
      "ope": 3800,
      "public": 3801,
      "desc": 3802,
      "direct": 3803,
      "Ġmark": 3804,
      "ĠPRO": 3805,
      "tags": 3806,
      "mbed": 3807,
      "Ġprotocol": 3808,
      "(**": 3809,
      "tende": 3810,
      "federation": 3811,
      "ĊĠĠĠĠĠĠĠĠĠĠĠĠĠĠĠĠĠĠĠĠĠĠĠĠĠĠĠĠĠĠĠĠĠ": 3812,
      "Provider": 3813,
      "Ġpermissions": 3814,
      "Ġfeed": 3815,
      "straint": 3816,
      "DateTime": 3817,
      ">\\": 3818,
      "DIT": 3819,
      "Met": 3820,
      "Mixin": 3821,
      "bad": 3822,
      "cent": 3823,
      "gate": 3824,
      "leep": 3825,
      "Ġinvalid": 3826,
      "six": 3827,
      "ested": 3828,
      "LECT": 3829,
      "weight": 3830,
      "ĠKIND": 3831,
      "Ġchanged": 3832,
      "ĠTODO": 3833,
      "EG": 3834,
      "holder": 3835,
      "pu": 3836,
      "Ġscal": 3837,
      "\"\"\")": 3838,
      "ones": 3839,
      "Ġconvert": 3840,
      "mac": 3841,
      "parsed": 3842,
      "height": 3843,
      "Ġgo": 3844,
      "ending": 3845,
      "Ġcomb": 3846,
      "ĠDi": 3847,
      "shot": 3848,
      "board": 3849,
      "Ġxml": 3850,
      "Serialized": 3851,
      "Ġtransform": 3852,
      "Ġoperation": 3853,
      "termine": 3854,
      "Ġextensions": 3855,
      "Ġcomplete": 3856,
      "Deleter": 3857,
      "69": 3858,
      ">'": 3859,
      "cle": 3860,
      "custom": 3861,
      "Ġdisplay": 3862,
      "question": 3863,
      "okup": 3864,
      "ĊĠĠĠĠĠĠĠĠĠĠĠĠĠĠĠĠĠĠĠĠĠĠĠĠĠĠĠĠĠĠĠĠĠĠĠĠĠ": 3865,
      "UTE": 3866,
      "Channel": 3867,
      "ymbols": 3868,
      "ĠHTML": 3869,
      "rough": 3870,
      "tegral": 3871,
      "'^": 3872,
      "License": 3873,
      "Sta": 3874,
      "Sign": 3875,
      "gress": 3876,
      "lask": 3877,
      "ĠĠĠĠĠĠĠĠĠĠĠĠ": 3878,
      "Ġrelative": 3879,
      "diff": 3880,
      "Ġmapping": 3881,
      "buffer": 3882,
      "Ġsection": 3883,
      "Read": 3884,
      "ĠĠĠĠĠĠĠĠĠĠĠĠĠĠĠĠĠĠĠĠĠĠĠĠĠĠĠĠĠĠĠĠ": 3885,
      "ĠRes": 3886,
      "ASS": 3887,
      "Ġadmin": 3888,
      "Factory": 3889,
      "Ġflags": 3890,
      "Ġsympy": 3891,
      "Form": 3892,
      "TREE": 3893,
      "bum": 3894,
      "lon": 3895,
      "vari": 3896,
      "indent": 3897,
      "cell": 3898,
      "Ġsimple": 3899,
      "ability": 3900,
      "ĠLI": 3901,
      "ĠMake": 3902,
      "chemy": 3903,
      "Ġenc": 3904,
      "Ġenable": 3905,
      "scape": 3906,
      "Ġcomment": 3907,
      "Ġredistribute": 3908,
      "lst": 3909,
      "sses": 3910,
      "Ġthese": 3911,
      "liance": 3912,
      "Ġus": 3913,
      "matrix": 3914,
      "calendar": 3915,
      "Ġsubject": 3916,
      "Ġotherwise": 3917,
      "crement": 3918,
      "8859": 3919,
      "Ġbackend": 3920,
      "Le": 3921,
      "Returns": 3922,
      "clear": 3923,
      "rand": 3924,
      "year": 3925,
      "Ġlayout": 3926,
      "report": 3927,
      "Ġfro": 3928,
      "isinstance": 3929,
      "ĠSer": 3930,
      "ĊĊĊ": 3931,
      "Ġproduct": 3932,
      "aries": 3933,
      "createDataFrame": 3934,
      "Ġstates": 3935,
      "sentry": 3936,
      "Ġbutton": 3937,
      "mydate": 3938,
      "Variable": 3939,
      "bi": 3940,
      "selected": 3941,
      "onts": 3942,
      "lev": 3943,
      "Ġcfg": 3944,
      "enu": 3945,
      "Ġrecord": 3946,
      "dian": 3947,
      "radio": 3948,
      "vector": 3949,
      "Ġresource": 3950,
      "icro": 3951,
      "Ġstrings": 3952,
      "failed": 3953,
      "single": 3954,
      "Ġzip": 3955,
      "database": 3956,
      "Ġsuch": 3957,
      "Ġcharac": 3958,
      "Ġskip": 3959,
      "Ġspec": 3960,
      "65": 3961,
      "Function": 3962,
      "ĠĠĠĠĠĠĠĠĠĠ": 3963,
      "Ġpol": 3964,
      "')),": 3965,
      "Ġgot": 3966,
      "Ġcannot": 3967,
      "month": 3968,
      "beat": 3969,
      "Ġcurrently": 3970,
      "Options": 3971,
      "ĠMoved": 3972,
      "48": 3973,
      "Choice": 3974,
      "MS": 3975,
      "Sty": 3976,
      "bet": 3977,
      "pin": 3978,
      "xa": 3979,
      "stage": 3980,
      "stack": 3981,
      "enum": 3982,
      "ĠDo": 3983,
      "ITEM": 3984,
      "ORS": 3985,
      "čĊčĊĠĠĠ": 3986,
      "browse": 3987,
      ".%": 3988,
      "Ver": 3989,
      "ffix": 3990,
      "reed": 3991,
      "Ġsco": 3992,
      "Ġwin": 3993,
      "setValue": 3994,
      "partition": 3995,
      "ĠIs": 3996,
      "Ġderi": 3997,
      "ĠReturn": 3998,
      "Constraint": 3999,
      "ĠLicensed": 4000,
      "ĠInc": 4001,
      "TextAttr": 4002,
      "Ġexisting": 4003,
      "Ġpylint": 4004,
      ")\",": 4005,
      "43": 4006,
      "End": 4007,
      "GR": 4008,
      "Many": 4009,
      "WS": 4010,
      "dle": 4011,
      "sli": 4012,
      "Ġcap": 4013,
      "lite": 4014,
      "Ġok": 4015,
      "Ġmod": 4016,
      "Ġhope": 4017,
      "fact": 4018,
      "Ġcompliance": 4019,
      "\"'": 4020,
      "GET": 4021,
      "Qu": 4022,
      "Rou": 4023,
      "SON": 4024,
      "second": 4025,
      "selfref": 4026,
      "ascii": 4027,
      "Ġremote": 4028,
      "Ġsparse": 4029,
      "Ġwar": 4030,
      "sive": 4031,
      "Ġunique": 4032,
      "ĠEX": 4033,
      "NameStr": 4034,
      "Ġpokemon": 4035,
      "havior": 4036,
      "78": 4037,
      "MET": 4038,
      "Meta": 4039,
      "history": 4040,
      "sy": 4041,
      "lections": 4042,
      "tils": 4043,
      "loader": 4044,
      "dimen": 4045,
      "cons": 4046,
      "getCurrent": 4047,
      "pair": 4048,
      "ĠSOFTWARE": 4049,
      "ĠCom": 4050,
      "product": 4051,
      "sha": 4052,
      "datastore": 4053,
      "ĠRun": 4054,
      "ness": 4055,
      "Ġ}}": 4056,
      "Ġnotice": 4057,
      "img": 4058,
      "Ġpossible": 4059,
      "HelperFor": 4060,
      "Ġextension": 4061,
      "Ġwarran": 4062,
      "FL": 4063,
      "Normal": 4064,
      "Warning": 4065,
      "eve": 4066,
      "help": 4067,
      "osite": 4068,
      "tod": 4069,
      "simple": 4070,
      "quote": 4071,
      "Ġansible": 4072,
      "matic": 4073,
      "ĠAuth": 4074,
      "ĠAPI": 4075,
      "Ġbeing": 4076,
      "Ġseq": 4077,
      "licity": 4078,
      "eek": 4079,
      "Ġchecked": 4080,
      "Ġtags": 4081,
      "when": 4082,
      "xxxxxxxx": 4083,
      "ĠHTTP": 4084,
      "cheduler": 4085,
      "Ġabsolute": 4086,
      "Found": 4087,
      "OUT": 4088,
      "fp": 4089,
      "td": 4090,
      "uquet": 4091,
      "ines": 4092,
      "inja": 4093,
      "Ġcy": 4094,
      "Ġctx": 4095,
      "Ġfinally": 4096,
      "resses": 4097,
      "ical": 4098,
      "ctories": 4099,
      "bouquet": 4100,
      "ARK": 4101,
      "LED": 4102,
      "stdin": 4103,
      "namespace": 4104,
      "LOCK": 4105,
      "LICENSE": 4106,
      "Ġwarranty": 4107,
      "dup": 4108,
      "ually": 4109,
      "ants": 4110,
      "Ġtotal": 4111,
      "###": 4112,
      "iler": 4113,
      "Ġdisc": 4114,
      "Ġsen": 4115,
      "Ġsent": 4116,
      "Ġloss": 4117,
      "fast": 4118,
      "Ġcolumns": 4119,
      "Provision": 4120,
      "ĊĠĠĠĠĠĠĠĠĠĠĠĠĠĠĠĠĠĠĠĠĠĠĠĠĠĠĠĠĠĠĠĠĠĠĠĠĠĠĠĠĠĠĠĠĠĠĠĠĠĠĠĠ": 4121,
      "Ġfeatures": 4122,
      "Ġdirect": 4123,
      "cret": 4124,
      "++++": 4125,
      "download": 4126,
      "Ġassoci": 4127,
      "munic": 4128,
      "Menu": 4129,
      "identity": 4130,
      "oke": 4131,
      "space": 4132,
      "Ġir": 4133,
      "enforce": 4134,
      "Ġnormal": 4135,
      "Ġsync": 4136,
      "Ġsalt": 4137,
      "Ġschema": 4138,
      "()))": 4139,
      "']),": 4140,
      "agraph": 4141,
      "ventory": 4142,
      "ĠInteger": 4143,
      "Exp": 4144,
      "Ġlaw": 4145,
      "country": 4146,
      "Ġboth": 4147,
      "Provisioner": 4148,
      ">.": 4149,
      "CI": 4150,
      "ier": 4151,
      "xm": 4152,
      "reverse": 4153,
      "Ġfp": 4154,
      "etc": 4155,
      "Ġ\",": 4156,
      "vious": 4157,
      "]).": 4158,
      "------------": 4159,
      "Ġprop": 4160,
      "INGLE": 4161,
      "Timer": 4162,
      "Ġposition": 4163,
      "Ġprivate": 4164,
      "ĠKeyError": 4165,
      "periment": 4166,
      "lassifier": 4167,
      "'re": 4168,
      ");": 4169,
      "Cleanup": 4170,
      "greg": 4171,
      "otify": 4172,
      "spa": 4173,
      "Ġpk": 4174,
      "Ġ#:": 4175,
      "unch": 4176,
      "iddle": 4177,
      "Ġutil": 4178,
      "Ġ15": 4179,
      "payload": 4180,
      "ĠFile": 4181,
      "Ġlocation": 4182,
      "Ġencoded": 4183,
      "dential": 4184,
      "Ġexpress": 4185,
      "Ġbased": 4186,
      "Ġvisit": 4187,
      "ultiplicity": 4188,
      "Ġapplicable": 4189,
      "(\\": 4190,
      "dldp": 4191,
      "Ġlibrary": 4192,
      "sequence": 4193,
      "ĠĠĠĠĠĠĠĠĠ": 4194,
      "ross": 4195,
      "Ġinv": 4196,
      "cols": 4197,
      "ulate": 4198,
      "ntax": 4199,
      "Ġproject": 4200,
      "ĠON": 4201,
      "ĠOn": 4202,
      "Ġsetting": 4203,
      "umeric": 4204,
      "ĠDef": 4205,
      "Length": 4206,
      "ĠOptional": 4207,
      "ĠPoint": 4208,
      "FORMAT": 4209,
      "81": 4210,
      "tty": 4211,
      "mean": 4212,
      "Ġreport": 4213,
      "Ġreverse": 4214,
      "Ġwait": 4215,
      "Ġhow": 4216,
      "ĠSize": 4217,
      "ĠMac": 4218,
      "stants": 4219,
      "Ġenvironment": 4220,
      "Ġsupported": 4221,
      "Ġexpr": 4222,
      "ĠQt": 4223,
      "vars": 4224,
      "Point": 4225,
      "ĠUnless": 4226,
      "Manager": 4227,
      "Local": 4228,
      "46": 4229,
      "gument": 4230,
      "specifi": 4231,
      "install": 4232,
      "dependen": 4233,
      "Ġsix": 4234,
      "Ġinte": 4235,
      "Ġconditions": 4236,
      "ĠAd": 4237,
      "ERT": 4238,
      "Ġrc": 4239,
      "Remove": 4240,
      "Ġparsed": 4241,
      "Ġatt": 4242,
      "okie": 4243,
      "Ġ})": 4244,
      "bla": 4245,
      "defined": 4246,
      "Ġconstruct": 4247,
      "ĠLE": 4248,
      "Ġdesc": 4249,
      "house": 4250,
      "appen": 4251,
      "Invalid": 4252,
      "bound": 4253,
      "iterable": 4254,
      "generate": 4255,
      "BUG": 4256,
      "Ġndarray": 4257,
      "Boolean": 4258,
      "Max": 4259,
      "USE": 4260,
      "ified": 4261,
      "vors": 4262,
      "Ġti": 4263,
      "Ġarch": 4264,
      "ane": 4265,
      "Ġrequire": 4266,
      "Ġreserved": 4267,
      "Ġnc": 4268,
      "lick": 4269,
      "directory": 4270,
      "Ġ\"__": 4271,
      "Ġstri": 4272,
      "ĠSINGLE": 4273,
      "ower": 4274,
      "Ġmer": 4275,
      "words": 4276,
      "ĠOS": 4277,
      "Ġunit": 4278,
      "Process": 4279,
      "Serializer": 4280,
      "hostname": 4281,
      "ASIS": 4282,
      "DefaultDeleter": 4283,
      "double": 4284,
      "Ġvideo": 4285,
      "########################################################################": 4286,
      "DITIONS": 4287,
      "Block": 4288,
      "Hash": 4289,
      "dc": 4290,
      "ifi": 4291,
      "missing": 4292,
      "Ġcer": 4293,
      "Ġneeded": 4294,
      "Ġ#@": 4295,
      "ĠLO": 4296,
      "Ġvolume": 4297,
      "ĠBASIS": 4298,
      "calcul": 4299,
      "ialog": 4300,
      "Search": 4301,
      "ancel": 4302,
      "FIX": 4303,
      "area": 4304,
      "Ġagreed": 4305,
      "ĠCONDITIONS": 4306,
      "Ġopenerp": 4307,
      "atible": 4308,
      "Ġgoverning": 4309,
      "Style": 4310,
      "Cal": 4311,
      "VAR": 4312,
      "amp": 4313,
      "ather": 4314,
      "Ġmight": 4315,
      "rit": 4316,
      "Ġglobal": 4317,
      "adding": 4318,
      "Ġprovide": 4319,
      "([(": 4320,
      "Ġxm": 4321,
      "``.": 4322,
      "Ġurllib": 4323,
      "Ġcontents": 4324,
      "Ġallowed": 4325,
      "Ġlimitations": 4326,
      "Ġsplit": 4327,
      "ĠNotImplementedError": 4328,
      "FR": 4329,
      "folder": 4330,
      "gative": 4331,
      "pod": 4332,
      "Ġlicense": 4333,
      "meth": 4334,
      "road": 4335,
      "Ġwhether": 4336,
      "\",\"": 4337,
      "stances": 4338,
      "Ġbuf": 4339,
      "weights": 4340,
      "oice": 4341,
      "cfg": 4342,
      "ĠNotes": 4343,
      "metric": 4344,
      "IntegerField": 4345,
      "dentials": 4346,
      "Bo": 4347,
      "Bouquet": 4348,
      "Close": 4349,
      "Driver": 4350,
      "IX": 4351,
      "LA": 4352,
      "TIME": 4353,
      "lash": 4354,
      "record": 4355,
      "orage": 4356,
      "learn": 4357,
      "raint": 4358,
      "lain": 4359,
      "apps": 4360,
      "Ġmemory": 4361,
      "Ġentity": 4362,
      "ĠRIGHT": 4363,
      "ORIZ": 4364,
      "Ġmodules": 4365,
      "days": 4366,
      "Exec": 4367,
      "Ġappend": 4368,
      "rules": 4369,
      "Ġexecutable": 4370,
      "clone": 4371,
      "CLUD": 4372,
      "Ġspecify": 4373,
      "ONTAL": 4374,
      "ORIZONTAL": 4375,
      "Desc": 4376,
      "Email": 4377,
      "done": 4378,
      "glob": 4379,
      "nn": 4380,
      "rt": 4381,
      "Ġinp": 4382,
      "Ġevery": 4383,
      "condition": 4384,
      "Ġforms": 4385,
      "Ġhref": 4386,
      "hex": 4387,
      "perm": 4388,
      "resp": 4389,
      "Ġsel": 4390,
      "']))": 4391,
      "Ġwhat": 4392,
      "FILES": 4393,
      "Ġ-----": 4394,
      "Web": 4395,
      "twls": 4396,
      "napshot": 4397,
      "ĠLEFT": 4398,
      "BA": 4399,
      "Be": 4400,
      "Csma": 4401,
      "Mock": 4402,
      "xb": 4403,
      "alpha": 4404,
      "tives": 4405,
      "Ġpublic": 4406,
      "unit": 4407,
      "Ġdat": 4408,
      "parts": 4409,
      "Ġsepar": 4410,
      "'][": 4411,
      "ĠData": 4412,
      "ĠMA": 4413,
      "ĠWhen": 4414,
      "way": 4415,
      "ICAL": 4416,
      "oxia": 4417,
      "points": 4418,
      "dumps": 4419,
      "Impl": 4420,
      "AV": 4421,
      "Rel": 4422,
      "dt": 4423,
      "pc": 4424,
      "sted": 4425,
      "ority": 4426,
      "Ġplay": 4427,
      "lim": 4428,
      "Ġmissing": 4429,
      "fici": 4430,
      "Ġdt": 4431,
      "Ġanother": 4432,
      "Ġstmt": 4433,
      "pare": 4434,
      "ithub": 4435,
      "Ġchain": 4436,
      "Ġcursor": 4437,
      "ListCtrl": 4438,
      "Ġfast": 4439,
      "views": 4440,
      "Ġinterval": 4441,
      "Ġgenerate": 4442,
      "children": 4443,
      "TreeCtrl": 4444,
      "ragment": 4445,
      "Route": 4446,
      "/',": 4447,
      "57": 4448,
      "publish": 4449,
      "rs": 4450,
      "socket": 4451,
      "tim": 4452,
      "Ġclo": 4453,
      "light": 4454,
      "Ġbind": 4455,
      "')).": 4456,
      "Ġ\"\"\"<": 4457,
      "Ġhandler": 4458,
      "Ġ%}": 4459,
      "Ġunsigned": 4460,
      "cursor": 4461,
      "formance": 4462,
      "document": 4463,
      "ToolBar": 4464,
      "Ġrules": 4465,
      "ĠCONTR": 4466,
      "Geometry": 4467,
      "luster": 4468,
      "CLUDING": 4469,
      "CRE": 4470,
      "Copy": 4471,
      "DER": 4472,
      "Dialog": 4473,
      "ale": 4474,
      "dk": 4475,
      "ftime": 4476,
      "Ġ'')": 4477,
      "Ġclasses": 4478,
      "Ġep": 4479,
      "distribu": 4480,
      "Ġmon": 4481,
      "()),": 4482,
      "container": 4483,
      "ĠText": 4484,
      "Ġdele": 4485,
      "ERP": 4486,
      "Ġmean": 4487,
      "istration": 4488,
      "Sequence": 4489,
      "ĊĠĠĠĠĠĠĠĠĠĠĠĠĠĠĠĠĠĠĠĠĠĠĠĠĠĠĠĠĠĠĠĠĠĠĠĠĠĠĠĠĠĠ": 4490,
      "checkbox": 4491,
      "sgi": 4492,
      "localhost": 4493,
      "cords": 4494,
      "InterfaceAddress": 4495,
      "packages": 4496,
      "widgets": 4497,
      "~~~~": 4498,
      "Ġwidgets": 4499,
      "Ġstructure": 4500,
      "tendee": 4501,
      "'\",": 4502,
      "=',": 4503,
      "Auth": 4504,
      "TION": 4505,
      "free": 4506,
      "zone": 4507,
      "alk": 4508,
      "contain": 4509,
      "INFO": 4510,
      "ĠNULL": 4511,
      "../": 4512,
      "utili": 4513,
      "API": 4514,
      "Ġoutputs": 4515,
      "Ġworks": 4516,
      "Ġcorrespon": 4517,
      "Ġauthor": 4518,
      "IZE": 4519,
      "STATIC": 4520,
      "Operation": 4521,
      "UE": 4522,
      "em": 4523,
      "hn": 4524,
      "rong": 4525,
      "}'.": 4526,
      "Ġ):": 4527,
      "inf": 4528,
      "ret": 4529,
      "regex": 4530,
      "Ġthrough": 4531,
      "eting": 4532,
      "ural": 4533,
      "Ġindent": 4534,
      "Ġbit": 4535,
      "dia": 4536,
      "assword": 4537,
      "Ġconnect": 4538,
      "endswith": 4539,
      "GetClassDefaultAttributes": 4540,
      "cheme": 4541,
      "Ġenforce": 4542,
      "compat": 4543,
      "ofc": 4544,
      "Ġshort": 4545,
      "defaults": 4546,
      "241": 4547,
      "Ġoverride": 4548,
      "Ġoperator": 4549,
      "gital": 4550,
      "AutoField": 4551,
      "Ġassociated": 4552,
      "ĠDefault": 4553,
      "roadcast": 4554,
      "Access": 4555,
      "Ġ::": 4556,
      "secs": 4557,
      "alchemy": 4558,
      "Ġway": 4559,
      "olution": 4560,
      "upload": 4561,
      "Ġ_,": 4562,
      "perly": 4563,
      "bosity": 4564,
      "expr": 4565,
      "reshape": 4566,
      "\"}),": 4567,
      "CLI": 4568,
      "SAP": 4569,
      "Writer": 4570,
      "hass": 4571,
      "tz": 4572,
      "wrapper": 4573,
      "zen": 4574,
      "seconds": 4575,
      "requen": 4576,
      "Ġext": 4577,
      "Ġwrapper": 4578,
      "Ġtoo": 4579,
      "head": 4580,
      "person": 4581,
      "Ġcould": 4582,
      "shift": 4583,
      "omial": 4584,
      "ird": 4585,
      "ICE": 4586,
      "SELECT": 4587,
      "AttributeChecker": 4588,
      "Parse": 4589,
      "Ġrunning": 4590,
      "Ġcodec": 4591,
      "flavor": 4592,
      "Ġnullable": 4593,
      "evolve": 4594,
      "ĠGeo": 4595,
      "\"\\": 4596,
      "ACT": 4597,
      "One": 4598,
      "follow": 4599,
      "hello": 4600,
      "pr": 4601,
      "speci": 4602,
      "seed": 4603,
      "require": 4604,
      "Ġfd": 4605,
      "mpt": 4606,
      "Ġsim": 4607,
      "loaded": 4608,
      "ressed": 4609,
      "Ġcolour": 4610,
      "policy": 4611,
      "([('": 4612,
      "ĠInput": 4613,
      "Filename": 4614,
      "Ġfake": 4615,
      "DefaultSize": 4616,
      "IMIT": 4617,
      "sorted": 4618,
      "Ġcopyright": 4619,
      "steners": 4620,
      "OutputStream": 4621,
      "dentifier": 4622,
      "Metadata": 4623,
      "$',": 4624,
      ".'": 4625,
      "90": 4626,
      "NG": 4627,
      "Offset": 4628,
      "center": 4629,
      "ites": 4630,
      "sym": 4631,
      "Ġda": 4632,
      "Ġdone": 4633,
      "ĠAs": 4634,
      "Ġgraph": 4635,
      "Ġmeans": 4636,
      "ussion": 4637,
      "Ġuntil": 4638,
      "tenant": 4639,
      "ocab": 4640,
      "subset": 4641,
      "TextField": 4642,
      "Ġgenerator": 4643,
      "Ġcrtwls": 4644,
      "Ġrights": 4645,
      "Ġappro": 4646,
      "Ġscalar": 4647,
      ".',": 4648,
      "53": 4649,
      "clean": 4650,
      "clause": 4651,
      "ioxia": 4652,
      "mul": 4653,
      "warning": 4654,
      "entic": 4655,
      "Ġreason": 4656,
      "Ġtheir": 4657,
      "pear": 4658,
      "Ġedit": 4659,
      "upper": 4660,
      "Ġstore": 4661,
      "ĠFROM": 4662,
      "owski": 4663,
      "Ġcoun": 4664,
      "Ġraised": 4665,
      "struction": 4666,
      "override": 4667,
      "nownHost": 4668,
      "Ġ/>')": 4669,
      "Layout": 4670,
      "****************": 4671,
      "Ġoccur": 4672,
      "Ab": 4673,
      "Qt": 4674,
      "href": 4675,
      "sid": 4676,
      "schema": 4677,
      "sleep": 4678,
      "reset": 4679,
      "reference": 4680,
      "Ġfetch": 4681,
      "Ġpl": 4682,
      "uring": 4683,
      "Ġinstall": 4684,
      "sig": 4685,
      "ĠApp": 4686,
      "ĠPO": 4687,
      "composite": 4688,
      "rowser": 4689,
      "Exten": 4690,
      "CHE": 4691,
      "csv": 4692,
      "Ġhttps": 4693,
      "tificate": 4694,
      "Ġcalcul": 4695,
      "Failed": 4696,
      "ighb": 4697,
      "ERSION": 4698,
      "zeros": 4699,
      "OutputStreamWrapper": 4700,
      "Actions": 4701,
      "OB": 4702,
      "Target": 4703,
      "ork": 4704,
      "Ġ')": 4705,
      "Ġplugin": 4706,
      "uting": 4707,
      "('--": 4708,
      "Ġstill": 4709,
      "ĠBy": 4710,
      "loads": 4711,
      "Proxy": 4712,
      "filters": 4713,
      "targets": 4714,
      "exceptions": 4715,
      "Byte": 4716,
      "Logger": 4717,
      "Admin": 4718,
      "GE": 4719,
      "Kioxia": 4720,
      "PUT": 4721,
      "Su": 4722,
      "]+": 4723,
      "dot": 4724,
      "draw": 4725,
      "sync": 4726,
      "symbols": 4727,
      "tabs": 4728,
      "vhd": 4729,
      "stat": 4730,
      "Ġtb": 4731,
      "Ġinit": 4732,
      "Ġops": 4733,
      "conn": 4734,
      "ĠTH": 4735,
      "assertSerialized": 4736,
      "ĠSystem": 4737,
      "visible": 4738,
      "heet": 4739,
      "export": 4740,
      "Ġord": 4741,
      "ics": 4742,
      "mount": 4743,
      "accept": 4744,
      "ARD": 4745,
      "ticast": 4746,
      "Status": 4747,
      "Property": 4748,
      "Ġrequests": 4749,
      "TEMPL": 4750,
      "ferred": 4751,
      "lert": 4752,
      "UND": 4753,
      "Ġrows": 4754,
      "Ġsklearn": 4755,
      "ĊĠĠĠĠĠĠĠĠĠĠĠĠĠĠĠĠĠĠĠĠĠĠĠĠĠĠĠĠĠĠĠĠĠĠĠĠĠĠĠĠĠĠĠĠĠĠ": 4756,
      "Ġagainst": 4757,
      "98": 4758,
      ">',": 4759,
      "DF": 4760,
      "Gui": 4761,
      "Sc": 4762,
      "TF": 4763,
      "ĠĠĠĠĠĠĠĠĠĠĠ": 4764,
      "oriz": 4765,
      "detail": 4766,
      "lent": 4767,
      "named": 4768,
      "resources": 4769,
      "ube": 4770,
      "addCleanup": 4771,
      "Ġrrp": 4772,
      "Ġexplicit": 4773,
      "speed": 4774,
      "prefixlen": 4775,
      "Ġzero": 4776,
      "Method": 4777,
      "summary": 4778,
      "Ġcallable": 4779,
      "############################################################################": 4780,
      "KioxiaProvisioner": 4781,
      "Hello": 4782,
      "Next": 4783,
      "TC": 4784,
      "Tra": 4785,
      "je": 4786,
      "ingo": 4787,
      "lookup": 4788,
      "Ġconver": 4789,
      "Ġhigh": 4790,
      "ĠOTH": 4791,
      "ONE": 4792,
      "Delete": 4793,
      "umbna": 4794,
      "Ġactive": 4795,
      "NodeContainer": 4796,
      "registry": 4797,
      "success": 4798,
      "Ġjoincond": 4799,
      "ĠOTHER": 4800,
      "umbnail": 4801,
      ")',": 4802,
      "52": 4803,
      "96": 4804,
      "URE": 4805,
      "bc": 4806,
      "duration": 4807,
      "fname": 4808,
      "jax": 4809,
      "normal": 4810,
      "rf": 4811,
      "wisted": 4812,
      "yment": 4813,
      "Ġlyr": 4814,
      "Ġcl": 4815,
      "Ġframe": 4816,
      "ĊĠĠĠĠĠĠĠĠĠĠĠĠĊĠĠĠĠĠĠĠĠĠĠĠ": 4817,
      "Ġpid": 4818,
      "Ġescape": 4819,
      "convert": 4820,
      "apply": 4821,
      "ĠDate": 4822,
      "Ġvs": 4823,
      "scale": 4824,
      "spon": 4825,
      "acy": 4826,
      "fixed": 4827,
      "messages": 4828,
      "[:-": 4829,
      "transfer": 4830,
      "staticmethod": 4831,
      "counter": 4832,
      "Ġlookup": 4833,
      "Permission": 4834,
      "complete": 4835,
      "Ġiterable": 4836,
      "iddleware": 4837,
      "*.": 4838,
      "Est": 4839,
      "basic": 4840,
      "čĊĠĠĠĠĠĠĠĠĠĠĠĠĠĠĠĠĠĠĠ": 4841,
      "Ġjob": 4842,
      "Ġuri": 4843,
      "selenium": 4844,
      "Ġrelated": 4845,
      "Ġrequires": 4846,
      "ategory": 4847,
      "utc": 4848,
      "rac": 4849,
      "')]": 4850,
      "':'": 4851,
      "assertNot": 4852,
      "mentError": 4853,
      "scan": 4854,
      "Ġkeyword": 4855,
      "ĠGoogle": 4856,
      "ĠUP": 4857,
      "internal": 4858,
      "123": 4859,
      "ItemId": 4860,
      "ĠVERT": 4861,
      "9999": 4862,
      "Ġevents": 4863,
      "transform": 4864,
      "forcementError": 4865,
      "Ġmodified": 4866,
      "Load": 4867,
      "Ġcomplex": 4868,
      "ĠEnforcementError": 4869,
      "AsciiTrace": 4870,
      "ryptograph": 4871,
      "Ġdirectly": 4872,
      "municate": 4873,
      "ĠVERTICAL": 4874,
      "95": 4875,
      "CAP": 4876,
      "Msg": 4877,
      "PLE": 4878,
      "SO": 4879,
      "[^": 4880,
      "fmt": 4881,
      "just": 4882,
      "Ġlin": 4883,
      "inite": 4884,
      "erred": 4885,
      "Ġinstal": 4886,
      "Ġown": 4887,
      "logs": 4888,
      "Ġwidth": 4889,
      "chine": 4890,
      "Ġ14": 4891,
      "ĠAffer": 4892,
      "(\"\\": 4893,
      "Ġrv": 4894,
      "Ġnamed": 4895,
      "mbst": 4896,
      "faces": 4897,
      "cafe": 4898,
      "blem": 4899,
      "rows": 4900,
      "begin": 4901,
      "mediate": 4902,
      "ĠAffero": 4903,
      ",))": 4904,
      ".\\": 4905,
      "Min": 4906,
      "NECT": 4907,
      "Pri": 4908,
      "eq": 4909,
      "fb": 4910,
      "ug": 4911,
      "uted": 4912,
      "vs": 4913,
      "Ġlayer": 4914,
      "Ġthose": 4915,
      "Ġretri": 4916,
      "Ġreferences": 4917,
      "Ġplt": 4918,
      "Ġtab": 4919,
      "Ġ13": 4920,
      "ĠSh": 4921,
      "Ġexit": 4922,
      "Ġdeprecated": 4923,
      "Ġprofile": 4924,
      "collection": 4925,
      "RESP": 4926,
      "Radio": 4927,
      "running": 4928,
      "Ġaccept": 4929,
      "2007": 4930,
      "Ġvia": 4931,
      "Ġrepr": 4932,
      "tmpfile": 4933,
      "limits": 4934,
      "Ġautomatic": 4935,
      "Ġbytearray": 4936,
      "Ġvariant": 4937,
      "=\"\"": 4938,
      "MENT": 4939,
      "bs": 4940,
      "uses": 4941,
      "Ġ])": 4942,
      "Ġcho": 4943,
      "rome": 4944,
      "Ġrel": 4945,
      "listener": 4946,
      "unded": 4947,
      "Ġmany": 4948,
      "ssh": 4949,
      "Ġstat": 4950,
      "Ġconne": 4951,
      "prod": 4952,
      "='',": 4953,
      "predict": 4954,
      "feed": 4955,
      "ough": 4956,
      "ĊĠĠĠĠĠĠĠĠĠĠĠĠĠĠĠĠĠĠĠĠĠĠĠĠĠĠĠĠĠĠĠĠĠĠ": 4957,
      "ĊĠĠĠĠĠĠĠĠĠĠĠĠĠĠĠĠĠĠĠĠĠĠĠĠĠĠĠĠĠĠĠĠĠĠĠĠĠĠĠĠ": 4958,
      "checked": 4959,
      "Ġcommon": 4960,
      "DefaultPosition": 4961,
      "Update": 4962,
      "ĠRaises": 4963,
      "SM": 4964,
      "]'": 4965,
      "]\",": 4966,
      "cat": 4967,
      "dn": 4968,
      "ka": 4969,
      "Ġpool": 4970,
      "Ġslice": 4971,
      "ritem": 4972,
      "term": 4973,
      "ĠTh": 4974,
      "Ġhard": 4975,
      "buil": 4976,
      "Ġcourse": 4977,
      "Ġlock": 4978,
      "Ġlower": 4979,
      "ĠNe": 4980,
      "tenv": 4981,
      "ĠUSE": 4982,
      "Ġusers": 4983,
      "expand": 4984,
      "Ġstatement": 4985,
      "elements": 4986,
      "AGS": 4987,
      "TESTS": 4988,
      "Params": 4989,
      "Ġimplementation": 4990,
      "Order": 4991,
      "browser": 4992,
      "literal": 4993,
      "Ġmatrix": 4994,
      "Ġdownload": 4995,
      "------------------------------------------------------------------------": 4996,
      "74": 4997,
      "GER": 4998,
      "Opt": 4999,
      "UID": 5000,
      "cmp": 5001,
      "global": 5002,
      "icon": 5003,
      "js": 5004,
      "kt": 5005,
      "Ð¾": 5006,
      "alan": 5007,
      "tit": 5008,
      "Ġ'#": 5009,
      "Ġbad": 5010,
      "dims": 5011,
      "Ġmost": 5012,
      "ĠSource": 5013,
      "ĠAR": 5014,
      "ases": 5015,
      "toString": 5016,
      "Ġdivision": 5017,
      "Ġbelow": 5018,
      "Ġsep": 5019,
      "modi": 5020,
      "ĠOr": 5021,
      "ARY": 5022,
      "lug": 5023,
      "Ġ42": 5024,
      "ĠHORIZONTAL": 5025,
      "Ġmapped": 5026,
      "Ġhosts": 5027,
      "flag": 5028,
      "saved": 5029,
      "Format": 5030,
      "Ċĉĉĉĉĉĉ": 5031,
      "EXT": 5032,
      "while": 5033,
      "abspath": 5034,
      "invoke": 5035,
      "Mapper": 5036,
      "DateTimeField": 5037,
      "ryptography": 5038,
      "500": 5039,
      ";&": 5040,
      ">\"\"\")": 5041,
      "SD": 5042,
      "VERSION": 5043,
      "YP": 5044,
      "flush": 5045,
      "tten": 5046,
      "dead": 5047,
      "Ġfill": 5048,
      "Ġinf": 5049,
      "dim": 5050,
      "Ġmigration": 5051,
      "rase": 5052,
      "ortran": 5053,
      "appa": 5054,
      "perf": 5055,
      "ĠLIC": 5056,
      "home": 5057,
      "Ġloop": 5058,
      "boo": 5059,
      "Ġsubnet": 5060,
      "mitted": 5061,
      "192": 5062,
      "COL": 5063,
      "Directory": 5064,
      "Ġreply": 5065,
      "CONT": 5066,
      "Ġtempfile": 5067,
      "reshold": 5068,
      "CLIENT": 5069,
      "ĠLICENSE": 5070,
      ",)": 5071,
      "LC": 5072,
      "gle": 5073,
      "jp": 5074,
      "Ġfil": 5075,
      "asy": 5076,
      "att": 5077,
      "Ġplatform": 5078,
      "Ġequal": 5079,
      "trunc": 5080,
      "lso": 5081,
      "Ġ-=": 5082,
      "ĠAl": 5083,
      "prote": 5084,
      "proto": 5085,
      "Ġbehavior": 5086,
      "Ġseconds": 5087,
      "cessed": 5088,
      "ATA": 5089,
      "ITS": 5090,
      "Ġshell": 5091,
      "Ġkind": 5092,
      "CHANG": 5093,
      "ToType": 5094,
      "27241": 5095,
      "cert": 5096,
      "IntToType": 5097,
      "small": 5098,
      "BadValueError": 5099,
      "Ġdimensions": 5100,
      "Query": 5101,
      "requency": 5102,
      "62": 5103,
      "Ln": 5104,
      "RIGHT": 5105,
      "Ġ--------------------------------": 5106,
      "secret": 5107,
      "inherit": 5108,
      "Ġrest": 5109,
      "Ġremoved": 5110,
      "Ġtr": 5111,
      "Ġeval": 5112,
      "Ġ[-": 5113,
      "verage": 5114,
      "pacing": 5115,
      "ĠCOP": 5116,
      "exist": 5117,
      "nsure": 5118,
      "Ġpartition": 5119,
      "Ġ40": 5120,
      "Ġchannel": 5121,
      "flavors": 5122,
      "Ġignored": 5123,
      "Backend": 5124,
      "ĠWindows": 5125,
      "assertIsInstance": 5126,
      "ordinates": 5127,
      "Ġcorresponding": 5128,
      "ĠGeoIP": 5129,
      "ighbors": 5130,
      ")(": 5131,
      "58": 5132,
      "Classifier": 5133,
      "DU": 5134,
      "Port": 5135,
      "Password": 5136,
      "RI": 5137,
      "SUP": 5138,
      "cum": 5139,
      "gi": 5140,
      "gments": 5141,
      "pip": 5142,
      "slice": 5143,
      "Âł": 5144,
      "reader": 5145,
      "ĠĠĠĠĠĠĠĠĠĠĠĠĠĠĠ": 5146,
      "Ġcop": 5147,
      "Ġfi": 5148,
      "Ġfonts": 5149,
      "Ġogr": 5150,
      "Ġbl": 5151,
      "utor": 5152,
      "gether": 5153,
      "ĠTensor": 5154,
      "setting": 5155,
      "vers": 5156,
      "ents": 5157,
      "ysql": 5158,
      "ddy": 5159,
      "cessary": 5160,
      "Ġdefaults": 5161,
      "Ġshutil": 5162,
      "notifi": 5163,
      "Parent": 5164,
      "(_(\"": 5165,
      "ĠKE": 5166,
      "[:,": 5167,
      "operation": 5168,
      "Ġ2012": 5169,
      "Ġsignal": 5170,
      "PREFIX": 5171,
      "WriteLn": 5172,
      "ĠMovedAttribute": 5173,
      "ritems": 5174,
      "'\"": 5175,
      "FEX": 5176,
      "SG": 5177,
      "after": 5178,
      "bb": 5179,
      "multiple": 5180,
      "px": 5181,
      "snapshot": 5182,
      "tb": 5183,
      "xe": 5184,
      "}\".": 5185,
      "selection": 5186,
      "ins": 5187,
      "Ġclean": 5188,
      "Ġsymbol": 5189,
      "Ġstep": 5190,
      "Ġindicate": 5191,
      "ulticast": 5192,
      "sibility": 5193,
      "Ġ\")": 5194,
      "Ġ\".": 5195,
      "Ġhass": 5196,
      "ĠSE": 5197,
      "ĠIMP": 5198,
      "agement": 5199,
      "Ġprov": 5200,
      "ĠGroup": 5201,
      "Ġpair": 5202,
      "Ġalias": 5203,
      "quiva": 5204,
      "Ġcollections": 5205,
      "umed": 5206,
      "Ġheight": 5207,
      "BaseReg": 5208,
      "skb": 5209,
      "outputs": 5210,
      "Ġscra": 5211,
      "TRAN": 5212,
      "structure": 5213,
      "framework": 5214,
      "Ġwritten": 5215,
      "choice": 5216,
      "buttons": 5217,
      "Ġrepresenting": 5218,
      "Ġincluded": 5219,
      "transport": 5220,
      "IRECT": 5221,
      "HelperForIpv": 5222,
      "ĠKEY": 5223,
      ".)": 5224,
      "70": 5225,
      "Graph": 5226,
      "clf": 5227,
      "pid": 5228,
      "warn": 5229,
      "xc": 5230,
      "once": 5231,
      "Ġfinal": 5232,
      "Ġwell": 5233,
      "Ġ\"<": 5234,
      "__()": 5235,
      "Ġstage": 5236,
      "amo": 5237,
      "strftime": 5238,
      "prov": 5239,
      "igi": 5240,
      "ĠDAM": 5241,
      "Ġmetadata": 5242,
      "ĠEV": 5243,
      "Ġ32": 5244,
      "subject": 5245,
      "ĊĠĠĠĠĠĠĠĠĠĠĠĠĠĠĠĠĠĠĠĠĠĠĠĠĠĠĠĠĠĠĠĠĠĠĠĠĠĠ": 5246,
      "Ġapply": 5247,
      "ducer": 5248,
      "tasks": 5249,
      "events": 5250,
      "sole": 5251,
      "LIED": 5252,
      "Ġstdin": 5253,
      "ServiceReference": 5254,
      "MAX": 5255,
      "EnableAscii": 5256,
      "Ġsqlalchemy": 5257,
      "BooleanField": 5258,
      "Estimator": 5259,
      "1000": 5260,
      "92": 5261,
      "Extra": 5262,
      "Make": 5263,
      "Of": 5264,
      "Range": 5265,
      "Sample": 5266,
      "Table": 5267,
      "cwd": 5268,
      "gment": 5269,
      "sl": 5270,
      "selector": 5271,
      "derer": 5272,
      "enc": 5273,
      "roy": 5274,
      "route": 5275,
      "uni": 5276,
      "Ġ(%": 5277,
      "digital": 5278,
      "rad": 5279,
      "Ġdce": 5280,
      "isol": 5281,
      "ĠTemplate": 5282,
      "001": 5283,
      "ĠAlso": 5284,
      "Ġdev": 5285,
      "timeError": 5286,
      "Ġ31": 5287,
      "Values": 5288,
      "Ġwere": 5289,
      "umer": 5290,
      "Ġlogin": 5291,
      "Ġlogits": 5292,
      "Files": 5293,
      "HOST": 5294,
      "Ġvalidator": 5295,
      "LOG": 5296,
      "Ċĉĉĉĉĉĉĉ": 5297,
      "Ġmanager": 5298,
      "ĠTreeItemId": 5299,
      "Ġcalendar": 5300,
      "ordinate": 5301,
      "calculator": 5302,
      "ĠIMPLIED": 5303,
      "quivalent": 5304,
      "/>.": 5305,
      "76": 5306,
      ";,": 5307,
      "Clause": 5308,
      "Doc": 5309,
      "NS": 5310,
      "WA": 5311,
      "Ġetc": 5312,
      "deprecated": 5313,
      "Ġfn": 5314,
      "cts": 5315,
      "Ġelem": 5316,
      "Ġmuch": 5317,
      "ĠST": 5318,
      "Ġ_('": 5319,
      "Ġexport": 5320,
      "Ġdependen": 5321,
      "ĠMap": 5322,
      "factor": 5323,
      "created": 5324,
      "generator": 5325,
      "Windows": 5326,
      "Ġdimension": 5327,
      "REQUEST": 5328,
      "ByteTag": 5329,
      "sponder": 5330,
      "titude": 5331,
      ",'": 5332,
      "51": 5333,
      ":&": 5334,
      "FC": 5335,
      "PY": 5336,
      "SIZE": 5337,
      "cations": 5338,
      "egg": 5339,
      "ited": 5340,
      "nan": 5341,
      "ÅĤ": 5342,
      "leg": 5343,
      "Ġrelation": 5344,
      "serif": 5345,
      "course": 5346,
      "dictions": 5347,
      "Ġws": 5348,
      "Ġ[{": 5349,
      "Ġstats": 5350,
      "vig": 5351,
      "ĠCol": 5352,
      "Types": 5353,
      "\"><": 5354,
      "Ġshard": 5355,
      "Seq": 5356,
      "Parameter": 5357,
      "Ġsafe": 5358,
      "contents": 5359,
      "NUM": 5360,
      "Ġneeds": 5361,
      "Ġbetter": 5362,
      "Ġpoints": 5363,
      "complex": 5364,
      "SERVER": 5365,
      "Accessor": 5366,
      "IMITED": 5367,
      "EL": 5368,
      "IAL": 5369,
      "PASS": 5370,
      "SL": 5371,
      "VID": 5372,
      "cv": 5373,
      "hy": 5374,
      "hinx": 5375,
      "rnn": 5376,
      "xp": 5377,
      "Ġentries": 5378,
      "ansible": 5379,
      "Ġsources": 5380,
      "digest": 5381,
      "Ġword": 5382,
      "chain": 5383,
      "cki": 5384,
      "')))": 5385,
      "verify": 5386,
      "exclude": 5387,
      "Ġglob": 5388,
      "Received": 5389,
      "Ġfilenames": 5390,
      "sphinx": 5391,
      "riteri": 5392,
      "company": 5393,
      "Stats": 5394,
      "Ġserializer": 5395,
      "templates": 5396,
      "Ġhostname": 5397,
      "Ġsaved": 5398,
      "correct": 5399,
      "Ġcases": 5400,
      "Loader": 5401,
      "ĠOpenERP": 5402,
      "Ġpkg": 5403,
      "(%": 5404,
      ",),": 5405,
      "Ip": 5406,
      "Pos": 5407,
      "System": 5408,
      "actor": 5409,
      "finished": 5410,
      "panel": 5411,
      "Ġqueue": 5412,
      "arge": 5413,
      "Ġind": 5414,
      "Ġtheme": 5415,
      "ctx": 5416,
      "dire": 5417,
      "')[": 5418,
      "__\":": 5419,
      "upgrade": 5420,
      "permission": 5421,
      "former": 5422,
      "Ġcore": 5423,
      "ĠDis": 5424,
      "licate": 5425,
      "Ġensure": 5426,
      "rypt": 5427,
      "communicate": 5428,
      "Ġonce": 5429,
      "acquire": 5430,
      "Keys": 5431,
      "1234": 5432,
      "Ġsupp": 5433,
      "Enabled": 5434,
      "latforms": 5435,
      "[:]": 5436,
      "Ġrole": 5437,
      "sitory": 5438,
      "Ġdelta": 5439,
      "volumes": 5440,
      "VALID": 5441,
      "mbedding": 5442,
      "FLAGS": 5443,
      "(\"\"\"": 5444,
      "CAL": 5445,
      "HIT": 5446,
      "IE": 5447,
      "Li": 5448,
      "New": 5449,
      "Package": 5450,
      "Volume": 5451,
      "gon": 5452,
      "got": 5453,
      "ij": 5454,
      "mad": 5455,
      "sans": 5456,
      "Ġlib": 5457,
      "inner": 5458,
      "engine": 5459,
      "Ġrepe": 5460,
      "Ġpur": 5461,
      "Ġside": 5462,
      "Ġboolean": 5463,
      "distance": 5464,
      "Ġwarning": 5465,
      "ullet": 5466,
      "Ġduring": 5467,
      "proxy": 5468,
      "ANCE": 5469,
      "Ġcols": 5470,
      "ĠHas": 5471,
      "ĊĠĠĠĠĠĠĠĠĠĠĠĠĠĠĠĠĠĠĠĠĠĠĠĠĠĠĠĠĠĠĠĠĠĠĠĠĠĠĠ": 5472,
      "Ġidset": 5473,
      "Ġkappa": 5474,
      "ĠRequest": 5475,
      "Ġupload": 5476,
      "Ġinternet": 5477,
      "``,": 5478,
      "Ġwords": 5479,
      "nav": 5480,
      "ceive": 5481,
      "Ġarrays": 5482,
      "Account": 5483,
      "hooks": 5484,
      ";,&": 5485,
      "Binder": 5486,
      "EP": 5487,
      "ISE": 5488,
      "IVE": 5489,
      "Sli": 5490,
      "Send": 5491,
      "YLE": 5492,
      "eff": 5493,
      "iases": 5494,
      "numeric": 5495,
      "rm": 5496,
      "writer": 5497,
      "wsgi": 5498,
      "Ġ))": 5499,
      "integer": 5500,
      "assign": 5501,
      "cel": 5502,
      "Ġput": 5503,
      "Ġpattern": 5504,
      "sertion": 5505,
      "Ġdraw": 5506,
      "ĠTask": 5507,
      "gettext": 5508,
      "Ġconsi": 5509,
      "Ġ17": 5510,
      "Ġhook": 5511,
      "velo": 5512,
      "Ġselection": 5513,
      "INTER": 5514,
      "Ġmem": 5515,
      "usage": 5516,
      "Ġlang": 5517,
      "ĠBe": 5518,
      "ĠBUT": 5519,
      "STYLE": 5520,
      "oken": 5521,
      "logging": 5522,
      "phinx": 5523,
      "ynam": 5524,
      "Ġdoctest": 5525,
      "spect": 5526,
      "Ġadditional": 5527,
      "EventBinder": 5528,
      "Ġcommands": 5529,
      "astype": 5530,
      "NotFound": 5531,
      "cycle": 5532,
      "PyEventBinder": 5533,
      "impl": 5534,
      "super": 5535,
      "Ġappear": 5536,
      "lexi": 5537,
      "Ġcharacters": 5538,
      "Core": 5539,
      "Icon": 5540,
      "Multi": 5541,
      "OW": 5542,
      "]+)": 5543,
      "csel": 5544,
      "kf": 5545,
      "ping": 5546,
      "ptr": 5547,
      "png": 5548,
      "yes": 5549,
      "async": 5550,
      "Ġpop": 5551,
      "services": 5552,
      "cos": 5553,
      "Ġbranch": 5554,
      "sired": 5555,
      "abstract": 5556,
      "ĠTo": 5557,
      "ilar": 5558,
      "Ġhex": 5559,
      "Ġhappen": 5560,
      "(\"-": 5561,
      "ĠLIMITED": 5562,
      "Ġ<<": 5563,
      "Ġyet": 5564,
      "Ġenabled": 5565,
      "Ġentities": 5566,
      "ĠRow": 5567,
      "comparison": 5568,
      "Stop": 5569,
      "UTH": 5570,
      "Ġserialized": 5571,
      "Items": 5572,
      "ĠRedistribu": 5573,
      "Ġperson": 5574,
      "Ġlistener": 5575,
      "234": 5576,
      "2014": 5577,
      "Argument": 5578,
      "Ġ2013": 5579,
      "fully": 5580,
      "Ġallows": 5581,
      "Ġfails": 5582,
      "Ġopts": 5583,
      "PARAM": 5584,
      "94": 5585,
      "HAS": 5586,
      "MIN": 5587,
      "TIM": 5588,
      "nate": 5589,
      "tl": 5590,
      "uous": 5591,
      "}.": 5592,
      "Ã³": 5593,
      "mem": 5594,
      "Ġcat": 5595,
      "ana": 5596,
      "analy": 5597,
      "unds": 5598,
      "Ġtool": 5599,
      "ĠIO": 5600,
      "Ġtesting": 5601,
      "Regex": 5602,
      "Ġmetri": 5603,
      "ĠBY": 5604,
      "\"][\"": 5605,
      "Ġnotify": 5606,
      "ĠReserved": 5607,
      "imal": 5608,
      "TextCtrl": 5609,
      "Ġ\"\")": 5610,
      "Ġupdated": 5611,
      "Show": 5612,
      "Flag": 5613,
      "Flags": 5614,
      "Ġbuiltin": 5615,
      "CONFIG": 5616,
      "ctypes": 5617,
      "Ġmembership": 5618,
      ">,": 5619,
      "Mso": 5620,
      "cus": 5621,
      "fk": 5622,
      "salt": 5623,
      "two": 5624,
      "ĊĊĉĉ": 5625,
      "Ġide": 5626,
      "enabled": 5627,
      "etri": 5628,
      "loop": 5629,
      "Ġdump": 5630,
      "ĠLog": 5631,
      "provider": 5632,
      "joint": 5633,
      "ĠHttp": 5634,
      "shapes": 5635,
      "Ġtasks": 5636,
      "firm": 5637,
      "Ġrendered": 5638,
      "clus": 5639,
      "depth": 5640,
      "CRIP": 5641,
      "ĠQgsVector": 5642,
      "variance": 5643,
      "slices": 5644,
      "Ġmerge": 5645,
      "nownHostsFile": 5646,
      "alancer": 5647,
      "MsoNormal": 5648,
      "83": 5649,
      ">')": 5650,
      "Ite": 5651,
      "WG": 5652,
      "ban": 5653,
      "cid": 5654,
      "high": 5655,
      "ygon": 5656,
      "}/": 5657,
      "Ġiterator": 5658,
      "Ġavoid": 5659,
      "Ġtwisted": 5660,
      "Ġinherit": 5661,
      "Ġinventory": 5662,
      "disc": 5663,
      "dialog": 5664,
      "rases": 5665,
      "('.": 5666,
      "Ġdrop": 5667,
      "isode": 5668,
      "ĠCal": 5669,
      "qualified": 5670,
      "(\".": 5671,
      "ĠMy": 5672,
      "scal": 5673,
      "Ġitself": 5674,
      "ĠBu": 5675,
      "REES": 5676,
      "netmask": 5677,
      "Ġtimes": 5678,
      "ĠIndex": 5679,
      "Ġnote": 5680,
      "Ġ50": 5681,
      "rations": 5682,
      "ixel": 5683,
      "Ġaddr": 5684,
      "ABC": 5685,
      "AGES": 5686,
      "sence": 5687,
      "avg": 5688,
      "DATA": 5689,
      "ĠSAPMessage": 5690,
      "ĠLIABILITY": 5691,
      "dimension": 5692,
      "assertSerializedEqual": 5693,
      "199": 5694,
      "72": 5695,
      ":\\": 5696,
      ":])": 5697,
      "CUM": 5698,
      "EC": 5699,
      "IF": 5700,
      "MC": 5701,
      "Sparse": 5702,
      "WIN": 5703,
      "_)": 5704,
      "fun": 5705,
      "gree": 5706,
      "lp": 5707,
      "off": 5708,
      "tv": 5709,
      "Ġmp": 5710,
      "relay": 5711,
      "Ġ':": 5712,
      "entity": 5713,
      "--+": 5714,
      "Ġflask": 5715,
      "Ġintegr": 5716,
      "serve": 5717,
      "Ġbrowser": 5718,
      "conv": 5719,
      "Ġuuid": 5720,
      "Ġcondition": 5721,
      "Ġexperiment": 5722,
      "Ġtestvol": 5723,
      "found": 5724,
      "ĠOO": 5725,
      "ATOR": 5726,
      "reater": 5727,
      "ĠRights": 5728,
      "ĊĠĠĠĠĠĠĠĠĊĠĠĠ": 5729,
      "Ġthisown": 5730,
      "neg": 5731,
      "ENS": 5732,
      "owner": 5733,
      "ListItem": 5734,
      "Could": 5735,
      "expression": 5736,
      "ĠVer": 5737,
      "00000000": 5738,
      "Ġnecessary": 5739,
      "Ġnumbers": 5740,
      "Ġverbosity": 5741,
      "Ġtransfer": 5742,
      "ĠJSON": 5743,
      "2949": 5744,
      "Python": 5745,
      "Ġtrack": 5746,
      "deploy": 5747,
      "swigregister": 5748,
      "ĠDEFAULT": 5749,
      "timesince": 5750,
      "svg": 5751,
      "Ġincluding": 5752,
      "ĠSAPParam": 5753,
      "ĠQtGui": 5754,
      ".],": 5755,
      "125": 5756,
      "63": 5757,
      ";;": 5758,
      ">\"": 5759,
      "Multicast": 5760,
      "Spin": 5761,
      "]*": 5762,
      "gration": 5763,
      "sources": 5764,
      "wi": 5765,
      "inotify": 5766,
      "delay": 5767,
      "album": 5768,
      "ence": 5769,
      "Ġ([": 5770,
      "utron": 5771,
      "ulator": 5772,
      "sistant": 5773,
      "tras": 5774,
      "Ġconn": 5775,
      "Ġhome": 5776,
      "focus": 5777,
      "([\"": 5778,
      "Ġenviron": 5779,
      "Ġmac": 5780,
      "ĠGtk": 5781,
      "ĠThere": 5782,
      "rence": 5783,
      "Ġlists": 5784,
      "Ġversions": 5785,
      "Raw": 5786,
      "Ġheap": 5787,
      "processor": 5788,
      "Ġexpi": 5789,
      "epcopy": 5790,
      "Ġnegative": 5791,
      "Ġdirectories": 5792,
      "extensions": 5793,
      "Ġverify": 5794,
      "FAKE": 5795,
      "Ġmodifi": 5796,
      "arguments": 5797,
      "Changed": 5798,
      "Ġtakes": 5799,
      "Signature": 5800,
      "Ġevalu": 5801,
      ")')": 5802,
      ",_": 5803,
      "Database": 5804,
      "EB": 5805,
      "JECT": 5806,
      "PC": 5807,
      "PL": 5808,
      "Please": 5809,
      "Template": 5810,
      "Use": 5811,
      "bon": 5812,
      "cce": 5813,
      "fro": 5814,
      "freq": 5815,
      "symbol": 5816,
      "ÅĦ": 5817,
      "Ġtermin": 5818,
      "ining": 5819,
      "titem": 5820,
      "Ġpatch": 5821,
      "Ġplot": 5822,
      "Ġplatforms": 5823,
      "',),": 5824,
      "Ġssh": 5825,
      "Ġisn": 5826,
      "testing": 5827,
      "partial": 5828,
      "tore": 5829,
      "=\"%": 5830,
      "Ġseen": 5831,
      "']\"}),": 5832,
      "Ġrp": 5833,
      "ically": 5834,
      "REG": 5835,
      "RES": 5836,
      "agic": 5837,
      "ORM": 5838,
      "irq": 5839,
      "Ġ{})": 5840,
      "iteritems": 5841,
      "packed": 5842,
      "manent": 5843,
      "\")).": 5844,
      "6729": 5845,
      "ĠTreeEstimator": 5846,
      "Thread": 5847,
      "duced": 5848,
      "literals": 5849,
      "icrosoft": 5850,
      "amount": 5851,
      "ĠQgsVectorLayer": 5852,
      ")/": 5853,
      "82": 5854,
      ";'": 5855,
      "BB": 5856,
      "PK": 5857,
      "Print": 5858,
      "cn": 5859,
      "ever": 5860,
      "ftp": 5861,
      "ivar": 5862,
      "pattern": 5863,
      "sue": 5864,
      "since": 5865,
      "ush": 5866,
      "wards": 5867,
      "Ġ).": 5868,
      "dec": 5869,
      "memo": 5870,
      "Ġclear": 5871,
      "Ġsq": 5872,
      "Ġtransport": 5873,
      "Ġinsert": 5874,
      "Ġinstru": 5875,
      "Ġequivalent": 5876,
      "Ġwrong": 5877,
      "radi": 5878,
      "sitions": 5879,
      "Ġ\"_": 5880,
      "openerp": 5881,
      "ĠLIGHT": 5882,
      "ĠDIG": 5883,
      "ĠMigration": 5884,
      "istic": 5885,
      "Ġencode": 5886,
      "ĠNet": 5887,
      "ĠBE": 5888,
      "aggreg": 5889,
      "Ġatn": 5890,
      "latest": 5891,
      "Ġsubclass": 5892,
      "Ġdouble": 5893,
      "Ġpermission": 5894,
      "CTION": 5895,
      "Entity": 5896,
      "Ġteam": 5897,
      "2008": 5898,
      "theme": 5899,
      "cpu": 5900,
      "iterator": 5901,
      "Ġchildren": 5902,
      "ĠDOWN": 5903,
      "extract": 5904,
      "ĠphKey": 5905,
      "bigend": 5906,
      "Only": 5907,
      "HERE": 5908,
      "Static": 5909,
      "Ġclone": 5910,
      "29496729": 5911,
      "DV": 5912,
      "Http": 5913,
      "Main": 5914,
      "Ren": 5915,
      "fex": 5916,
      "fetch": 5917,
      "rup": 5918,
      "inct": 5919,
      "infer": 5920,
      "eries": 5921,
      "Ġicon": 5922,
      "Ġaut": 5923,
      "Ġ'*": 5924,
      "Ġcach": 5925,
      "Ġsm": 5926,
      "Ġow": 5927,
      "units": 5928,
      "Ġ18": 5929,
      "Ġ1000": 5930,
      "ĠAM": 5931,
      "linen": 5932,
      "android": 5933,
      "ĠPY": 5934,
      "ĠMeta": 5935,
      "ĠOUT": 5936,
      "Ġyaml": 5937,
      "Ġunits": 5938,
      "ĠGE": 5939,
      "agent": 5940,
      "....": 5941,
      "osv": 5942,
      "LETE": 5943,
      "Ġcollection": 5944,
      "sizeof": 5945,
      "ĠIntegral": 5946,
      "runner": 5947,
      "basename": 5948,
      "ROUP": 5949,
      "funcs": 5950,
      "docs": 5951,
      "Ġmaximum": 5952,
      "Ġdistribution": 5953,
      "ĠStringIO": 5954,
      "vateKey": 5955,
      "Ġoperations": 5956,
      "Ġexceptions": 5957,
      "Ġsupports": 5958,
      "herits": 5959,
      "counters": 5960,
      "Ġimplements": 5961,
      "tivity": 5962,
      "toolbar": 5963,
      "Ġusage": 5964,
      "orizont": 5965,
      "##############################################################################": 5966,
      "Ġautomatically": 5967,
      "ORMAL": 5968,
      "(('": 5969,
      "Bind": 5970,
      "Mark": 5971,
      "Te": 5972,
      "_%": 5973,
      "gmail": 5974,
      "kb": 5975,
      "mm": 5976,
      "nested": 5977,
      "oted": 5978,
      "week": 5979,
      "tet": 5980,
      "ueue": 5981,
      "ateri": 5982,
      "pec": 5983,
      "lots": 5984,
      "losses": 5985,
      "Ġbar": 5986,
      "Ġbound": 5987,
      "rast": 5988,
      "quad": 5989,
      "ssl": 5990,
      "itle": 5991,
      "ĠTable": 5992,
      "esh": 5993,
      "Ġgen": 5994,
      "ERUSER": 5995,
      "hour": 5996,
      "Ġmeta": 5997,
      "Ġmachine": 5998,
      "ĠExtra": 5999,
      "factory": 6000,
      "Ġattach": 6001,
      "Ġaliases": 6002,
      "Ġ429496729": 6003,
      "ĠHe": 6004,
      "vative": 6005,
      "Ġchecks": 6006,
      "2022": 6007,
      "Ġliter": 6008,
      "csma": 6009,
      "Resource": 6010,
      "abcdef": 6011,
      "compiler": 6012,
      "failure": 6013,
      "seek": 6014,
      "Ġdatatype": 6015,
      "ĠTHIS": 6016,
      "TEMPLATE": 6017,
      "ĠDIGIT": 6018,
      "DR": 6019,
      "NORMAL": 6020,
      "OF": 6021,
      "Play": 6022,
      "eded": 6023,
      "gb": 6024,
      "zap": 6025,
      "{%": 6026,
      "{{": 6027,
      "ĠĠĠĠĠĠĠĠĠĠĠĠĠ": 6028,
      "arDown": 6029,
      "Ġcsma": 6030,
      "Ġfoo": 6031,
      "Ġremain": 6032,
      "Ġtyp": 6033,
      "Ġthemes": 6034,
      "Ġdefer": 6035,
      "Ġissue": 6036,
      "__.__": 6037,
      "Ġstored": 6038,
      "ultin": 6039,
      "permissions": 6040,
      "ĠItem": 6041,
      "proc": 6042,
      "']\",": 6043,
      "ĠOther": 6044,
      "ifest": 6045,
      "tend": 6046,
      "Ġsets": 6047,
      "Ġsetattr": 6048,
      "ĠThese": 6049,
      "Ġraises": 6050,
      "subnet": 6051,
      "configure": 6052,
      "Ġcommit": 6053,
      "Ġgroups": 6054,
      "translate": 6055,
      "Unless": 6056,
      "ADER": 6057,
      "commands": 6058,
      "PacketTag": 6059,
      "Ġactually": 6060,
      "Background": 6061,
      "Ġcorrectly": 6062,
      "BOOK": 6063,
      "Ġscored": 6064,
      "ĠAuthors": 6065,
      "ĠOSError": 6066,
      "${": 6067,
      "'<": 6068,
      "SIGN": 6069,
      "TREES": 6070,
      "pd": 6071,
      "xA": 6072,
      "zie": 6073,
      "teri": 6074,
      "arange": 6075,
      "tili": 6076,
      "Ġfinished": 6077,
      "Ġpe": 6078,
      "Ġspace": 6079,
      "lip": 6080,
      "ulation": 6081,
      "Ġdefini": 6082,
      "choo": 6083,
      "cklist": 6084,
      "absent": 6085,
      "constants": 6086,
      "isual": 6087,
      "ĠTime": 6088,
      "getLogger": 6089,
      "setdefault": 6090,
      "lations": 6091,
      "ĠAnd": 6092,
      "Ġ*',": 6093,
      "progress": 6094,
      "quested": 6095,
      "timer": 6096,
      "outing": 6097,
      "cipi": 6098,
      "======": 6099,
      "Ġattemp": 6100,
      "cales": 6101,
      "Ġshared": 6102,
      "Selected": 6103,
      "Example": 6104,
      "Serialize": 6105,
      "Deferred": 6106,
      "Ġaddresses": 6107,
      "datatype": 6108,
      "ĠAny": 6109,
      "generic": 6110,
      "poll": 6111,
      "support": 6112,
      "lassification": 6113,
      "IBUT": 6114,
      "front": 6115,
      "beatle": 6116,
      "today": 6117,
      "lexible": 6118,
      "cluster": 6119,
      ":#": 6120,
      "Ext": 6121,
      "Flow": 6122,
      "IST": 6123,
      "KNO": 6124,
      "Rate": 6125,
      "Rule": 6126,
      "SK": 6127,
      "Step": 6128,
      "VR": 6129,
      "Vari": 6130,
      "Work": 6131,
      "eps": 6132,
      "effect": 6133,
      "yper": 6134,
      "zation": 6135,
      "leaf": 6136,
      "three": 6137,
      "ernel": 6138,
      "Ġirast": 6139,
      "Ġcard": 6140,
      "Ġclause": 6141,
      "atom": 6142,
      "Ġregex": 6143,
      "Ġsym": 6144,
      "serializer": 6145,
      "Ġec": 6146,
      "Ġdefine": 6147,
      "('<": 6148,
      "aper": 6149,
      "vertical": 6150,
      "ĠAc": 6151,
      "ressions": 6152,
      "(\"/": 6153,
      "ĠField": 6154,
      "bucket": 6155,
      "Ġdetermine": 6156,
      "prob": 6157,
      "tax": 6158,
      "cesses": 6159,
      "ffff": 6160,
      "LET": 6161,
      "ouse": 6162,
      "compute": 6163,
      "Project": 6164,
      "Ġknow": 6165,
      "Ġleast": 6166,
      "CHEM": 6167,
      "crete": 6168,
      "Positive": 6169,
      "ColumnElement": 6170,
      "cording": 6171,
      "divid": 6172,
      "PacketMetadata": 6173,
      "backends": 6174,
      "NetDeviceContainer": 6175,
      "swiginit": 6176,
      "plotlib": 6177,
      "PcapFile": 6178,
      "Generic": 6179,
      "IRED": 6180,
      "combo": 6181,
      "EmptyString": 6182,
      "Ġswitch": 6183,
      "Ġfrog": 6184,
      "globals": 6185,
      "Ġrelationship": 6186,
      "fexv": 6187,
      "68": 6188,
      "?)": 6189,
      "DS": 6190,
      "ELD": 6191,
      "FER": 6192,
      "Ne": 6193,
      "PS": 6194,
      "Routing": 6195,
      "Token": 6196,
      "_(['": 6197,
      "branch": 6198,
      "ipv": 6199,
      "master": 6200,
      "press": 6201,
      "rl": 6202,
      "sz": 6203,
      "retry": 6204,
      "orary": 6205,
      "deri": 6206,
      "ticket": 6207,
      "Ġio": 6208,
      "cep": 6209,
      "cture": 6210,
      "isten": 6211,
      "apsed": 6212,
      "iling": 6213,
      "setnc": 6214,
      "resolve": 6215,
      "Ġbegin": 6216,
      "INST": 6217,
      "izard": 6218,
      "Ġloader": 6219,
      "cipy": 6220,
      "ĠEnsure": 6221,
      "ĠWH": 6222,
      "LEFT": 6223,
      "statement": 6224,
      "ROOT": 6225,
      "ĠGetClassDefaultAttributes": 6226,
      "Ġmatching": 6227,
      "creen": 6228,
      "Internal": 6229,
      "FIELD": 6230,
      "2015": 6231,
      "Ġchanges": 6232,
      "InterfaceContainer": 6233,
      "YRIGHT": 6234,
      "HostKey": 6235,
      "TraceSource": 6236,
      "HasField": 6237,
      "Modi": 6238,
      "ĠONE": 6239,
      "WAIT": 6240,
      "ĠIOError": 6241,
      "setncattr": 6242,
      ",\"": 6243,
      "NC": 6244,
      "NTP": 6245,
      "Tran": 6246,
      "\\.": 6247,
      "bte": 6248,
      "break": 6249,
      "drop": 6250,
      "jinja": 6251,
      "oul": 6252,
      "ront": 6253,
      "rstrip": 6254,
      "xies": 6255,
      "stmt": 6256,
      "decimal": 6257,
      "Ġiris": 6258,
      "Ġcluster": 6259,
      "attach": 6260,
      "Ġsv": 6261,
      "Ġslot": 6262,
      "Ġtz": 6263,
      "Ġ()": 6264,
      "()]": 6265,
      "vals": 6266,
      "ges": 6267,
      "Ġisol": 6268,
      "concept": 6269,
      "ĠTrans": 6270,
      "Ġutils": 6271,
      "keyval": 6272,
      "Ġ24": 6273,
      "Ġselector": 6274,
      "Ġproto": 6275,
      "Ġyear": 6276,
      "Ġoutfile": 6277,
      "SetItem": 6278,
      "dence": 6279,
      "Ġtimespan": 6280,
      "128": 6281,
      "Ġcomparison": 6282,
      "Ġknown": 6283,
      "Ġargv": 6284,
      "DEBUG": 6285,
      "Ġlet": 6286,
      "priate": 6287,
      "oozie": 6288,
      "latten": 6289,
      "2004": 6290,
      "2010": 6291,
      "2013": 6292,
      "Arn": 6293,
      "Ġmanual": 6294,
      "placeholder": 6295,
      "arming": 6296,
      "Ġfrozen": 6297,
      "levant": 6298,
      "spawn": 6299,
      "ractive": 6300,
      "Ġinstalled": 6301,
      "CONTENT": 6302,
      "riterion": 6303,
      "ynamic": 6304,
      "/'": 6305,
      "404": 6306,
      "DATE": 6307,
      "First": 6308,
      "Pol": 6309,
      "VK": 6310,
      "\\'": 6311,
      "`)": 6312,
      "ae": 6313,
      "cd": 6314,
      "ech": 6315,
      "gre": 6316,
      "gather": 6317,
      "iris": 6318,
      "ming": 6319,
      "qs": 6320,
      "syn": 6321,
      "Ġquot": 6322,
      "Ġatom": 6323,
      "Ġfolder": 6324,
      "Ġpod": 6325,
      "Ġouter": 6326,
      "ription": 6327,
      "ading": 6328,
      "apter": 6329,
      "illi": 6330,
      "Ġcontrib": 6331,
      "Ġhb": 6332,
      "ĠLo": 6333,
      "Ġgyp": 6334,
      "Ġdetermin": 6335,
      "Ġdiff": 6336,
      "Record": 6337,
      "Ġmeeting": 6338,
      "ĠMan": 6339,
      "oggle": 6340,
      "subsets": 6341,
      "ools": 6342,
      "Comb": 6343,
      "ĠRemove": 6344,
      "contenttype": 6345,
      "Ġexecution": 6346,
      "497": 6347,
      "Layers": 6348,
      "images": 6349,
      "repeat": 6350,
      "rypted": 6351,
      "unknown": 6352,
      "Ġvars": 6353,
      "Ġwhose": 6354,
      "boolean": 6355,
      "ĠCOPYRIGHT": 6356,
      "Ġmetric": 6357,
      "cidr": 6358,
      "ÅĦski": 6359,
      "IBUTORS": 6360,
      ")}": 6361,
      "FS": 6362,
      "OM": 6363,
      "Pi": 6364,
      "]):": 6365,
      "cas": 6366,
      "hide": 6367,
      "nop": 6368,
      "tar": 6369,
      "oring": 6370,
      "lec": 6371,
      "tid": 6372,
      "Ġcf": 6373,
      "Ġnorm": 6374,
      "Ġinner": 6375,
      "Ġinverse": 6376,
      "Ġbook": 6377,
      "Ġbasic": 6378,
      "('_": 6379,
      "Ġdriver": 6380,
      "Ġ19": 6381,
      "ables": 6382,
      "expect": 6383,
      "Ġimports": 6384,
      "strings": 6385,
      "ando": 6386,
      "ERY": 6387,
      "Ġlocale": 6388,
      "ĠNumber": 6389,
      "ponen": 6390,
      "STATE": 6391,
      "rency": 6392,
      "pping": 6393,
      "validation": 6394,
      "Names": 6395,
      "logfile": 6396,
      "\"]:": 6397,
      "venio": 6398,
      "expi": 6399,
      "Ġless": 6400,
      "Ġaxes": 6401,
      "Ġcrash": 6402,
      "which": 6403,
      "FFFF": 6404,
      "clip": 6405,
      "ĠWeb": 6406,
      "disable": 6407,
      "Ġfailure": 6408,
      "Disabled": 6409,
      "Ġspecial": 6410,
      "ĠRuntimeError": 6411,
      "Ġappropriate": 6412,
      "assertNotEqual": 6413,
      "PASSWORD": 6414,
      "agicMock": 6415,
      "memoized": 6416,
      "dividual": 6417,
      ">'],": 6418,
      "??": 6419,
      "Mesh": 6420,
      "Sup": 6421,
      "SQL": 6422,
      "SCHEM": 6423,
      "cancel": 6424,
      "elem": 6425,
      "ko": 6426,
      "norm": 6427,
      "same": 6428,
      "sock": 6429,
      "uar": 6430,
      "ulo": 6431,
      "xis": 6432,
      "čĊĠĠĠĠĠĠĠĠĠĠĠĠĠĠĠĠĠĠĠĠĠĠĠ": 6433,
      "separ": 6434,
      "Ġcategory": 6435,
      "Ġfix": 6436,
      "asc": 6437,
      "atural": 6438,
      "ety": 6439,
      "Ġpr": 6440,
      "uest": 6441,
      "Ġtran": 6442,
      "cost": 6443,
      "under": 6444,
      "rack": 6445,
      "chase": 6446,
      "ital": 6447,
      "versed": 6448,
      "009": 6449,
      "ĠAS": 6450,
      "Ġ25": 6451,
      "Ġdeli": 6452,
      "andy": 6453,
      "prompt": 6454,
      "igs": 6455,
      "Ġresources": 6456,
      "Ġ{%": 6457,
      "Ġlosses": 6458,
      "Install": 6459,
      "shared": 6460,
      "ĠMark": 6461,
      "coming": 6462,
      "ETIME": 6463,
      "ETHER": 6464,
      "need": 6465,
      "ĊĠĠĠĠĠĠĠĠĠĠĠĠĠĠĠĠĠĠĠĠĠĠĠĠĠĠĠĠĠĠĠĠĠĠĠĠĠĠĠĠĠĠĠ": 6466,
      "createVariable": 6467,
      "Ġserializ": 6468,
      "within": 6469,
      "Ġcompare": 6470,
      "little": 6471,
      "Ġhead": 6472,
      "ĠVR": 6473,
      "ĠXML": 6474,
      "Ġinterpre": 6475,
      "ĠhostsFile": 6476,
      "updated": 6477,
      "findall": 6478,
      "Ġtuples": 6479,
      "foreign": 6480,
      "([[[": 6481,
      "Ġwriter": 6482,
      "ĠSelect": 6483,
      "media": 6484,
      "CACHE": 6485,
      "ĠResponse": 6486,
      "utilization": 6487,
      "Ġmigrations": 6488,
      "ponential": 6489,
      "41": 6490,
      "789": 6491,
      "AY": 6492,
      "Bam": 6493,
      "CF": 6494,
      "Java": 6495,
      "Mapping": 6496,
      "jc": 6497,
      "mq": 6498,
      "ob": 6499,
      "oked": 6500,
      "padding": 6501,
      "qa": 6502,
      "slot": 6503,
      "xf": 6504,
      "ĊĊĠĠĠĠĠĠĠĠĠĠĠĠĠĠĠĠĠĠĠ": 6505,
      "star": 6506,
      "deps": 6507,
      "deepcopy": 6508,
      "arr": 6509,
      "arrays": 6510,
      "Ġcryptography": 6511,
      "Ġfun": 6512,
      "Ġrelay": 6513,
      "Ġrecords": 6514,
      "Ġini": 6515,
      "Ġindic": 6516,
      "Ġeps": 6517,
      "Ġboto": 6518,
      "diffe": 6519,
      "Ġmk": 6520,
      "idset": 6521,
      "silon": 6522,
      "chrome": 6523,
      "Ġ\"|": 6524,
      "ĠAb": 6525,
      "ĠClient": 6526,
      "Ġexpect": 6527,
      "Ġgrid": 6528,
      "probe": 6529,
      "appings": 6530,
      "Ġproblem": 6531,
      "Ġparsing": 6532,
      "ĠModule": 6533,
      "ĠBSD": 6534,
      "quick": 6535,
      "background": 6536,
      "submit": 6537,
      "ASK": 6538,
      "CTRL": 6539,
      "before": 6540,
      "doctest": 6541,
      "Ġscan": 6542,
      "transaction": 6543,
      "Features": 6544,
      "Ġtables": 6545,
      "Ġimages": 6546,
      "OLD": 6547,
      "atterns": 6548,
      "Ġimg": 6549,
      "ĠPROVID": 6550,
      "Stack": 6551,
      "ĠMAX": 6552,
      "HITTEST": 6553,
      "etrieve": 6554,
      "\"%": 6555,
      "73": 6556,
      "Dest": 6557,
      "EE": 6558,
      "NULL": 6559,
      "PT": 6560,
      "PACE": 6561,
      "Sim": 6562,
      "ev": 6563,
      "gger": 6564,
      "multiplicity": 6565,
      "plit": 6566,
      "sur": 6567,
      "relative": 6568,
      "thumbnail": 6569,
      "threshold": 6570,
      "Ġcpu": 6571,
      "Ġnested": 6572,
      "Ġsqu": 6573,
      "Ġspa": 6574,
      "ctq": 6575,
      "rain": 6576,
      "ulls": 6577,
      "conver": 6578,
      "Ġansw": 6579,
      "lazy": 6580,
      "payment": 6581,
      "002": 6582,
      "ĠImp": 6583,
      "external": 6584,
      "fromString": 6585,
      "Ġproc": 6586,
      "Information": 6587,
      "GetItem": 6588,
      "previous": 6589,
      "ENCE": 6590,
      "Ġshown": 6591,
      "Ġshift": 6592,
      "Profile": 6593,
      "ĠInvalid": 6594,
      "DataRate": 6595,
      "ĠQU": 6596,
      "ĠXXX": 6597,
      "Ġleg": 6598,
      "Ġpytest": 6599,
      "Environment": 6600,
      "Ġgeneric": 6601,
      "CONNECT": 6602,
      "Ġminimum": 6603,
      "suffix": 6604,
      "SSL": 6605,
      "implicit": 6606,
      "atibility": 6607,
      "baz": 6608,
      "assertIsNot": 6609,
      "Ġscores": 6610,
      "Ġderived": 6611,
      "Extension": 6612,
      "SUPERUSER": 6613,
      "Ġcopies": 6614,
      "ĠDAMAGES": 6615,
      "Cre": 6616,
      "IA": 6617,
      "SU": 6618,
      "SY": 6619,
      "Save": 6620,
      "Spacing": 6621,
      "github": 6622,
      "power": 6623,
      "warnings": 6624,
      "Ġ//": 6625,
      "inherits": 6626,
      "reload": 6627,
      "tell": 6628,
      "orge": 6629,
      "dele": 6630,
      "determine": 6631,
      "attendee": 6632,
      "Ġthings": 6633,
      "Ġrelevant": 6634,
      "Ġpickle": 6635,
      "Ġtod": 6636,
      "lies": 6637,
      "locate": 6638,
      "rigin": 6639,
      "()):": 6640,
      "Ġdst": 6641,
      "ably": 6642,
      "ils": 6643,
      "romote": 6644,
      "Ġcontact": 6645,
      "mag": 6646,
      "ĠALL": 6647,
      "ĠCA": 6648,
      "ĠCode": 6649,
      "performance": 6650,
      "resol": 6651,
      "buddy": 6652,
      "ends": 6653,
      "Ġproperly": 6654,
      "tries": 6655,
      "spatch": 6656,
      "ĠEN": 6657,
      "tention": 6658,
      "ORY": 6659,
      "compare": 6660,
      "Ġconstraint": 6661,
      "Ġjava": 6662,
      "phrase": 6663,
      "999": 6664,
      "pipeline": 6665,
      "available": 6666,
      "Ġtargets": 6667,
      "Validation": 6668,
      "OPEN": 6669,
      "Ġimplemented": 6670,
      "PRESS": 6671,
      "Ġbuilder": 6672,
      "ĠNOTE": 6673,
      "Ġtraceback": 6674,
      "REQUIRED": 6675,
      "controller": 6676,
      "Ġcompletely": 6677,
      "ĠCONTRIBUTORS": 6678,
      "CREATE": 6679,
      "Ġmonth": 6680,
      "Ġindicates": 6681,
      "WINDO": 6682,
      "Ġliteral": 6683,
      "'')": 6684,
      "(',": 6685,
      "HA": 6686,
      "JOB": 6687,
      "LIN": 6688,
      "NING": 6689,
      "Plugin": 6690,
      "UST": 6691,
      "bee": 6692,
      "bank": 6693,
      "cla": 6694,
      "cpp": 6695,
      "city": 6696,
      "gits": 6697,
      "pickle": 6698,
      "scheduler": 6699,
      "scheme": 6700,
      "wid": 6701,
      "xd": 6702,
      "inux": 6703,
      "requires": 6704,
      "ĠĠĠĠĠĠĠĠĠĠĠĠĠĠ": 6705,
      "standard": 6706,
      "deli": 6707,
      "Ġctypes": 6708,
      "ater": 6709,
      "Ġbits": 6710,
      "utors": 6711,
      "()])": 6712,
      "Ġcons": 6713,
      "Ġhand": 6714,
      "ĠSimple": 6715,
      "ĠSphinx": 6716,
      "Ġasync": 6717,
      "ĠAC": 6718,
      "paragraph": 6719,
      "Ġexternal": 6720,
      "formed": 6721,
      "ĠPath": 6722,
      "ĠDATA": 6723,
      "share": 6724,
      "ĠMS": 6725,
      "ĠMARK": 6726,
      "Ġym": 6727,
      "screen": 6728,
      "Ġlu": 6729,
      "prepare": 6730,
      "ĠBad": 6731,
      "acl": 6732,
      "Ġalpha": 6733,
      "readline": 6734,
      "Ġprecision": 6735,
      "Ġcomponents": 6736,
      "Ġmapreduce": 6737,
      "ABEL": 6738,
      "constraint": 6739,
      "[:],": 6740,
      "POINT": 6741,
      "regate": 6742,
      "ĠINCLUDING": 6743,
      "Ġ2014": 6744,
      "Ġextract": 6745,
      "Ġregular": 6746,
      "Ġchoice": 6747,
      "ggregate": 6748,
      "('/')": 6749,
      "scorer": 6750,
      "allowed": 6751,
      "Ġrepresentation": 6752,
      "closed": 6753,
      "Children": 6754,
      "DATETIME": 6755,
      "pairs": 6756,
      "Ġcert": 6757,
      "Ġdays": 6758,
      "builtin": 6759,
      ">`": 6760,
      "My": 6761,
      "Scope": 6762,
      "You": 6763,
      "jor": 6764,
      "maries": 6765,
      "vv": 6766,
      "ros": 6767,
      "Ġnative": 6768,
      "Ġtx": 6769,
      "inge": 6770,
      "serted": 6771,
      "lopen": 6772,
      "ĠeServiceReference": 6773,
      "Ġbouquet": 6774,
      "ĠmX": 6775,
      "rive": 6776,
      "ram": 6777,
      "ternative": 6778,
      "Ġdtypes": 6779,
      "setUp": 6780,
      "Ġstar": 6781,
      "ational": 6782,
      "ĠLink": 6783,
      "Ġ22": 6784,
      "ptables": 6785,
      "Ġprodu": 6786,
      "Insert": 6787,
      "stanti": 6788,
      "ĠEvent": 6789,
      "ĠElement": 6790,
      "LENG": 6791,
      "oston": 6792,
      "Ġtimedelta": 6793,
      "ĠInter": 6794,
      "TEGER": 6795,
      "Ġlisteners": 6796,
      "Ġurlparse": 6797,
      "ToMany": 6798,
      "LOCAL": 6799,
      "steps": 6800,
      "Ġlinks": 6801,
      "Ġregion": 6802,
      "Ġdirs": 6803,
      "mappers": 6804,
      "Ġgrd": 6805,
      "================================================================": 6806,
      "STATUS": 6807,
      "collectorContext": 6808,
      "ACKET": 6809,
      "SETT": 6810,
      "Ġgrad": 6811,
      "getCurrentSelection": 6812,
      "Ġstrip": 6813,
      "BASE": 6814,
      "EnableAsciiIpv": 6815,
      "orizontal": 6816,
      "lecule": 6817,
      "assertIsNotNone": 6818,
      "600": 6819,
      "BC": 6820,
      "Bool": 6821,
      "BLOCK": 6822,
      "aws": 6823,
      "came": 6824,
      "gy": 6825,
      "iv": 6826,
      "king": 6827,
      "ores": 6828,
      "pub": 6829,
      "rb": 6830,
      "rft": 6831,
      "xpath": 6832,
      "za": 6833,
      "sect": 6834,
      "revision": 6835,
      "storage": 6836,
      "Ġ=>": 6837,
      "alg": 6838,
      "also": 6839,
      "alarm": 6840,
      "Ġitr": 6841,
      "Ġiden": 6842,
      "Ġawait": 6843,
      "endian": 6844,
      "rot": 6845,
      "asure": 6846,
      "Ġreset": 6847,
      "ced": 6848,
      "Ġnor": 6849,
      "Ġnone": 6850,
      "Ġsamples": 6851,
      "Ġsolve": 6852,
      "lid": 6853,
      "une": 6854,
      "laime": 6855,
      "Ġstack": 6856,
      "))),": 6857,
      "Ġexamples": 6858,
      "ĠLa": 6859,
      "Ġdete": 6860,
      "Ġbest": 6861,
      "timedelta": 6862,
      "Ġprob": 6863,
      "Ġloaded": 6864,
      "agon": 6865,
      "Decoder": 6866,
      "Ġalign": 6867,
      "minutes": 6868,
      "validators": 6869,
      "okies": 6870,
      "\"]=": 6871,
      "APP": 6872,
      "Ġcomputed": 6873,
      "Ġcomm": 6874,
      "DELETE": 6875,
      "111": 6876,
      "Ġbucket": 6877,
      "AMPLE": 6878,
      "TextColour": 6879,
      "icki": 6880,
      "Ġcontainer": 6881,
      "Ġvisibility": 6882,
      "Ġsuite": 6883,
      "ObjectFactory": 6884,
      "Ġexecute": 6885,
      "Ġsomething": 6886,
      "Ġ\"\",": 6887,
      "xmlIf": 6888,
      "uffle": 6889,
      "Ġ(_(\"": 6890,
      "sensitive": 6891,
      "rontend": 6892,
      "Ġcreating": 6893,
      "Ġthreads": 6894,
      "migrations": 6895,
      "original": 6896,
      "Ġmatplotlib": 6897,
      "dimensions": 6898,
      "ĠCommand": 6899,
      "Ġdisclaime": 6900,
      "EmailSettings": 6901,
      "Ġcountry": 6902,
      "Ġ------------------------------------------------": 6903,
      "ĠEVENT": 6904,
      "CRIPT": 6905,
      "discussion": 6906,
      "Ġowner": 6907,
      "ultinomial": 6908,
      "LENGTH": 6909,
      "Ġdisclaimer": 6910,
      "Url": 6911,
      "bq": 6912,
      "cm": 6913,
      "final": 6914,
      "mysql": 6915,
      "rx": 6916,
      "uit": 6917,
      "ĊĊĠĠĠĠĠĠĠĠĠ": 6918,
      "ĠÐ": 6919,
      "Ġkw": 6920,
      "Ġ64": 6921,
      "ĠValidator": 6922,
      "ons": 6923,
      "des": 6924,
      "decoder": 6925,
      "degree": 6926,
      "Ġactions": 6927,
      "Ġrecur": 6928,
      "inger": 6929,
      "serialized": 6930,
      "Ġwlst": 6931,
      "raction": 6932,
      "ully": 6933,
      "ulary": 6934,
      "elb": 6935,
      "ĠSY": 6936,
      "003": 6937,
      "may": 6938,
      "])]": 6939,
      "Ġ23": 6940,
      "Ġdim": 6941,
      "INCLUDING": 6942,
      "GetTypeId": 6943,
      "ĠRen": 6944,
      "ĠRFC": 6945,
      "Ġlat": 6946,
      "Condition": 6947,
      "ĠBLOCK": 6948,
      "irtual": 6949,
      "compatible": 6950,
      "ANY": 6951,
      "rank": 6952,
      "titles": 6953,
      "Parameters": 6954,
      "ULLET": 6955,
      "DefaultValidator": 6956,
      "COMP": 6957,
      "ĠtearDown": 6958,
      "Unit": 6959,
      "HEADER": 6960,
      "]]],": 6961,
      "Ġcalls": 6962,
      "Addr": 6963,
      "Ġdocuments": 6964,
      "setuptools": 6965,
      "(?:": 6966,
      "Ġ${": 6967,
      "ĠĠĠĠĠĠĠĠĠĠĠĠĠĠĠĠĠĠĠĠĠĠĠĠĠ": 6968,
      "ĠSHALL": 6969,
      "Generator": 6970,
      "evolution": 6971,
      "John": 6972,
      "Ġgood": 6973,
      "ĠLIABLE": 6974,
      "bius": 6975,
      "ocabulary": 6976,
      "mbstone": 6977,
      "Ġdependencies": 6978,
      "Ġwsfexv": 6979,
      "BackgroundColour": 6980,
      "Variant": 6981,
      "Ġanswer": 6982,
      ")})": 6983,
      ",\\": 6984,
      "400": 6985,
      "DIRECT": 6986,
      "NOT": 6987,
      "Store": 6988,
      "Transport": 6989,
      "UFF": 6990,
      "air": 6991,
      "lru": 6992,
      "ring": 6993,
      "sound": 6994,
      "tot": 6995,
      "increment": 6996,
      "rew": 6997,
      "Ġce": 6998,
      "Ġclick": 6999,
      "cedence": 7000,
      "Ġinstances": 7001,
      "cookie": 7002,
      "Ġmc": 7003,
      "(':": 7004,
      "construct": 7005,
      "ĠTry": 7006,
      "ĠTORT": 7007,
      "apt": 7008,
      "romium": 7009,
      "intain": 7010,
      "vec": 7011,
      "ĠAddress": 7012,
      "Ġexclude": 7013,
      "ĠLes": 7014,
      "Ġ21": 7015,
      "Ġdecoder": 7016,
      "addWidget": 7017,
      "INTEGER": 7018,
      "Ġprovider": 7019,
      "Initial": 7020,
      "boot": 7021,
      "codes": 7022,
      "START": 7023,
      "Deserialize": 7024,
      "ppet": 7025,
      "mapped": 7026,
      "umeri": 7027,
      "Ġnotifi": 7028,
      "ListBox": 7029,
      "127": 7030,
      "Ġcompute": 7031,
      "notify": 7032,
      "AddressValue": 7033,
      "based": 7034,
      "Ġexpressions": 7035,
      "URI": 7036,
      "Ġruns": 7037,
      "Ġcodecs": 7038,
      "ĠTests": 7039,
      "ISING": 7040,
      "Ġabstract": 7041,
      "Unable": 7042,
      "Nodes": 7043,
      "rawler": 7044,
      "operators": 7045,
      "Fail": 7046,
      "---\\": 7047,
      "ĠUnicode": 7048,
      "56789": 7049,
      "videos": 7050,
      "ToolBase": 7051,
      "Ġoptim": 7052,
      "Bytes": 7053,
      "disabled": 7054,
      "router": 7055,
      "Ġmappers": 7056,
      "ibri": 7057,
      "nippet": 7058,
      "period": 7059,
      "actual": 7060,
      "Collap": 7061,
      "MODE": 7062,
      "sqrt": 7063,
      "ĠOnly": 7064,
      "Calibri": 7065,
      "ĠCONTRACT": 7066,
      "followup": 7067,
      "ĠARISING": 7068,
      "Iteration": 7069,
      "ĠWHETHER": 7070,
      "ĠPROVIDED": 7071,
      ")*": 7072,
      "/.": 7073,
      "512": 7074,
      "Mod": 7075,
      "OFF": 7076,
      "Single": 7077,
      "bam": 7078,
      "ied": 7079,
      "kind": 7080,
      "Ġ?": 7081,
      "Ġur": 7082,
      "inte": 7083,
      "redirect": 7084,
      "Ġidentifi": 7085,
      "Ġfname": 7086,
      "Ġ(`": 7087,
      "loud": 7088,
      "Ġespeci": 7089,
      "Ġbitmap": 7090,
      "Ġutili": 7091,
      "getattr": 7092,
      "ĠSub": 7093,
      "Ġassign": 7094,
      "together": 7095,
      "Ġ28": 7096,
      "endant": 7097,
      "apple": 7098,
      "Ġproxy": 7099,
      "more": 7100,
      "ĠDoc": 7101,
      "ĠOver": 7102,
      "ALIGN": 7103,
      "ĠBitmap": 7104,
      "017": 7105,
      "ĠUp": 7106,
      "Ġpredicate": 7107,
      "ESIS": 7108,
      "Ġcompat": 7109,
      "Defn": 7110,
      "Ġface": 7111,
      "Ġinterfaces": 7112,
      "vely": 7113,
      "ĠConnection": 7114,
      "anks": 7115,
      "2012": 7116,
      "Policy": 7117,
      "Ġround": 7118,
      "Ġminutes": 7119,
      "Ġtemplates": 7120,
      "Tools": 7121,
      "Ġ'<<": 7122,
      "environment": 7123,
      "Ġincludes": 7124,
      "{}'.": 7125,
      "Ġviews": 7126,
      "aving": 7127,
      "metrics": 7128,
      "cloud": 7129,
      "traceback": 7130,
      "Ġcharacter": 7131,
      "Vertex": 7132,
      "ĠAdmin": 7133,
      "Ġprovides": 7134,
      "contains": 7135,
      "CHANGED": 7136,
      "isolate": 7137,
      "abstractmethod": 7138,
      "Ġidea": 7139,
      "UFFLED": 7140,
      "ĠLesser": 7141,
      "'+": 7142,
      "'m": 7143,
      "+',": 7144,
      "Bullet": 7145,
      "Qgs": 7146,
      "RU": 7147,
      "Sa": 7148,
      "Tuple": 7149,
      "WISE": 7150,
      "_=": 7151,
      "afile": 7152,
      "classification": 7153,
      "emit": 7154,
      "fm": 7155,
      "mX": 7156,
      "walk": 7157,
      "Ðµ": 7158,
      "inc": 7159,
      "rec": 7160,
      "Ġidentity": 7161,
      "Ġreader": 7162,
      "ues": 7163,
      "Ġsite": 7164,
      "Ġinspect": 7165,
      "lier": 7166,
      "chunk": 7167,
      "Ġdot": 7168,
      "amble": 7169,
      "Ġdeal": 7170,
      "timespan": 7171,
      "Ġvol": 7172,
      "ĠMPI": 7173,
      "ĠRandom": 7174,
      "ĠEL": 7175,
      "ĠEach": 7176,
      "Ġlarge": 7177,
      "predictions": 7178,
      "ĠWHERE": 7179,
      "REW": 7180,
      "LEX": 7181,
      "rappe": 7182,
      "ticular": 7183,
      "roots": 7184,
      "Ġpretty": 7185,
      "scribe": 7186,
      "members": 7187,
      "Paragraph": 7188,
      "splitlines": 7189,
      "ĠContent": 7190,
      "Ġ1024": 7191,
      "Ġformatted": 7192,
      "TagBuffer": 7193,
      "Common": 7194,
      "ggle": 7195,
      "Double": 7196,
      "Any": 7197,
      "Ġcredentials": 7198,
      "stallation": 7199,
      "Ġtrim": 7200,
      "sistent": 7201,
      "initializer": 7202,
      "Join": 7203,
      "EGIN": 7204,
      "specific": 7205,
      "dependencies": 7206,
      "blah": 7207,
      "AVG": 7208,
      "ToolBarBase": 7209,
      "Ġsupplied": 7210,
      "ijer": 7211,
      "ĠRedistributions": 7212,
      "SparseTensor": 7213,
      "KNOWN": 7214,
      "RoutingProtocol": 7215,
      "(.*": 7216,
      "<<": 7217,
      "Foo": 7218,
      "Fragment": 7219,
      "MQ": 7220,
      "Mail": 7221,
      "Null": 7222,
      "Nix": 7223,
      "Note": 7224,
      "PR": 7225,
      "ZZ": 7226,
      "bone": 7227,
      "cut": 7228,
      "game": 7229,
      "watch": 7230,
      "xer": 7231,
      "restart": 7232,
      "stime": 7233,
      "tis": 7234,
      "Ġaverage": 7235,
      "roken": 7236,
      "assets": 7237,
      "assistant": 7238,
      "atrix": 7239,
      "Ġrelease": 7240,
      "Ġincorrect": 7241,
      "Ġincoming": 7242,
      "ctransport": 7243,
      "Ġbig": 7244,
      "Ġmd": 7245,
      "----+": 7246,
      "geos": 7247,
      "004": 7248,
      "007": 7249,
      "ĠLook": 7250,
      "take": 7251,
      "Ġparticular": 7252,
      "scra": 7253,
      "Ġlru": 7254,
      "precation": 7255,
      "presence": 7256,
      "favor": 7257,
      "outh": 7258,
      "compress": 7259,
      "curve": 7260,
      "ĠHEB": 7261,
      "Ġ51": 7262,
      "Ġlaunch": 7263,
      "Ġbug": 7264,
      "Ġaccording": 7265,
      "php": 7266,
      "tables": 7267,
      "={}": 7268,
      "Ġvisible": 7269,
      "Ġreadonly": 7270,
      "catenate": 7271,
      "Ġvalidate": 7272,
      "nums": 7273,
      "swap": 7274,
      "Forward": 7275,
      "ObjectBase": 7276,
      "track": 7277,
      "Ġcalling": 7278,
      "THON": 7279,
      "Ġ'/'": 7280,
      "Ġauthentic": 7281,
      "handlers": 7282,
      "rouped": 7283,
      "LenFeature": 7284,
      "Ġdestination": 7285,
      "ĠProcess": 7286,
      "ĠIDs": 7287,
      "Ġwebpage": 7288,
      "EnablePcap": 7289,
      "ĠRadio": 7290,
      "Ġpipe": 7291,
      "ĠEXPRESS": 7292,
      "++++++++": 7293,
      "ĠLOG": 7294,
      "Ġdeleted": 7295,
      "requirements": 7296,
      "SOUR": 7297,
      "---------------------------------------------------------------------------": 7298,
      "jpg": 7299,
      "existing": 7300,
      "Ġfrozenset": 7301,
      "xmlIfExt": 7302,
      "Ġespecially": 7303,
      "NixVector": 7304,
      "ĠHEBREW": 7305,
      "(\"\"": 7306,
      "91": 7307,
      ":\",": 7308,
      "Atom": 7309,
      "BL": 7310,
      "DES": 7311,
      "Final": 7312,
      "IV": 7313,
      "JSON": 7314,
      "Migration": 7315,
      "NAM": 7316,
      "Post": 7317,
      "Queue": 7318,
      "Toggle": 7319,
      "Wkt": 7320,
      "[(": 7321,
      "fu": 7322,
      "ian": 7323,
      "mutable": 7324,
      "masked": 7325,
      "xl": 7326,
      "zed": 7327,
      "âĢ": 7328,
      "semb": 7329,
      "references": 7330,
      "ortion": 7331,
      "details": 7332,
      "alle": 7333,
      "titions": 7334,
      "Ġ'[": 7335,
      "Ġfit": 7336,
      "Ġnstime": 7337,
      "listeners": 7338,
      "Ġeq": 7339,
      "Ġday": 7340,
      "Ġuow": 7341,
      "],[": 7342,
      "Ġhar": 7343,
      "ĠSta": 7344,
      "=='": 7345,
      "ĠAUTH": 7346,
      "extras": 7347,
      "too": 7348,
      "ĠForeignKey": 7349,
      "Reader": 7350,
      "Represent": 7351,
      "ĠDjango": 7352,
      "ĠDIS": 7353,
      "Init": 7354,
      "ĠMode": 7355,
      "ĠMasked": 7356,
      "ctors": 7357,
      "Ġxrange": 7358,
      "ourse": 7359,
      "250": 7360,
      "REQ": 7361,
      "neighbors": 7362,
      "validator": 7363,
      "maps": 7364,
      "pendent": 7365,
      "strict": 7366,
      "APH": 7367,
      "Ġserial": 7368,
      "ordfast": 7369,
      "Ġ70": 7370,
      "errno": 7371,
      "Unknown": 7372,
      "category": 7373,
      "Ġworking": 7374,
      "matches": 7375,
      "ĠColour": 7376,
      "Ġduplicate": 7377,
      "seqs": 7378,
      "absolute": 7379,
      "disconnect": 7380,
      "Ġhashlib": 7381,
      "Ġimplement": 7382,
      "Ġphrases": 7383,
      "deredDict": 7384,
      "Ġpackages": 7385,
      "Ġthreading": 7386,
      "ĠMessage": 7387,
      "Ġintegration": 7388,
      "VARI": 7389,
      "AsciiTraceHelperForIpv": 7390,
      "Ġretrieve": 7391,
      "Ġconnections": 7392,
      "Ġscraped": 7393,
      "Ġrpctransport": 7394,
      "Ġdefinition": 7395,
      "#---------------------------------------------------------------------------": 7396,
      "'%": 7397,
      "'\")": 7398,
      ".])": 7399,
      "/\"": 7400,
      "Duration": 7401,
      "Language": 7402,
      "OO": 7403,
      "PAGE": 7404,
      "Uri": 7405,
      "alect": 7406,
      "hist": 7407,
      "jar": 7408,
      "kill": 7409,
      "rst": 7410,
      "uv": 7411,
      "vg": 7412,
      "det": 7413,
      "align": 7414,
      "Ġ'=',": 7415,
      "Ġslim": 7416,
      "Ġssl": 7417,
      "Ġinside": 7418,
      "lict": 7419,
      "ateway": 7420,
      "locale": 7421,
      "Ġev": 7422,
      "Ġ\"--": 7423,
      "ado": 7424,
      "getitem": 7425,
      "ssue": 7426,
      "contact": 7427,
      "ĠTool": 7428,
      "setCurrent": 7429,
      "006": 7430,
      "ĊĊĊĊ": 7431,
      "ĠAT": 7432,
      "parm": 7433,
      "Ġgdata": 7434,
      "Ġdescript": 7435,
      "Ġsequen": 7436,
      "Ġlow": 7437,
      "comments": 7438,
      "prev": 7439,
      "ocus": 7440,
      "irth": 7441,
      "compiled": 7442,
      "requests": 7443,
      "Properties": 7444,
      "ĠInitial": 7445,
      "Ġ['<": 7446,
      "returncode": 7447,
      "Ġfact": 7448,
      "Ġ{},": 7449,
      "ILTER": 7450,
      "ĠExample": 7451,
      "Ġmaps": 7452,
      "primi": 7453,
      "ĠPyControl": 7454,
      "servicePath": 7455,
      "Unicode": 7456,
      "Ġ'%(": 7457,
      "Ġformats": 7458,
      "overwrite": 7459,
      "Ġminimal": 7460,
      "Ġagent": 7461,
      "PECI": 7462,
      "suite": 7463,
      "Ġseealso": 7464,
      "Loop": 7465,
      "encoded": 7466,
      "Ġerrno": 7467,
      "Algorithm": 7468,
      "Ġsummary": 7469,
      "Ġcreation": 7470,
      "collectors": 7471,
      "sqlite": 7472,
      "federations": 7473,
      "cremental": 7474,
      "randint": 7475,
      "ManyToMany": 7476,
      "xxxxxxxxxxxxxxxx": 7477,
      "OUTPUT": 7478,
      "Ġspecifying": 7479,
      "Description": 7480,
      "Ġseparate": 7481,
      "Ġcolours": 7482,
      "Ġcalculate": 7483,
      "TCCR": 7484,
      "ĠOTHERWISE": 7485,
      "direction": 7486,
      "Slider": 7487,
      "veloper": 7488,
      "RESULT": 7489,
      ")|": 7490,
      "AIL": 7491,
      "CESS": 7492,
      "Cancel": 7493,
      "Flexible": 7494,
      "It": 7495,
      "NI": 7496,
      "PID": 7497,
      "Tab": 7498,
      "aw": 7499,
      "bang": 7500,
      "bits": 7501,
      "beta": 7502,
      "gf": 7503,
      "glish": 7504,
      "jump": 7505,
      "kit": 7506,
      "lad": 7507,
      "ply": 7508,
      "sho": 7509,
      "tc": 7510,
      "vrf": 7511,
      "ÑĤ": 7512,
      "ĠError": 7513,
      "inary": 7514,
      "records": 7515,
      "orld": 7516,
      "Ġ'\"": 7517,
      "Ġ''),": 7518,
      "roperly": 7519,
      "Ġfully": 7520,
      "Ġthing": 7521,
      "Ġrecipi": 7522,
      "Ġpb": 7523,
      "Ġna": 7524,
      "Ġsr": 7525,
      "serializ": 7526,
      "cove": 7527,
      "rivateKey": 7528,
      "cha": 7529,
      "chool": 7530,
      "Ġdue": 7531,
      "Ġdummy": 7532,
      "setO": 7533,
      "setEnabled": 7534,
      "laces": 7535,
      "maz": 7536,
      "ĠCR": 7537,
      "heap": 7538,
      "Ġ27": 7539,
      "proj": 7540,
      "ĠMulti": 7541,
      "Ġencoder": 7542,
      "Ġengine": 7543,
      "ITE": 7544,
      "RET": 7545,
      "READ": 7546,
      "Ġattendee": 7547,
      "acity": 7548,
      "ipd": 7549,
      "Fields": 7550,
      "ective": 7551,
      "Ġprevious": 7552,
      "Ġnoqa": 7553,
      "without": 7554,
      "CHAR": 7555,
      "StringIO": 7556,
      "Ġneutron": 7557,
      "235": 7558,
      "manual": 7559,
      "Ġimported": 7560,
      "capt": 7561,
      "ĠJava": 7562,
      "Ġgeom": 7563,
      "ADD": 7564,
      "QUERY": 7565,
      "3333": 7566,
      "servers": 7567,
      "Modules": 7568,
      "ĊĠĠĠĠĠĠĠĠĠĠĠĠĠĠĠĠĠĠĠĠĠĠĠĠĠĠĠĠĠĠĠĠĠĠĠĠĠĠĠĠĠĠĠĠĠĠĠĠĠĠ": 7569,
      "Ġpages": 7570,
      "invoice": 7571,
      "FromString": 7572,
      "Ġlanguages": 7573,
      "CSR": 7574,
      "Ġwhole": 7575,
      "ĠMovedModule": 7576,
      "stages": 7577,
      "METHO": 7578,
      "CII": 7579,
      "Ġoccurred": 7580,
      "Script": 7581,
      "ByteTagList": 7582,
      "HttpRequest": 7583,
      "ĠAndroid": 7584,
      "ĠACUTE": 7585,
      "FlexibleForeignKey": 7586,
      "\"})": 7587,
      "840": 7588,
      "Ali": 7589,
      "Clear": 7590,
      "Cannot": 7591,
      "Fixed": 7592,
      "LABEL": 7593,
      "Rect": 7594,
      "Tick": 7595,
      "WAR": 7596,
      "cx": 7597,
      "finish": 7598,
      "gge": 7599,
      "hier": 7600,
      "oom": 7601,
      "rfc": 7602,
      "should": 7603,
      "xD": 7604,
      "inations": 7605,
      "stit": 7606,
      "Ġidentifier": 7607,
      "Ġfs": 7608,
      "Ġfore": 7609,
      "ante": 7610,
      "coeff": 7611,
      "Ġed": 7612,
      "('#": 7613,
      "('.')": 7614,
      "Ġanaly": 7615,
      "Ġofc": 7616,
      "Ġcond": 7617,
      "Ġhistory": 7618,
      "ĠSparse": 7619,
      "))]": 7620,
      "005": 7621,
      "008": 7622,
      "ĠCO": 7623,
      "ĠLe": 7624,
      "Ġdecimal": 7625,
      "linux": 7626,
      "Ġseed": 7627,
      "Ġsecurity": 7628,
      "Required": 7629,
      "Redirect": 7630,
      "posix": 7631,
      "ĠDatabase": 7632,
      "Ġalbum": 7633,
      "ORInfo": 7634,
      "Ġresulting": 7635,
      "inity": 7636,
      "ENV": 7637,
      ">>':": 7638,
      "Ġtimer": 7639,
      "configuration": 7640,
      "refs": 7641,
      "Ġjc": 7642,
      "explicit": 7643,
      "ĠotherType": 7644,
      "ĠVi": 7645,
      "ĠVisual": 7646,
      "assertRaisesRegex": 7647,
      "signal": 7648,
      "Ġbasestring": 7649,
      "ĠaddOpt": 7650,
      "jectory": 7651,
      "Timeout": 7652,
      "Ġspecification": 7653,
      "Engine": 7654,
      "COUN": 7655,
      "copyright": 7656,
      "Ġroots": 7657,
      "natives": 7658,
      "2016": 7659,
      "Ġsuffix": 7660,
      "LOAD": 7661,
      "Ġ80": 7662,
      "samp": 7663,
      "switch": 7664,
      "Visible": 7665,
      "čĊčĊĠĠĠĠĠĠĠ": 7666,
      "ilities": 7667,
      "Ġmakes": 7668,
      "Ġoperators": 7669,
      "ighted": 7670,
      "Ġloading": 7671,
      "AttrName": 7672,
      "clar": 7673,
      "Ġdisabled": 7674,
      "ĠStop": 7675,
      "Ġtmpfile": 7676,
      "Struct": 7677,
      "metaclass": 7678,
      "Ġselectable": 7679,
      "ĠOptions": 7680,
      "ĠDEBUG": 7681,
      "clicked": 7682,
      "audio": 7683,
      "twisted": 7684,
      "mkdir": 7685,
      "WebDriver": 7686,
      "SAPMessage": 7687,
      "modified": 7688,
      "Ġblank": 7689,
      "ĠOtherwise": 7690,
      "Ġindicating": 7691,
      "ValidationError": 7692,
      "WINDOW": 7693,
      "setOORInfo": 7694,
      ")\")": 7695,
      "/')": 7696,
      ":\")": 7697,
      "AF": 7698,
      "AUT": 7699,
      "Big": 7700,
      "BULLET": 7701,
      "Cfg": 7702,
      "FLEX": 7703,
      "GROUP": 7704,
      "MASK": 7705,
      "SR": 7706,
      "SV": 7707,
      "Title": 7708,
      "Wrap": 7709,
      "Width": 7710,
      "band": 7711,
      "emon": 7712,
      "gl": 7713,
      "hblock": 7714,
      "mx": 7715,
      "ood": 7716,
      "plt": 7717,
      "sco": 7718,
      "yntax": 7719,
      "}]": 7720,
      "alControl": 7721,
      "tire": 7722,
      "Ġcenter": 7723,
      "enari": 7724,
      "Ġfig": 7725,
      "Ġfds": 7726,
      "Ġfixed": 7727,
      "anded": 7728,
      "Ġpick": 7729,
      "',)],": 7730,
      "unsigned": 7731,
      "Ġ(-": 7732,
      "Ġ(.": 7733,
      "Ġ\"#": 7734,
      "Ġ\"{": 7735,
      "Ġforward": 7736,
      "Ġtools": 7737,
      "Ġui": 7738,
      "getvalue": 7739,
      "Ġconstants": 7740,
      "Ġhs": 7741,
      "ĠSup": 7742,
      "ĠSome": 7743,
      "ĠStep": 7744,
      "ĠCIR": 7745,
      "ĠFont": 7746,
      "Ġgran": 7747,
      "prop": 7748,
      "ĠPlease": 7749,
      "Ġrespon": 7750,
      "icard": 7751,
      "mplex": 7752,
      "matmul": 7753,
      "Ġ>,": 7754,
      "Ġunknown": 7755,
      "comm": 7756,
      "angle": 7757,
      "ĠGREE": 7758,
      "ĠBasic": 7759,
      "urlparse": 7760,
      "latex": 7761,
      "SetValue": 7762,
      "luent": 7763,
      "luigi": 7764,
      "\"></": 7765,
      "Selenium": 7766,
      "processing": 7767,
      "ItemData": 7768,
      "Ġpermitted": 7769,
      "gistered": 7770,
      "IMUM": 7771,
      "ToString": 7772,
      "150": 7773,
      "latin": 7774,
      "credentials": 7775,
      "packet": 7776,
      "ĠGenerate": 7777,
      "ĠGeneric": 7778,
      "180": 7779,
      "Ġvals": 7780,
      "Ġrot": 7781,
      "Ġ2015": 7782,
      "ĠUnder": 7783,
      "Ġprocessing": 7784,
      "Ġaround": 7785,
      "general": 7786,
      "ragments": 7787,
      "Configured": 7788,
      "Ġlimits": 7789,
      "448": 7790,
      "Ġtokens": 7791,
      "assertAllClose": 7792,
      "MAIN": 7793,
      "windows": 7794,
      "cbte": 7795,
      "Level": 7796,
      "Ġstrict": 7797,
      "ficient": 7798,
      "Author": 7799,
      "special": 7800,
      "itespace": 7801,
      "=\"\",": 7802,
      "versal": 7803,
      "CUMFLEX": 7804,
      "ENSION": 7805,
      "MulticastRoute": 7806,
      "Ġrelationships": 7807,
      "beef": 7808,
      "roperlyConfigured": 7809,
      "ĠCIRCUMFLEX": 7810,
      "ĠGREEK": 7811,
      ".</": 7812,
      "224": 7813,
      ">&": 7814,
      "Free": 7815,
      "ILED": 7816,
      "Marg": 7817,
      "Multiple": 7818,
      "Retrieve": 7819,
      "UI": 7820,
      "XML": 7821,
      "Zero": 7822,
      "]=": 7823,
      "cleanup": 7824,
      "dst": 7825,
      "dummy": 7826,
      "grit": 7827,
      "pull": 7828,
      "runc": 7829,
      "sn": 7830,
      "slug": 7831,
      "slots": 7832,
      "tt": 7833,
      "Ġurls": 7834,
      "Ġquestion": 7835,
      "restore": 7836,
      "received": 7837,
      "tif": 7838,
      "tist": 7839,
      "ertificate": 7840,
      "Ġalert": 7841,
      "Ġcp": 7842,
      "Ġcwd": 7843,
      "entities": 7844,
      "Ġflatten": 7845,
      "Ġthree": 7846,
      "Ġpcap": 7847,
      "Ġpadding": 7848,
      "series": 7849,
      "utput": 7850,
      "sian": 7851,
      "Ġ[(\"": 7852,
      "ells": 7853,
      "Ġiso": 7854,
      "Ġstuff": 7855,
      "ĠSER": 7856,
      "Ġdecode": 7857,
      "Ġdesired": 7858,
      "ĠPa": 7859,
      "Ġseafile": 7860,
      "Ġ:=": 7861,
      "Include": 7862,
      "trip": 7863,
      "ATES": 7864,
      "Ġunless": 7865,
      "imports": 7866,
      "ĠEC": 7867,
      "prec": 7868,
      "ĠGdk": 7869,
      "acter": 7870,
      "outer": 7871,
      "layers": 7872,
      "joined": 7873,
      "Ġnothing": 7874,
      "UTF": 7875,
      "APDU": 7876,
      "ĠReg": 7877,
      "Ġconfigure": 7878,
      "202": 7879,
      "25519": 7880,
      "ENTIAL": 7881,
      "selectable": 7882,
      "Ġvalidation": 7883,
      "EVER": 7884,
      "---+": 7885,
      "sually": 7886,
      "blue": 7887,
      "books": 7888,
      "Headers": 7889,
      "iodic": 7890,
      "tabstop": 7891,
      "distinct": 7892,
      "plugins": 7893,
      "SERT": 7894,
      "ĠSHA": 7895,
      "Ġsuccessful": 7896,
      "todo": 7897,
      "Ġchoose": 7898,
      "deriv": 7899,
      "Modifi": 7900,
      "SCHEMA": 7901,
      "ĠVisualAttributes": 7902,
      "!!": 7903,
      "!'": 7904,
      "(.": 7905,
      "10000": 7906,
      "93": 7907,
      "BE": 7908,
      "BR": 7909,
      "Basic": 7910,
      "BEGIN": 7911,
      "Del": 7912,
      "DIM": 7913,
      "DIS": 7914,
      "Drag": 7915,
      "Effect": 7916,
      "Mon": 7917,
      "Match": 7918,
      "Na": 7919,
      "Op": 7920,
      "Temp": 7921,
      "bill": 7922,
      "blush": 7923,
      "gyp": 7924,
      "green": 7925,
      "iven": 7926,
      "ny": 7927,
      "tcp": 7928,
      "uation": 7929,
      "xcafe": 7930,
      "tio": 7931,
      "Ġflush": 7932,
      "Ġfrequency": 7933,
      "analog": 7934,
      "Ġreload": 7935,
      "urlopen": 7936,
      "Ġsig": 7937,
      "Ġindividual": 7938,
      "deflate": 7939,
      "Ġmultip": 7940,
      "riend": 7941,
      "ads": 7942,
      "isfile": 7943,
      "ĠSpeci": 7944,
      "Ġdigest": 7945,
      "Ġsem": 7946,
      "Ġcover": 7947,
      "izes": 7948,
      "Ġpartial": 7949,
      "cipd": 7950,
      "ĠWith": 7951,
      "RESS": 7952,
      "Ġradi": 7953,
      "Ġgets": 7954,
      "SetWindow": 7955,
      "ostream": 7956,
      "tains": 7957,
      "Security": 7958,
      "refresh": 7959,
      "checker": 7960,
      "Exit": 7961,
      "Ġcompiler": 7962,
      "Ġcompatible": 7963,
      "Ġshouldn": 7964,
      "Ġperf": 7965,
      "Ġconfigured": 7966,
      "imate": 7967,
      "Ġ\\\\": 7968,
      "itelist": 7969,
      "Ġinternal": 7970,
      "ĠExp": 7971,
      "ditor": 7972,
      "ĠConstruct": 7973,
      "ĠDelete": 7974,
      "ĠArgument": 7975,
      "Ġarange": 7976,
      "Ġarticle": 7977,
      "tmpdir": 7978,
      "brute": 7979,
      "Ġ'.'": 7980,
      "scripts": 7981,
      "queueContext": 7982,
      "Ġlooking": 7983,
      "supported": 7984,
      "Ġinitialize": 7985,
      "merge": 7986,
      "Runner": 7987,
      "Ġvarious": 7988,
      "Importer": 7989,
      "Ġsetuptools": 7990,
      "push": 7991,
      "ĠDict": 7992,
      "secondary": 7993,
      "sympy": 7994,
      "HelperForDevice": 7995,
      "Ġ#@-": 7996,
      "Ġclosed": 7997,
      "~~~~~~~~": 7998,
      "YPTO": 7999,
      "wiki": 8000,
      "cceed": 8001,
      "aterials": 8002,
      "Ġremaining": 8003,
      "uestion": 8004,
      "HAVE": 8005,
      "ingerprint": 8006,
      "VARIANT": 8007,
      "METHOD": 8008,
      "xcafecafe": 8009,
      "SetWindowVariant": 8010,
      "=[\"": 8011,
      ">\",": 8012,
      "BACK": 8013,
      "Dist": 8014,
      "DID": 8015,
      "Find": 8016,
      "GB": 8017,
      "GT": 8018,
      "Last": 8019,
      "Lib": 8020,
      "Needed": 8021,
      "Obj": 8022,
      "Place": 8023,
      "RST": 8024,
      "TV": 8025,
      "[::": 8026,
      "alert": 8027,
      "bg": 8028,
      "cen": 8029,
      "eu": 8030,
      "hi": 8031,
      "hinge": 8032,
      "lab": 8033,
      "nmap": 8034,
      "sage": 8035,
      "utive": 8036,
      "xF": 8037,
      "}',": 8038,
      "Ð¸": 8039,
      "alance": 8040,
      "Ġ'+": 8041,
      "Ġ''.": 8042,
      "encoder": 8043,
      "Ġscheme": 8044,
      "Ġscipy": 8045,
      "atever": 8046,
      "()).": 8047,
      "sited": 8048,
      "Ġ\":": 8049,
      "conne": 8050,
      "itude": 8051,
      "mations": 8052,
      "Ġexact": 8053,
      "extent": 8054,
      "(\"--": 8055,
      "ĠFe": 8056,
      "Ġgoogle": 8057,
      "forward": 8058,
      "Ġdistance": 8059,
      "proba": 8060,
      "processed": 8061,
      "Ġprod": 8062,
      "Inf": 8063,
      "Indent": 8064,
      "ĠMax": 8065,
      "scroll": 8066,
      "ĠRO": 8067,
      "Conf": 8068,
      "Cons": 8069,
      "ĠNa": 8070,
      "Debug": 8071,
      "reads": 8072,
      "structed": 8073,
      "SEQU": 8074,
      "formats": 8075,
      "checks": 8076,
      "Series": 8077,
      "Ġapplied": 8078,
      "archive": 8079,
      "Payload": 8080,
      "Ġbuff": 8081,
      "Env": 8082,
      "Ġpositive": 8083,
      "ĠTestCase": 8084,
      "abcd": 8085,
      "Ġmove": 8086,
      "EventImpl": 8087,
      "Ġrouter": 8088,
      "Ġprior": 8089,
      "Args": 8090,
      "lastservice": 8091,
      "pages": 8092,
      "Ġprefixlen": 8093,
      "Notifi": 8094,
      "Notify": 8095,
      "tmpl": 8096,
      "OPT": 8097,
      "Lookup": 8098,
      "Ġhandled": 8099,
      "Ġtraining": 8100,
      "website": 8101,
      "domains": 8102,
      "WORK": 8103,
      "assertIsNone": 8104,
      "Ġitertools": 8105,
      "loyee": 8106,
      "origin": 8107,
      "Changes": 8108,
      "Ġpipeline": 8109,
      "annotations": 8110,
      "ĠResult": 8111,
      "ĠService": 8112,
      "USED": 8113,
      "Ġrequirement": 8114,
      "Relative": 8115,
      "../../": 8116,
      "Methods": 8117,
      "CAPNG": 8118,
      "Ġconnected": 8119,
      "Ġpairs": 8120,
      "Ġstages": 8121,
      "Ġinstrument": 8122,
      "ĠMigrationWriter": 8123,
      "ĠAccount": 8124,
      "PositiveIntegerField": 8125,
      "Ġspawn": 8126,
      "Ġsequences": 8127,
      "ladder": 8128,
      "\"',": 8129,
      ")['": 8130,
      "71": 8131,
      "CV": 8132,
      "CENT": 8133,
      "LY": 8134,
      "Num": 8135,
      "ODE": 8136,
      "PES": 8137,
      "RX": 8138,
      "Ringo": 8139,
      "SIG": 8140,
      "SIM": 8141,
      "Yes": 8142,
      "YPE": 8143,
      "bd": 8144,
      "mium": 8145,
      "pas": 8146,
      "pur": 8147,
      "|\\": 8148,
      "Ð°": 8149,
      "Ġ=================================================================": 8150,
      "ality": 8151,
      "always": 8152,
      "means": 8153,
      "erature": 8154,
      "Ġct": 8155,
      "Ġcast": 8156,
      "Ġcsv": 8157,
      "roles": 8158,
      "Ġpack": 8159,
      "Ġtcp": 8160,
      "Ġintegral": 8161,
      "ctools": 8162,
      "cover": 8163,
      "coordinates": 8164,
      "loor": 8165,
      "disk": 8166,
      "cky": 8167,
      "Ġreturning": 8168,
      "islice": 8169,
      "Ġtower": 8170,
      "Ġhelper": 8171,
      "Ġhblock": 8172,
      "ĠCur": 8173,
      "quality": 8174,
      "perator": 8175,
      "ĠIssue": 8176,
      "ĠLanguage": 8177,
      "ĠFake": 8178,
      "Ġdicom": 8179,
      "nsors": 8180,
      "Ġcoordinates": 8181,
      "Ġprogress": 8182,
      "cion": 8183,
      "([^": 8184,
      "ATED": 8185,
      "ĠĠĠĠĠĠĠĠĠĠĠĠĠĠĠĠĠĠĠĠ": 8186,
      "ĠWhether": 8187,
      "ĠNode": 8188,
      "ĠBo": 8189,
      "STIT": 8190,
      "------------------------": 8191,
      "ĠUsing": 8192,
      "currency": 8193,
      "logy": 8194,
      "IDENT": 8195,
      "refine": 8196,
      "Ġjinja": 8197,
      "Dataset": 8198,
      "AttributeAccessor": 8199,
      "ĠQu": 8200,
      "posal": 8201,
      "URN": 8202,
      "priority": 8203,
      "ToOrder": 8204,
      "ĠControl": 8205,
      "Ġones": 8206,
      "Ġcontained": 8207,
      "Interval": 8208,
      "crash": 8209,
      "ĠYedit": 8210,
      "Ġvertex": 8211,
      "Ġordering": 8212,
      "Cursor": 8213,
      "accounts": 8214,
      "ĠformData": 8215,
      "ElementWrapper": 8216,
      "ragma": 8217,
      "makedirs": 8218,
      "ĠState": 8219,
      "Ġmanage": 8220,
      "featureType": 8221,
      "PickerBase": 8222,
      "Ġqueries": 8223,
      "Ġsyntax": 8224,
      "destination": 8225,
      "LDP": 8226,
      "locations": 8227,
      "initialize": 8228,
      "Ġwrapped": 8229,
      "tivation": 8230,
      "Ġpolymorphic": 8231,
      "beatles": 8232,
      "Ġirq": 8233,
      "Ġeverything": 8234,
      "containers": 8235,
      "mbstones": 8236,
      "protected": 8237,
      "ĠMapper": 8238,
      "PKG": 8239,
      "TeX": 8240,
      "TraceSourceAccessor": 8241,
      "NAMES": 8242,
      "ManyToManyField": 8243,
      "ĠSERV": 8244,
      "ToOrderMap": 8245,
      "#@": 8246,
      ",%": 8247,
      ":',": 8248,
      ">=": 8249,
      "Click": 8250,
      "Cbte": 8251,
      "EMPL": 8252,
      "HD": 8253,
      "Home": 8254,
      "LP": 8255,
      "Non": 8256,
      "Over": 8257,
      "Pane": 8258,
      "TB": 8259,
      "TAR": 8260,
      "Ttl": 8261,
      "Wizard": 8262,
      "cant": 8263,
      "criterion": 8264,
      "dmp": 8265,
      "dtypes": 8266,
      "nr": 8267,
      "rsa": 8268,
      "wal": 8269,
      "xE": 8270,
      "zmat": 8271,
      "Ã¡": 8272,
      "seen": 8273,
      "alth": 8274,
      "arked": 8275,
      "Ġamount": 8276,
      "ensure": 8277,
      "rol": 8278,
      "Ġfragment": 8279,
      "asis": 8280,
      "ani": 8281,
      "Ġrestri": 8282,
      "Ġpragma": 8283,
      "Ġsid": 8284,
      "Ġta": 8285,
      "Ġtail": 8286,
      "Ġinst": 8287,
      "Ġ(__": 8288,
      "Ġevol": 8289,
      "Ġbroadcast": 8290,
      "Ġms": 8291,
      "utdown": 8292,
      "Ġdd": 8293,
      "___": 8294,
      "pared": 8295,
      "Ġhour": 8296,
      "Ġhidden": 8297,
      "ĠCan": 8298,
      "Ġexclu": 8299,
      "ĠImage": 8300,
      "Ġ256": 8301,
      "ĠFind": 8302,
      "Ġgit": 8303,
      "Ġgather": 8304,
      "yson": 8305,
      "poch": 8306,
      "posed": 8307,
      "Ġproduce": 8308,
      "ĠDSA": 8309,
      "Ġmet": 8310,
      "GetValue": 8311,
      "shell": 8312,
      "cio": 8313,
      "=====": 8314,
      "Ġfilesystem": 8315,
      "lying": 8316,
      "Ġentire": 8317,
      "bob": 8318,
      "ĠEmpty": 8319,
      "pytest": 8320,
      "ĠNNTP": 8321,
      "acle": 8322,
      "intercept": 8323,
      "Ġsha": 8324,
      "Ġprevent": 8325,
      "Producer": 8326,
      "ĠInsert": 8327,
      "ongo": 8328,
      "configured": 8329,
      "Expected": 8330,
      "maxsize": 8331,
      "ListView": 8332,
      "Services": 8333,
      "reporter": 8334,
      "DEX": 8335,
      "Paul": 8336,
      "Ġ{}\".": 8337,
      "Ġupgrade": 8338,
      "itecture": 8339,
      "Encoding": 8340,
      "=[[": 8341,
      "ĠExec": 8342,
      "Ġgive": 8343,
      "execution": 8344,
      "2001": 8345,
      "Memory": 8346,
      "datum": 8347,
      "Ġimporter": 8348,
      "region": 8349,
      "ObjectPermission": 8350,
      "Video": 8351,
      "Ġ2010": 8352,
      "Ġblacklist": 8353,
      "hazmat": 8354,
      "Ġstaticmethod": 8355,
      "projects": 8356,
      "MAIL": 8357,
      "Ġcause": 8358,
      "Ġquote": 8359,
      "Application": 8360,
      "nonzero": 8361,
      "Ġ$(": 8362,
      "smart": 8363,
      "privatekey": 8364,
      "VALUE": 8365,
      "GRAPH": 8366,
      "Success": 8367,
      "scanner": 8368,
      "ĠTensorFlow": 8369,
      "uniform": 8370,
      "IpL": 8371,
      "ĠIndexError": 8372,
      "bonds": 8373,
      "ĠAMI": 8374,
      "Ġcontributors": 8375,
      "OLDERS": 8376,
      "ĠImproperlyConfigured": 8377,
      "Ġluigi": 8378,
      "ĠLaTeX": 8379,
      "ĠUpdate": 8380,
      "ggered": 8381,
      "/<": 8382,
      ":-": 8383,
      ";</": 8384,
      "Custom": 8385,
      "Hi": 8386,
      "KnownHostsFile": 8387,
      "Mac": 8388,
      "Marker": 8389,
      "Sum": 8390,
      "bed": 8391,
      "cnt": 8392,
      "gpkg": 8393,
      "ham": 8394,
      "mf": 8395,
      "mut": 8396,
      "nulls": 8397,
      "ptime": 8398,
      "pdf": 8399,
      "uate": 8400,
      "vid": 8401,
      "}\"": 8402,
      "Â§": 8403,
      "čĊĠ": 8404,
      "Ġvirtual": 8405,
      "seu": 8406,
      "sess": 8407,
      "instru": 8408,
      "repos": 8409,
      "Ġ'(": 8410,
      "rola": 8411,
      "ropy": 8412,
      "asarray": 8413,
      "ura": 8414,
      "Ġscheduler": 8415,
      "Ġts": 8416,
      "life": 8417,
      "serial": 8418,
      "come": 8419,
      "Ġemit": 8420,
      "ulk": 8421,
      "geom": 8422,
      "abilities": 8423,
      "getFeatures": 8424,
      "ĊĊĊĠ": 8425,
      "hebang": 8426,
      "ĠFirst": 8427,
      "ĠFortran": 8428,
      "Ġresol": 8429,
      "Ġresolve": 8430,
      "']]": 8431,
      "Ġrval": 8432,
      "INVALID": 8433,
      "ĠDon": 8434,
      "GetFont": 8435,
      "colors": 8436,
      "licated": 8437,
      "Ġenter": 8438,
      "Ġenough": 8439,
      "ĠRE": 8440,
      "Ġmade": 8441,
      "pretty": 8442,
      "ĠWSG": 8443,
      "ĠBoolean": 8444,
      "254": 8445,
      "RED": 8446,
      "agrola": 8447,
      "ĠThey": 8448,
      "ildcard": 8449,
      "Ġ44": 8450,
      "Ġcancel": 8451,
      "ICES": 8452,
      "Selector": 8453,
      "Ġklass": 8454,
      "Ġfavor": 8455,
      "Ġperform": 8456,
      "=[(": 8457,
      "Ġpointer": 8458,
      "Ġpolicy": 8459,
      "TRA": 8460,
      "pipe": 8461,
      "Ġabsent": 8462,
      "Ġzer": 8463,
      "={\"": 8464,
      "Ġready": 8465,
      "Ġvery": 8466,
      "HOME": 8467,
      "LOW": 8468,
      "ĠDeferred": 8469,
      "corded": 8470,
      "ĠComb": 8471,
      "Build": 8472,
      "SPACE": 8473,
      "herited": 8474,
      "Ġcharge": 8475,
      "Ġ[[[": 8476,
      "CallbackImpl": 8477,
      "Ġ2006": 8478,
      "ĊĠĠĠĠĠĠĠĠĠĠĠĠĠĠĠĠĠĠĠĠĠĠĠĠĠĠĠĠĠĠĠĠĠĠĠĠĠĠĠĠĠĠĠĠĠĠĠ": 8479,
      "Short": 8480,
      "Does": 8481,
      "Ġkeepdims": 8482,
      "Ġplaceholder": 8483,
      "Location": 8484,
      "AndReturn": 8485,
      "Download": 8486,
      "black": 8487,
      "Ġ#@+": 8488,
      "Abstract": 8489,
      "ubeconfig": 8490,
      "truncated": 8491,
      "SpinCtrl": 8492,
      "DVB": 8493,
      "Ġsmall": 8494,
      "chooser": 8495,
      "Ġattempt": 8496,
      "yperlink": 8497,
      "ĠAbstract": 8498,
      "ĠMAXIMUM": 8499,
      "DIMENSION": 8500,
      "ĠWSGI": 8501,
      "agrolait": 8502,
      "CallbackImplBase": 8503,
      "'ll": 8504,
      "'').": 8505,
      ".\",": 8506,
      "Call": 8507,
      "Flask": 8508,
      "NN": 8509,
      "Public": 8510,
      "WR": 8511,
      "])))": 8512,
      "cles": 8513,
      "gres": 8514,
      "hb": 8515,
      "identifier": 8516,
      "kip": 8517,
      "multip": 8518,
      "numpy": 8519,
      "ole": 8520,
      "pred": 8521,
      "player": 8522,
      "pigs": 8523,
      "smap": 8524,
      "srid": 8525,
      "yy": 8526,
      "zes": 8527,
      "}:": 8528,
      "Ð½": 8529,
      "Ñģ": 8530,
      "ĊĊĠĠĠĠĠĠ": 8531,
      "Ġls": 8532,
      "ĠValue": 8533,
      "integr": 8534,
      "inventory": 8535,
      "ords": 8536,
      "tifact": 8537,
      "Ġcla": 8538,
      "Ġpyspark": 8539,
      "urlen": 8540,
      "Ġsyn": 8541,
      "Ġ(?": 8542,
      "ditable": 8543,
      "dictionary": 8544,
      "Ġwon": 8545,
      "ribu": 8546,
      "ĠTe": 8547,
      "Ġ\"\"\",": 8548,
      "ĠSU": 8549,
      "exe": 8550,
      "uber": 8551,
      "ĠFa": 8552,
      "processes": 8553,
      "proxies": 8554,
      "Ġsecret": 8555,
      "\")],": 8556,
      "GetN": 8557,
      "shard": 8558,
      "ĠOne": 8559,
      "Ġuni": 8560,
      "Ġundefined": 8561,
      "ĠES": 8562,
      "ALF": 8563,
      "Construction": 8564,
      "ĠNull": 8565,
      "Ġatta": 8566,
      "01234": 8567,
      "working": 8568,
      "compose": 8569,
      "compressed": 8570,
      "readInt": 8571,
      "Ġprepare": 8572,
      "Prop": 8573,
      "Ġsubdir": 8574,
      "Ġservices": 8575,
      "Ġapps": 8576,
      "Ġcomponent": 8577,
      "DataSource": 8578,
      "rants": 8579,
      "ĠRead": 8580,
      "Ġerrorline": 8581,
      "Timespan": 8582,
      "Ġspecifies": 8583,
      "Enter": 8584,
      "=[]": 8585,
      "filled": 8586,
      "ALLOW": 8587,
      "oose": 8588,
      "Ġfederation": 8589,
      "2000": 8590,
      "Ġreads": 8591,
      "dating": 8592,
      "gories": 8593,
      "Ġoverwrite": 8594,
      "Factor": 8595,
      "DOWN": 8596,
      "QUAL": 8597,
      "DatePickerCtrl": 8598,
      "Buil": 8599,
      "brary": 8600,
      "Assign": 8601,
      "ĠwxEVT": 8602,
      "Ġregistration": 8603,
      "Ġchars": 8604,
      "TYPES": 8605,
      "Ġblocks": 8606,
      "AREN": 8607,
      "Ġlatest": 8608,
      "Ġautoincrement": 8609,
      "George": 8610,
      "Ġdeploy": 8611,
      "ĠAnsibleModule": 8612,
      "Ġdebugging": 8613,
      "Ġbuilt": 8614,
      "ĠSIGNAL": 8615,
      "DirCtrl": 8616,
      "Ġwraps": 8617,
      "Ġepisode": 8618,
      "********************************": 8619,
      "namedtuple": 8620,
      "ArgumentError": 8621,
      "frog": 8622,
      "Ġterminal": 8623,
      "SKIP": 8624,
      "Ġnormally": 8625,
      "ulos": 8626,
      "ĠMarkup": 8627,
      "difference": 8628,
      "clauses": 8629,
      "ĠRender": 8630,
      "primitives": 8631,
      "seudo": 8632,
      "&'": 8633,
      "-+": 8634,
      ":],": 8635,
      "AK": 8636,
      "Hidden": 8637,
      "IEN": 8638,
      "LF": 8639,
      "Long": 8640,
      "Listen": 8641,
      "MAP": 8642,
      "YY": 8643,
      "[%": 8644,
      "best": 8645,
      "dash": 8646,
      "eg": 8647,
      "hBaseReg": 8648,
      "iet": 8649,
      "pinv": 8650,
      "plus": 8651,
      "sam": 8652,
      "uent": 8653,
      "vfb": 8654,
      "zz": 8655,
      "Äĩ": 8656,
      "inted": 8657,
      "describe": 8658,
      "mesh": 8659,
      "arded": 8660,
      "tivate": 8661,
      "erge": 8662,
      "Ġable": 8663,
      "Ġcm": 8664,
      "Ġcross": 8665,
      "Ġrequested": 8666,
      "Ġplain": 8667,
      "Ġpush": 8668,
      "Ġsimp": 8669,
      "define": 8670,
      "cogn": 8671,
      "Ġeasy": 8672,
      "raft": 8673,
      "chan": 8674,
      "abort": 8675,
      "confirm": 8676,
      "getInstance": 8677,
      "Ġconfir": 8678,
      "Ġhaving": 8679,
      "ĠStr": 8680,
      "ĠSalt": 8681,
      "vie": 8682,
      "ĠACTION": 8683,
      "parameter": 8684,
      "ĠChoice": 8685,
      "Ġ*=": 8686,
      "entropy": 8687,
      "exer": 8688,
      "strong": 8689,
      "=\"/": 8690,
      "Ġgateway": 8691,
      "Ġdescri": 8692,
      "Ġdid": 8693,
      "Ġdialog": 8694,
      "Ġdiagon": 8695,
      "timezone": 8696,
      "Ġ{{": 8697,
      "Rec": 8698,
      "Restart": 8699,
      "Register": 8700,
      "ĠDIA": 8701,
      "GetTool": 8702,
      "ĠMin": 8703,
      "ĠMay": 8704,
      "([],": 8705,
      "ĠOutput": 8706,
      "ĠWrite": 8707,
      "ĠWorld": 8708,
      "ĠNew": 8709,
      "ĠNEG": 8710,
      "tential": 8711,
      "ValueConstraint": 8712,
      "ticles": 8713,
      "SetFont": 8714,
      "netes": 8715,
      "undle": 8716,
      "quiet": 8717,
      "ĠHow": 8718,
      "ĠHOLDERS": 8719,
      "Ġtimezone": 8720,
      "IDD": 8721,
      "IDS": 8722,
      "ĊĠĠĠĠĠĠĠĠĠĠĠĠĠĠĠĠĠĠĠĠĠĠĠĠĠĠĠĠĠĠĠĠĠĠĠĠĠĠĠĠĠ": 8723,
      "Ġlogic": 8724,
      "Ġcurve": 8725,
      "120": 8726,
      "Ġcompatibility": 8727,
      "Ġkernel": 8728,
      "Ġjs": 8729,
      "FileCtrl": 8730,
      "DataBlock": 8731,
      "Ġexpand": 8732,
      "'))),": 8733,
      "Ġanything": 8734,
      "ToOne": 8735,
      "Ġnever": 8736,
      "Ġmoves": 8737,
      "Ġstarting": 8738,
      "Ġmaybe": 8739,
      "translation": 8740,
      "ymPy": 8741,
      "Ġ2011": 8742,
      "Ġ2016": 8743,
      "corator": 8744,
      "certs": 8745,
      "levels": 8746,
      "TODO": 8747,
      "Ansible": 8748,
      "Ġassume": 8749,
      "Ġquoted": 8750,
      "PcapHelperForIpv": 8751,
      "Active": 8752,
      "hdr": 8753,
      "Transformer": 8754,
      "Collector": 8755,
      "stubs": 8756,
      "Ġinvoked": 8757,
      "specified": 8758,
      "ĠDateTime": 8759,
      "deadbeef": 8760,
      "Ġrepeat": 8761,
      "PARAMS": 8762,
      "ĠBuild": 8763,
      "ĠVerify": 8764,
      "radient": 8765,
      "ĠNetwork": 8766,
      "aggregates": 8767,
      "cepted": 8768,
      "Ġdetermined": 8769,
      "ĠEND": 8770,
      "LINK": 8771,
      "SETTING": 8772,
      "Ġutility": 8773,
      "SOURCE": 8774,
      "ubernetes": 8775,
      "\"},": 8776,
      "+\"": 8777,
      "300": 8778,
      "989": 8779,
      ":.": 8780,
      ";\",": 8781,
      "Bit": 8782,
      "CALL": 8783,
      "DY": 8784,
      "DWORD": 8785,
      "MARK": 8786,
      "OIP": 8787,
      "Sys": 8788,
      "TON": 8789,
      "Virtual": 8790,
      "aut": 8791,
      "alendar": 8792,
      "bz": 8793,
      "border": 8794,
      "cross": 8795,
      "gent": 8796,
      "middleware": 8797,
      "nl": 8798,
      "nx": 8799,
      "pids": 8800,
      "patterns": 8801,
      "rd": 8802,
      "sin": 8803,
      "squ": 8804,
      "udio": 8805,
      "xB": 8806,
      "zure": 8807,
      "rename": 8808,
      "ony": 8809,
      "that": 8810,
      "erk": 8811,
      "Ġ'|": 8812,
      "Ġcb": 8813,
      "asource": 8814,
      "Ġrevision": 8815,
      "Ġscale": 8816,
      "Ġturn": 8817,
      "coordinate": 8818,
      "cookies": 8819,
      "dispatch": 8820,
      "Ġmaster": 8821,
      "ravel": 8822,
      "sib": 8823,
      "')(": 8824,
      "ĠTarget": 8825,
      "opro": 8826,
      "getRequest": 8827,
      "getcwd": 8828,
      "ĠSo": 8829,
      "\",),": 8830,
      "touch": 8831,
      "Ġdelay": 8832,
      "Ġdiv": 8833,
      "ĠPi": 8834,
      "ĠPopen": 8835,
      "ERESIS": 8836,
      "Ġvm": 8837,
      "([-": 8838,
      "ĠObject": 8839,
      "ĠOperation": 8840,
      "bounded": 8841,
      "Ġmaintain": 8842,
      "Ġ35": 8843,
      "Convert": 8844,
      "tended": 8845,
      "codecs": 8846,
      "acteri": 8847,
      "Ġalarm": 8848,
      "Ġrather": 8849,
      "ARCH": 8850,
      "ĠUSA": 8851,
      "Ġ48": 8852,
      "curr": 8853,
      "dbc": 8854,
      "calc": 8855,
      "ograph": 8856,
      "subclass": 8857,
      "ĠHALF": 8858,
      "Separ": 8859,
      "Ġclassmethod": 8860,
      "newline": 8861,
      "UTTON": 8862,
      "Ġ59": 8863,
      "Ġserialize": 8864,
      "note": 8865,
      "reply": 8866,
      "113": 8867,
      "Ġchecker": 8868,
      "ĠQuestion": 8869,
      "Ġ{}'.": 8870,
      "phas": 8871,
      "Ġmatched": 8872,
      "credit": 8873,
      "Ġtell": 8874,
      "Ġvim": 8875,
      "foobar": 8876,
      "Ġpriority": 8877,
      "Groups": 8878,
      "ByName": 8879,
      "Ġregard": 8880,
      "Ġspan": 8881,
      "failUnless": 8882,
      "UBSTIT": 8883,
      "Ġskb": 8884,
      "CLA": 8885,
      "ĠEnvironment": 8886,
      "Ġinitialized": 8887,
      "Ġrepresents": 8888,
      "transponder": 8889,
      "destroy": 8890,
      "Ġreplacement": 8891,
      "PARATOR": 8892,
      "Ġbuttons": 8893,
      "ĠDomain": 8894,
      "ĠIsA": 8895,
      "Ġderivative": 8896,
      "META": 8897,
      "syntax": 8898,
      "Expression": 8899,
      "dependence": 8900,
      "ĠDefaults": 8901,
      "Ġhigher": 8902,
      "Ġprofilee": 8903,
      "COLOR": 8904,
      "legacy": 8905,
      "hours": 8906,
      "PECIAL": 8907,
      "scores": 8908,
      "0123456789": 8909,
      "ĠDIAERESIS": 8910,
      "->": 8911,
      "/$',": 8912,
      "=')": 8913,
      ">%": 8914,
      "?\\": 8915,
      "Aggregate": 8916,
      "BER": 8917,
      "FROM": 8918,
      "Handle": 8919,
      "LT": 8920,
      "Lost": 8921,
      "Math": 8922,
      "Pack": 8923,
      "UUID": 8924,
      "[]'": 8925,
      "ai": 8926,
      "ales": 8927,
      "broadcast": 8928,
      "cseq": 8929,
      "dce": 8930,
      "gu": 8931,
      "gui": 8932,
      "lan": 8933,
      "pow": 8934,
      "rport": 8935,
      "sint": 8936,
      "sink": 8937,
      "sfixed": 8938,
      "tun": 8939,
      "xC": 8940,
      "Ġ^": 8941,
      "inline": 8942,
      "tection": 8943,
      "Ġcity": 8944,
      "Ġfc": 8945,
      "Ġforeign": 8946,
      "atal": 8947,
      "Ġthumbnail": 8948,
      "ances": 8949,
      "Ġpending": 8950,
      "Ġpixel": 8951,
      "Ġsleep": 8952,
      "Ġtries": 8953,
      "Ġ#~": 8954,
      "cool": 8955,
      "Ġeffect": 8956,
      "Ġmis": 8957,
      "sites": 8958,
      "chron": 8959,
      "elapsed": 8960,
      "Ġduration": 8961,
      "Ġdldp": 8962,
      "isValid": 8963,
      "Ġannot": 8964,
      "optim": 8965,
      "setattr": 8966,
      "Ġconversion": 8967,
      "ĠShould": 8968,
      "via": 8969,
      "vey": 8970,
      "(\"_": 8971,
      "Ġtestconn": 8972,
      "strptime": 8973,
      "fileno": 8974,
      "Ġcookie": 8975,
      "icmp": 8976,
      "ised": 8977,
      "'),)\",": 8978,
      "Inner": 8979,
      "GetMax": 8980,
      "scp": 8981,
      "Ġ```": 8982,
      "trols": 8983,
      "ourier": 8984,
      "ĠWh": 8985,
      "ĠWordfast": 8986,
      "Connect": 8987,
      "ĠBoston": 8988,
      "aggr": 8989,
      "STR": 8990,
      "accum": 8991,
      "mapreduce": 8992,
      "caller": 8993,
      "Ġcolors": 8994,
      "Ġcollector": 8995,
      "Ġcandi": 8996,
      "ĠHost": 8997,
      "ĠHash": 8998,
      "\"]),": 8999,
      "IDs": 9000,
      "AddressHelper": 9001,
      "DEV": 9002,
      "phi": 9003,
      "ROP": 9004,
      "possible": 9005,
      "Ġintern": 9006,
      "responses": 9007,
      "Ġdocstring": 9008,
      "159": 9009,
      "pie": 9010,
      "blocks": 9011,
      "arest": 9012,
      "connector": 9013,
      "Face": 9014,
      "Feed": 9015,
      "ĠArray": 9016,
      "ĠCONNECT": 9017,
      "layername": 9018,
      "ragged": 9019,
      "realm": 9020,
      "ĠSequence": 9021,
      "ImageList": 9022,
      "Ġrepository": 9023,
      "Geo": 9024,
      "Ġspeed": 9025,
      "bindparam": 9026,
      "cisionTree": 9027,
      "Ġmarkup": 9028,
      "ĠQtCore": 9029,
      "LocalName": 9030,
      "StyleName": 9031,
      "Begin": 9032,
      "ToolBarToolBase": 9033,
      "ĠPOST": 9034,
      "Ġexplicitly": 9035,
      "Trailer": 9036,
      "Ġconverted": 9037,
      "normalize": 9038,
      "Ċĉĉĉĉĉĉĉĉĉ": 9039,
      "Ġglobals": 9040,
      "Limit": 9041,
      "Ġconsidered": 9042,
      "HASH": 9043,
      "Ġbuiltins": 9044,
      "Ġhomeassistant": 9045,
      "Ġsqlite": 9046,
      "Ġcfutil": 9047,
      "Ġtransponder": 9048,
      "Ġserializers": 9049,
      "BamStats": 9050,
      "deleted": 9051,
      "ĠStatic": 9052,
      "mazon": 9053,
      "assertRaisesRegexp": 9054,
      "YPTOGRAPH": 9055,
      "Ġtaken": 9056,
      "YPTOGRAPHY": 9057,
      "'(": 9058,
      "/(?": 9059,
      "232": 9060,
      ":'": 9061,
      ":</": 9062,
      "=('": 9063,
      "BUTTON": 9064,
      "Can": 9065,
      "DC": 9066,
      "DD": 9067,
      "Dat": 9068,
      "History": 9069,
      "TW": 9070,
      "_{}": 9071,
      "dr": 9072,
      "frequency": 9073,
      "gd": 9074,
      "gst": 9075,
      "ire": 9076,
      "jis": 9077,
      "micro": 9078,
      "wkb": 9079,
      "xab": 9080,
      "ye": 9081,
      "}),": 9082,
      "ÄĻ": 9083,
      "ÅĽ": 9084,
      "ĊĊĊĠĠĠĠĠĠĠ": 9085,
      "ĠValid": 9086,
      "Ġvector": 9087,
      "inet": 9088,
      "readed": 9089,
      "reason": 9090,
      "deserialize": 9091,
      "leave": 9092,
      "rod": 9093,
      "room": 9094,
      "Ġfallback": 9095,
      "Ġfuture": 9096,
      "Ġfinish": 9097,
      "Ġfront": 9098,
      "Ġrec": 9099,
      "Ġrear": 9100,
      "Ġrepro": 9101,
      "Ġste": 9102,
      "Ġsli": 9103,
      "Ġinserted": 9104,
      "()`": 9105,
      "chmod": 9106,
      "Ġ\"(": 9107,
      "Ġ\"(('": 9108,
      "Ġ[%": 9109,
      "ely": 9110,
      "conven": 9111,
      "appro": 9112,
      "edx": 9113,
      "ĠSession": 9114,
      "))))": 9115,
      "ĠCustom": 9116,
      "ĠIter": 9117,
      "ĠLine": 9118,
      "ĠFoo": 9119,
      "Ġguar": 9120,
      "Ġsegment": 9121,
      "INDEX": 9122,
      "Reset": 9123,
      "hore": 9124,
      "mous": 9125,
      "ĠDesc": 9126,
      "Ġpara": 9127,
      "cipe": 9128,
      "usb": 9129,
      "Ġunich": 9130,
      "Ġ36": 9131,
      "tenants": 9132,
      "agged": 9133,
      "ĠUTF": 9134,
      "ĠURI": 9135,
      "rendered": 9136,
      "component": 9137,
      "Ġweight": 9138,
      "calls": 9139,
      "backup": 9140,
      "deny": 9141,
      "gsm": 9142,
      "Ġshall": 9143,
      "ĠInvenio": 9144,
      "Ġlogfile": 9145,
      "linker": 9146,
      "Exist": 9147,
      "Ġcompile": 9148,
      "runtime": 9149,
      "basetest": 9150,
      "Ġstatements": 9151,
      "Ġchecking": 9152,
      "Ġ{}).": 9153,
      "Ġpercent": 9154,
      "xxx": 9155,
      "ĠaddGroup": 9156,
      "Encoder": 9157,
      "=[('": 9158,
      "prime": 9159,
      "soci": 9160,
      "ISO": 9161,
      "239": 9162,
      "Ġ]),": 9163,
      "2006": 9164,
      "blocksize": 9165,
      "2011": 9166,
      "ymmetric": 9167,
      "Ġservers": 9168,
      "ĠJo": 9169,
      "5678": 9170,
      "Ġaggreg": 9171,
      "608": 9172,
      "buildresponse": 9173,
      "Ġloads": 9174,
      "Ġregistry": 9175,
      "CallbackBase": 9176,
      "Comment": 9177,
      "Ġtrailing": 9178,
      "DoGet": 9179,
      "webpage": 9180,
      "webdriver": 9181,
      "niParams": 9182,
      "Weights": 9183,
      "bindings": 9184,
      "mathjax": 9185,
      "Accept": 9186,
      "timesheet": 9187,
      "Move": 9188,
      "Ġiteration": 9189,
      "Ġ\"'[]'": 9190,
      "bytearray": 9191,
      "toolset": 9192,
      "gateway": 9193,
      "Ġcycle": 9194,
      "Ġseparator": 9195,
      "vhdutils": 9196,
      "Scroll": 9197,
      "ĠSELECT": 9198,
      "Ġ[{'": 9199,
      "ĠHttpResponse": 9200,
      "Ġ4294967296": 9201,
      "Ġ4294967297": 9202,
      "ĠHere": 9203,
      "SerializeToString": 9204,
      "Ġyears": 9205,
      "Polygon": 9206,
      "Ġfunctools": 9207,
      "ĠDocument": 9208,
      "JoinCondition": 9209,
      "ĠLookup": 9210,
      "Ġharness": 9211,
      "ĠDISCLA": 9212,
      "irthday": 9213,
      "enario": 9214,
      "riendly": 9215,
      "ietf": 9216,
      "onymous": 9217,
      "ĠDISCLAIM": 9218,
      "!\"": 9219,
      "'',": 9220,
      ")-": 9221,
      "Cluster": 9222,
      "Dock": 9223,
      "Func": 9224,
      "Iter": 9225,
      "La": 9226,
      "MB": 9227,
      "MON": 9228,
      "Pod": 9229,
      "SAT": 9230,
      "Slice": 9231,
      "Tri": 9232,
      "Var": 9233,
      "WER": 9234,
      "dm": 9235,
      "gz": 9236,
      "hh": 9237,
      "have": 9238,
      "ju": 9239,
      "rsplit": 9240,
      "rfind": 9241,
      "rrule": 9242,
      "sheet": 9243,
      "vo": 9244,
      "you": 9245,
      "Ã©": 9246,
      "Ġĉ": 9247,
      "ĠĊĠĠĠĠĠĠĠĠĠĠĠĠĠĠĠ": 9248,
      "inplace": 9249,
      "arwin": 9250,
      "ert": 9251,
      "Ġ'').": 9252,
      "Ġcvar": 9253,
      "ene": 9254,
      "Ġfaster": 9255,
      "Ġnan": 9256,
      "Ġndtype": 9257,
      "uess": 9258,
      "Ġschedule": 9259,
      "Ġtc": 9260,
      "Ġtxt": 9261,
      "defs": 9262,
      "atel": 9263,
      "coin": 9264,
      "unpack": 9265,
      "Ġem": 9266,
      "Ġear": 9267,
      "Ġmultiplicity": 9268,
      "Ġmysql": 9269,
      "riven": 9270,
      "().__": 9271,
      "Ġdefs": 9272,
      "chdir": 9273,
      "cks": 9274,
      "('__": 9275,
      "Ġtombstone": 9276,
      "Ġ\"\"\")": 9277,
      "Ġusually": 9278,
      "Ġstride": 9279,
      "pag": 9280,
      "ĠSUBSTIT": 9281,
      "ĠSPECIAL": 9282,
      "uman": 9283,
      "ĠAss": 9284,
      "ĠAST": 9285,
      "ĠClear": 9286,
      "Ġ*,": 9287,
      "ĠIF": 9288,
      "resolution": 9289,
      "ĠLet": 9290,
      "ĠLinux": 9291,
      "=\"'": 9292,
      "listdir": 9293,
      "Ġdialect": 9294,
      "textarea": 9295,
      "ĠPe": 9296,
      "ĠPort": 9297,
      "ĠPackage": 9298,
      "filepath": 9299,
      "']}": 9300,
      "Repr": 9301,
      "trim": 9302,
      "ĠMapping": 9303,
      "lica": 9304,
      "lications": 9305,
      "licates": 9306,
      "anging": 9307,
      "Ġ34": 9308,
      "premium": 9309,
      "ĠGraph": 9310,
      "aging": 9311,
      "worker": 9312,
      "needed": 9313,
      "Ġints": 9314,
      "blems": 9315,
      "zeug": 9316,
      "ICK": 9317,
      "startup": 9318,
      "Ġappen": 9319,
      "Chain": 9320,
      "aching": 9321,
      "Ġperformed": 9322,
      "Ġitemlist": 9323,
      "Ġadding": 9324,
      "Timestamp": 9325,
      "weighted": 9326,
      "IPv": 9327,
      "163": 9328,
      "episode": 9329,
      "154": 9330,
      "Ġ-->": 9331,
      "Ġtee": 9332,
      "Ġreading": 9333,
      "Ġworker": 9334,
      "Theme": 9335,
      "Ġarbit": 9336,
      "charset": 9337,
      "Bucket": 9338,
      "libraries": 9339,
      "10045": 9340,
      "NODE": 9341,
      "repository": 9342,
      "Transaction": 9343,
      "risch": 9344,
      "CacheEntry": 9345,
      "USERNAME": 9346,
      "Ġreplaced": 9347,
      "Ġswarming": 9348,
      "intervals": 9349,
      "Ġimmediate": 9350,
      "tendees": 9351,
      "Ġcombined": 9352,
      "longest": 9353,
      "Ġbackends": 9354,
      "Ġnormalize": 9355,
      "dependency": 9356,
      "Ġarchive": 9357,
      "Hasher": 9358,
      "LAY": 9359,
      "Execute": 9360,
      "Ġsimilar": 9361,
      "jected": 9362,
      "Ġmodification": 9363,
      "=======": 9364,
      "Combo": 9365,
      "ĠQUOT": 9366,
      "(':')": 9367,
      "Failure": 9368,
      "Align": 9369,
      "yntaxError": 9370,
      "Ġgranted": 9371,
[...]
