{
  "version": "1.0",
  "truncation": null,
  "padding": null,
  "added_tokens": [
    {
      "id": 0,
      "content": "<pad>",
      "single_word": false,
      "lstrip": false,
      "rstrip": false,
      "normalized": false,
      "special": true
    },
    {
      "id": 1,
      "content": "<bos>",
      "single_word": false,
      "lstrip": false,
      "rstrip": false,
      "normalized": false,
      "special": true
    },
    {
      "id": 2,
      "content": "<eos>",
      "single_word": false,
      "lstrip": false,
      "rstrip": false,
      "normalized": false,
      "special": true
    }
  ],
  "normalizer": null,
  "pre_tokenizer": {
    "type": "ByteLevel",
    "add_prefix_space": false,
    "trim_offsets": true,
    "use_regex": true
  },
  "post_processor": null,
  "decoder": {
    "type": "ByteLevel",
    "add_prefix_space": true,
    "trim_offsets": true,
    "use_regex": true
  },
  "model": {
    "type": "BPE",
    "dropout": null,
    "unk_token": null,
    "continuing_subword_prefix": null,
    "end_of_word_suffix": null,
    "fuse_unk": false,
    "byte_fallback": false,
    "ignore_merges": false,
    "vocab": {
      "<pad>": 0,
      "<bos>": 1,
      "<eos>": 2,
      "!": 3,
      "\"": 4,
      "#": 5,
      "$": 6,
      "%": 7,
      "&": 8,
      "'": 9,
      "(": 10,
      ")": 11,
      "*": 12,
      "+": 13,
      ",": 14,
      "-": 15,
      ".": 16,
      "/": 17,
      "0": 18,
      "1": 19,
      "2": 20,
      "3": 21,
      "4": 22,
      "5": 23,
      "6": 24,
      "7": 25,
      "8": 26,
      "9": 27,
      ":": 28,
      ";": 29,
      "<": 30,
      "=": 31,
      ">": 32,
      "?": 33,
      "@": 34,
      "A": 35,
      "B": 36,
      "C": 37,
      "D": 38,
      "E": 39,
      "F": 40,
      "G": 41,
      "H": 42,
      "I": 43,
      "J": 44,
      "K": 45,
      "L": 46,
      "M": 47,
      "N": 48,
      "O": 49,
      "P": 50,
      "Q": 51,
      "R": 52,
      "S": 53,
      "T": 54,
      "U": 55,
      "V": 56,
      "W": 57,
      "X": 58,
      "Y": 59,
      "Z": 60,
      "[": 61,
      "\\": 62,
      "]": 63,
      "^": 64,
      "_": 65,
      "`": 66,
      "a": 67,
      "b": 68,
      "c": 69,
      "d": 70,
      "e": 71,
      "f": 72,
      "g": 73,
      "h": 74,
      "i": 75,
      "j": 76,
      "k": 77,
      "l": 78,
      "m": 79,
      "n": 80,
      "o": 81,
      "p": 82,
      "q": 83,
      "r": 84,
      "s": 85,
      "t": 86,
      "u": 87,
      "v": 88,
      "w": 89,
      "x": 90,
      "y": 91,
      "z": 92,
      "{": 93,
      "|": 94,
      "}": 95,
      "~": 96,
      "¡": 97,
      "¢": 98,
      "£": 99,
      "¤": 100,
      "¥": 101,
      "¦": 102,
      "§": 103,
      "¨": 104,
      "©": 105,
      "ª": 106,
      "«": 107,
      "¬": 108,
      "®": 109,
      "¯": 110,
      "°": 111,
      "±": 112,
      "²": 113,
      "³": 114,
      "´": 115,
      "µ": 116,
      "¶": 117,
      "·": 118,
      "¸": 119,
      "¹": 120,
      "º": 121,
      "»": 122,
      "¼": 123,
      "½": 124,
      "¾": 125,
      "¿": 126,
      "Â": 127,
      "Ã": 128,
      "Ä": 129,
      "Å": 130,
      "Ë": 131,
      "Î": 132,
      "Ï": 133,
      "Ð": 134,
      "Ñ": 135,
      "Ø": 136,
      "Ù": 137,
      "Ú": 138,
      "Û": 139,
      "à": 140,
      "á": 141,
      "â": 142,
      "ã": 143,
      "ä": 144,
      "å": 145,
      "æ": 146,
      "ç": 147,
      "è": 148,
      "é": 149,
      "ê": 150,
      "ë": 151,
      "ì": 152,
      "í": 153,
      "ï": 154,
      "ð": 155,
      "ĉ": 156,
      "Ċ": 157,
      "Č": 158,
      "č": 159,
      "Ġ": 160,
      "Ģ": 161,
      "ģ": 162,
      "Ĥ": 163,
      "ĥ": 164,
      "Ħ": 165,
      "ħ": 166,
      "Ĩ": 167,
      "ĩ": 168,
      "Ī": 169,
      "ī": 170,
      "Ĭ": 171,
      "ĭ": 172,
      "Į": 173,
      "į": 174,
      "İ": 175,
      "ı": 176,
      "Ĳ": 177,
      "ĳ": 178,
      "Ĵ": 179,
      "ĵ": 180,
      "Ķ": 181,
      "ķ": 182,
      "ĸ": 183,
      "Ĺ": 184,
      "ĺ": 185,
      "Ļ": 186,
      "ļ": 187,
      "Ľ": 188,
      "ľ": 189,
      "Ŀ": 190,
      "ŀ": 191,
      "Ł": 192,
      "ł": 193,
      "Ń": 194,
      "ĠĠ": 195,
      "ĠĠĠĠ": 196,
      "ĠĠĠ": 197,
      "ĊĠĠĠĠ": 198,
      "se": 199,
      "in": 200,
      "re": 201,
      "on": 202,
      "te": 203,
      "ĠĠĠĠĠĠĠĠ": 204,
      "ĊĠĠĠĠĠĠĠ": 205,
      "st": 206,
      "or": 207,
      "ĊĠĠĠ": 208,
      "de": 209,
      "Ġ=": 210,
      "th": 211,
      "le": 212,
      "lf": 213,
      "self": 214,
      "al": 215,
      "me": 216,
      "ti": 217,
      "ar": 218,
      "er": 219,
      "an": 220,
      "Ġi": 221,
      "ĠĠĠĠĠĠĠ": 222,
      "Ġ'": 223,
      "Ġc": 224,
      "as": 225,
      "Ġ\"": 226,
      "en": 227,
      "Ġself": 228,
      "at": 229,
      "Ġf": 230,
      "ĊĠĠĠĠĠĠĠĠĠĠĠ": 231,
      "ĊĠĠĠĠĠĠĠĠĠĠĠĠ": 232,
      "ro": 233,
      "--": 234,
      "Ġth": 235,
      "Ġre": 236,
      "ce": 237,
      "Ġp": 238,
      "tion": 239,
      "ur": 240,
      "ge": 241,
      "):": 242,
      "',": 243,
      "Ġn": 244,
      "Ġs": 245,
      "ue": 246,
      "mp": 247,
      "Ġt": 248,
      "ing": 249,
      "li": 250,
      "Ġin": 251,
      "Ġo": 252,
      "Ġthe": 253,
      "ame": 254,
      "##": 255,
      "Ġa": 256,
      "def": 257,
      "ser": 258,
      "el": 259,
      "ct": 260,
      "ate": 261,
      "un": 262,
      "di": 263,
      "lo": 264,
      "Ġ#": 265,
      "co": 266,
      "pe": 267,
      "ri": 268,
      "Ġb": 269,
      "Ġ(": 270,
      "fi": 271,
      "\"\"": 272,
      "ut": 273,
      "Ġw": 274,
      "Ġm": 275,
      "ĊĊĠĠĠ": 276,
      "ex": 277,
      "ch": 278,
      "()": 279,
      "ra": 280,
      "si": 281,
      "id": 282,
      "nt": 283,
      "ul": 284,
      "Ġdef": 285,
      "----": 286,
      "ck": 287,
      "Ġif": 288,
      "urn": 289,
      "turn": 290,
      "ort": 291,
      "ter": 292,
      "ĊĠĠĠĠĠĠĠĠĠĠĠĠĠĠĠ": 293,
      "),": 294,
      "and": 295,
      "ad": 296,
      "ot": 297,
      "Ġ[": 298,
      "get": 299,
      "name": 300,
      "val": 301,
      "Ġ0": 302,
      "ab": 303,
      "Ġis": 304,
      "Ġfor": 305,
      "et": 306,
      "('": 307,
      "Ġd": 308,
      "is": 309,
      "sert": 310,
      "Ġreturn": 311,
      "':": 312,
      "one": 313,
      "\",": 314,
      "ol": 315,
      "__": 316,
      "assert": 317,
      "Ġto": 318,
      "it": 319,
      "ed": 320,
      "up": 321,
      "ĠT": 322,
      "qu": 323,
      "pa": 324,
      "con": 325,
      "od": 326,
      "test": 327,
      "')": 328,
      "il": 329,
      "ode": 330,
      "ss": 331,
      "ma": 332,
      "Ġ\"\"\"": 333,
      "op": 334,
      "set": 335,
      "####": 336,
      "ype": 337,
      "str": 338,
      "ke": 339,
      "ver": 340,
      "ass": 341,
      "ĊĠĠĠĠĠĠĠĠĠĠĠĠĠĠĠĠĠĠĠĠ": 342,
      "arg": 343,
      "mport": 344,
      "00": 345,
      "eld": 346,
      "Ġu": 347,
      "rom": 348,
      "Ġof": 349,
      "ho": 350,
      "he": 351,
      "ĊĊĠĠĠĠĠĠĠ": 352,
      "la": 353,
      "==": 354,
      "Ġ1": 355,
      "ve": 356,
      "der": 357,
      "ction": 358,
      "Ġe": 359,
      "None": 360,
      "ĊĊ": 361,
      "tr": 362,
      "],": 363,
      "ata": 364,
      "Ġcon": 365,
      "value": 366,
      "ĠS": 367,
      "vi": 368,
      "ult": 369,
      "))": 370,
      "ĠC": 371,
      "Ġ-": 372,
      "ile": 373,
      "Ġex": 374,
      "ith": 375,
      "es": 376,
      "ls": 377,
      "um": 378,
      "ĠA": 379,
      "ment": 380,
      "Ġand": 381,
      "ror": 382,
      "int": 383,
      "rue": 384,
      "ap": 385,
      "Ġ_": 386,
      "sion": 387,
      "am": 388,
      "cl": 389,
      "._": 390,
      "Ġnot": 391,
      "par": 392,
      "Ċĉ": 393,
      "all": 394,
      "ield": 395,
      "args": 396,
      "able": 397,
      "Ġ%": 398,
      "ent": 399,
      "(\"": 400,
      "ation": 401,
      "['": 402,
      "ĠL": 403,
      "ht": 404,
      "']": 405,
      "--------": 406,
      "ĠI": 407,
      "to": 408,
      "ule": 409,
      "ect": 410,
      "ted": 411,
      "**": 412,
      "res": 413,
      "from": 414,
      "Ġtest": 415,
      "Ġimport": 416,
      "xt": 417,
      "qual": 418,
      "ub": 419,
      "ase": 420,
      "Ġ+": 421,
      "lin": 422,
      "Ġg": 423,
      "age": 424,
      "key": 425,
      "Ġde": 426,
      "Re": 427,
      "Ġ{": 428,
      "Ġst": 429,
      "ĠF": 430,
      "::": 431,
      "Ġ==": 432,
      "path": 433,
      "Ġ2": 434,
      "for": 435,
      "ĊĠĠĠĠĠĠĠĠĠĠĠĠĠĠĠĠĠĠĠ": 436,
      "ĊĠĠĠĠĠ": 437,
      "Ġdi": 438,
      "bj": 439,
      "ig": 440,
      "per": 441,
      "ption": 442,
      "file": 443,
      "que": 444,
      "\":": 445,
      "Ġh": 446,
      "Ġor": 447,
      "time": 448,
      "\")": 449,
      "bu": 450,
      "end": 451,
      "ĠP": 452,
      "ĠNone": 453,
      "odule": 454,
      "pro": 455,
      "text": 456,
      "put": 457,
      "po": 458,
      "list": 459,
      "type": 460,
      "ta": 461,
      "om": 462,
      "Ġbe": 463,
      "Field": 464,
      "Ġwith": 465,
      "ic": 466,
      "Er": 467,
      "len": 468,
      "alse": 469,
      "class": 470,
      "Ġres": 471,
      "host": 472,
      "########": 473,
      "Error": 474,
      "Ġr": 475,
      "])": 476,
      "ER": 477,
      "ew": 478,
      "Ġse": 479,
      "out": 480,
      "Equal": 481,
      "In": 482,
      "ow": 483,
      "ĊĠ": 484,
      "=\"": 485,
      "ault": 486,
      "IN": 487,
      "True": 488,
      "Ġname": 489,
      "Ġvalue": 490,
      "pt": 491,
      "us": 492,
      "fo": 493,
      "string": 494,
      "add": 495,
      "ff": 496,
      "ci": 497,
      "Ġ:": 498,
      "tem": 499,
      "ze": 500,
      "====": 501,
      "ise": 502,
      "[\"": 503,
      "Ġpro": 504,
      "Ġfile": 505,
      "Ġas": 506,
      "='": 507,
      "ty": 508,
      "quest": 509,
      "ure": 510,
      "ance": 511,
      "ys": 512,
      "Ġlo": 513,
      "ĠD": 514,
      "Ġme": 515,
      "lic": 516,
      "bject": 517,
      "mple": 518,
      "ĊĠĠĠĠĠĠĠĠ": 519,
      "ange": 520,
      "assertEqual": 521,
      "ack": 522,
      "Ġ<": 523,
      "art": 524,
      "ĠM": 525,
      "Ġan": 526,
      "\"]": 527,
      "ĊĠĠĠĠĠĠĠĠĠĠĠĠĠĠĠĠĠĠĠĠĠĠĠĠĠĠĠĠ": 528,
      "data": 529,
      "red": 530,
      "Ġassert": 531,
      "\"\"\"": 532,
      "mat": 533,
      "Ġy": 534,
      "ĠG": 535,
      "sc": 536,
      "ly": 537,
      "else": 538,
      "CT": 539,
      "mb": 540,
      "app": 541,
      "ĠO": 542,
      "ns": 543,
      "Ċĉĉ": 544,
      "mo": 545,
      "ry": 546,
      "our": 547,
      "che": 548,
      "wor": 549,
      "ĊĠĠĠĠĠĠĠĠĠĠĠĠĠĠĠĠ": 550,
      "ang": 551,
      "tri": 552,
      "sp": 553,
      "ist": 554,
      "Ġx": 555,
      "est": 556,
      "fig": 557,
      "Ġelse": 558,
      "com": 559,
      "Ġen": 560,
      "td": 561,
      "Ġv": 562,
      "ind": 563,
      "ces": 564,
      "IT": 565,
      "AT": 566,
      "ath": 567,
      "roup": 568,
      "'),": 569,
      "unt": 570,
      "module": 571,
      "kw": 572,
      "reate": 573,
      "Ġun": 574,
      "bo": 575,
      "rent": 576,
      "mode": 577,
      "ctor": 578,
      "date": 579,
      "Ex": 580,
      "Ġco": 581,
      "ag": 582,
      "import": 583,
      "dd": 584,
      "Ġthat": 585,
      "Ġ__": 586,
      "Ġ('": 587,
      "thod": 588,
      "Ġpar": 589,
      "sh": 590,
      "ac": 591,
      "ON": 592,
      "Ġl": 593,
      "Ġon": 594,
      ").": 595,
      "code": 596,
      "ĠW": 597,
      "fa": 598,
      "Ġ\"\\": 599,
      "ask": 600,
      "Ġ*": 601,
      "cess": 602,
      "Ġset": 603,
      "line": 604,
      "url": 605,
      "Ġit": 606,
      "01": 607,
      "Ġ3": 608,
      "hostF": 609,
      "tdc": 610,
      "hostFtdc": 611,
      "dir": 612,
      "if": 613,
      "AL": 614,
      "sed": 615,
      "Ġthis": 616,
      "Ġget": 617,
      "pre": 618,
      "col": 619,
      "param": 620,
      "stance": 621,
      "unction": 622,
      "dex": 623,
      "AR": 624,
      "ĠN": 625,
      "ray": 626,
      "py": 627,
      "kwargs": 628,
      "Ġ`": 629,
      "Ġma": 630,
      "Ġdata": 631,
      "tp": 632,
      "CThostFtdc": 633,
      "ES": 634,
      "vice": 635,
      ";\":": 636,
      "..": 637,
      "([": 638,
      "Ġ**": 639,
      "error": 640,
      "rint": 641,
      "jo": 642,
      "option": 643,
      "ore": 644,
      "field": 645,
      "ĠB": 646,
      "Ġ>": 647,
      "ary": 648,
      "Con": 649,
      "ms": 650,
      "ses": 651,
      "----------------": 652,
      "os": 653,
      "Ġra": 654,
      "pon": 655,
      "Ġby": 656,
      "Ġfrom": 657,
      "ĠThe": 658,
      "vent": 659,
      "ali": 660,
      "Ġos": 661,
      "cept": 662,
      "rite": 663,
      "Ġwh": 664,
      "ĠTrue": 665,
      "Ġkey": 666,
      "fe": 667,
      "Ġat": 668,
      "ip": 669,
      "ren": 670,
      "ader": 671,
      "ext": 672,
      "ET": 673,
      "array": 674,
      "db": 675,
      "ener": 676,
      "oc": 677,
      "ten": 678,
      "Val": 679,
      "ator": 680,
      "version": 681,
      "low": 682,
      "ree": 683,
      "ĠU": 684,
      "ne": 685,
      "OR": 686,
      "Ġch": 687,
      "ssage": 688,
      "cted": 689,
      "atch": 690,
      "ĊĠĠĠĠĠĠĠĠĠĠĠĠĠĠĠĠĠĠĠĠĠĠĠ": 691,
      "ID": 692,
      "user": 693,
      "und": 694,
      "Ġ->": 695,
      "__(": 696,
      "tive": 697,
      "ild": 698,
      "ock": 699,
      "Ġout": 700,
      "port": 701,
      "ir": 702,
      "Ġtype": 703,
      "25": 704,
      "net": 705,
      "ded": 706,
      "tes": 707,
      "ĠFalse": 708,
      "read": 709,
      "Ġ)": 710,
      "late": 711,
      "ca": 712,
      "abel": 713,
      "EN": 714,
      "ml": 715,
      "Ġresult": 716,
      "ill": 717,
      "append": 718,
      "http": 719,
      "ense": 720,
      "ther": 721,
      "min": 722,
      "count": 723,
      "ource": 724,
      "ou": 725,
      "ress": 726,
      "lient": 727,
      "wa": 728,
      "Ġwe": 729,
      "Ġal": 730,
      "rap": 731,
      "init": 732,
      "ception": 733,
      "ran": 734,
      "//": 735,
      "ĠRe": 736,
      "ponse": 737,
      "False": 738,
      "lib": 739,
      "ds": 740,
      "################": 741,
      "Ġraise": 742,
      "cal": 743,
      "De": 744,
      "ĠĠĠĠĠĠĠĠĠĠĠĠĠĠĠĠ": 745,
      "stru": 746,
      "log": 747,
      "ok": 748,
      "ĊĊĠ": 749,
      "ĊĠĠĠĠĠĠĠĠĠĠĠĠĠĠĠĠĠĠ": 750,
      "Ġare": 751,
      "ĠR": 752,
      "Ġ{'": 753,
      "Ġlen": 754,
      "dict": 755,
      "Ġlist": 756,
      "qui": 757,
      "Test": 758,
      "čĊĠĠĠĠĠĠĠ": 759,
      "ari": 760,
      "jang": 761,
      "Ġns": 762,
      "lay": 763,
      "cur": 764,
      "Type": 765,
      "ample": 766,
      "object": 767,
      "Ġcl": 768,
      "jango": 769,
      "tro": 770,
      "ave": 771,
      "og": 772,
      "pp": 773,
      "comp": 774,
      "Value": 775,
      "Ġ4": 776,
      "ST": 777,
      "temp": 778,
      "ft": 779,
      "den": 780,
      "tribu": 781,
      "ust": 782,
      "try": 783,
      "Ġmode": 784,
      "heck": 785,
      "ĠE": 786,
      "ant": 787,
      "scri": 788,
      "========": 789,
      "join": 790,
      "Ġtry": 791,
      "default": 792,
      "ĊĠĠĠĠĠĠĠĠĠ": 793,
      "ting": 794,
      "icense": 795,
      "Get": 796,
      "valid": 797,
      "method": 798,
      "'):": 799,
      "ĠH": 800,
      "uld": 801,
      "work": 802,
      "uth": 803,
      "size": 804,
      "Ġexcept": 805,
      "no": 806,
      "ec": 807,
      "gs": 808,
      "tent": 809,
      "ĠĊĠĠĠĠĠĠĠĠĠĠĠĠĠĠĠĠĠĠ": 810,
      "Ġpath": 811,
      "pen": 812,
      "Ġ@": 813,
      "Ġfunction": 814,
      "AN": 815,
      "</": 816,
      "():": 817,
      "group": 818,
      "umb": 819,
      "Ġdefault": 820,
      "ument": 821,
      "lif": 822,
      "ger": 823,
      "Ġprint": 824,
      "ape": 825,
      "lement": 826,
      "stri": 827,
      "Ġcol": 828,
      "Ġmodule": 829,
      "info": 830,
      "ble": 831,
      "ght": 832,
      "ler": 833,
      "Pro": 834,
      "link": 835,
      "request": 836,
      "Ġ}": 837,
      "ĠLicense": 838,
      "Ġpre": 839,
      "32": 840,
      "his": 841,
      "ll": 842,
      "Ġtime": 843,
      "Ġso": 844,
      "ign": 845,
      "ding": 846,
      "row": 847,
      "mand": 848,
      "Ċĉĉĉ": 849,
      "Set": 850,
      "tic": 851,
      "čĊĠĠĠ": 852,
      "instance": 853,
      "load": 854,
      "own": 855,
      "Ġpo": 856,
      "form": 857,
      "son": 858,
      "format": 859,
      "Ġwill": 860,
      "(*": 861,
      "map": 862,
      "Ġcan": 863,
      "Ġuse": 864,
      "gn": 865,
      "'],": 866,
      "by": 867,
      "umn": 868,
      "RE": 869,
      "arget": 870,
      "ine": 871,
      "mit": 872,
      "models": 873,
      "Ġsho": 874,
      "Ġoption": 875,
      "''": 876,
      "opy": 877,
      "inter": 878,
      "Ġnp": 879,
      "back": 880,
      "://": 881,
      "Ġnew": 882,
      "Ke": 883,
      "Ġlog": 884,
      "10": 885,
      "Ġsys": 886,
      "orm": 887,
      "Ġelif": 888,
      "fields": 889,
      "ume": 890,
      "Ġcom": 891,
      "thon": 892,
      "config": 893,
      "lock": 894,
      "uti": 895,
      "gth": 896,
      "LE": 897,
      "SE": 898,
      "start": 899,
      "())": 900,
      "tain": 901,
      "peci": 902,
      "ĊĊĠĠĠĠĠĠĠĠĠĠĠ": 903,
      "Ġcls": 904,
      "pected": 905,
      "22": 906,
      "right": 907,
      "St": 908,
      "da": 909,
      "max": 910,
      "Ġno": 911,
      "umber": 912,
      "Ġuser": 913,
      "du": 914,
      "Ġint": 915,
      "Ġ{}": 916,
      "Ġ[]": 917,
      "Name": 918,
      "ĠIn": 919,
      "Ġsi": 920,
      "ated": 921,
      "UT": 922,
      "lect": 923,
      "'}": 924,
      "state": 925,
      "ĠIf": 926,
      "loat": 927,
      "sub": 928,
      "Ġsub": 929,
      "Ġ[],": 930,
      "unc": 931,
      "iv": 932,
      "Key": 933,
      "ard": 934,
      "ters": 935,
      "\"),": 936,
      "ĠThis": 937,
      "ime": 938,
      "header": 939,
      "Ġclass": 940,
      "fix": 941,
      "ull": 942,
      "attr": 943,
      "Ġfield": 944,
      "Ġrequest": 945,
      "write": 946,
      "atus": 947,
      "ight": 948,
      "arch": 949,
      "Ġall": 950,
      "File": 951,
      "ning": 952,
      "ark": 953,
      "word": 954,
      "TER": 955,
      "Ġdo": 956,
      "Ġser": 957,
      "ound": 958,
      "mage": 959,
      "ute": 960,
      "index": 961,
      ".__": 962,
      "64": 963,
      "pv": 964,
      "lit": 965,
      "IC": 966,
      "11": 967,
      "Ġstr": 968,
      "ww": 969,
      "create": 970,
      "Ġpass": 971,
      "update": 972,
      "Ġ/": 973,
      "with": 974,
      "ity": 975,
      "Ġj": 976,
      "\">": 977,
      "ulti": 978,
      "Ġadd": 979,
      "Ġstring": 980,
      "(),": 981,
      "Ġobject": 982,
      "Ch": 983,
      "node": 984,
      "Ġversion": 985,
      "mon": 986,
      "Ġsup": 987,
      "clu": 988,
      "Ġsh": 989,
      "Ġla": 990,
      "root": 991,
      "sing": 992,
      "Ġ['": 993,
      "12": 994,
      "nd": 995,
      "ee": 996,
      "****": 997,
      "Ġhas": 998,
      "ner": 999,
      "ref": 1000,
      "parse": 1001,
      "Ġ!": 1002,
      "contro": 1003,
      "ail": 1004,
      "Ġcomp": 1005,
      "ery": 1006,
      "DE": 1007,
      "Ġ5": 1008,
      "check": 1009,
      ">>": 1010,
      "context": 1011,
      "Ġ\\": 1012,
      "Ġshould": 1013,
      "sent": 1014,
      "Ġline": 1015,
      "rc": 1016,
      "tra": 1017,
      "new": 1018,
      "change": 1019,
      "mail": 1020,
      "cor": 1021,
      "mber": 1022,
      "tribute": 1023,
      "nection": 1024,
      ".\"\"\"": 1025,
      "move": 1026,
      "label": 1027,
      "Ġk": 1028,
      "we": 1029,
      "vel": 1030,
      "Ġ!=": 1031,
      "Di": 1032,
      "Ġ+=": 1033,
      "AP": 1034,
      "ron": 1035,
      "av": 1036,
      "Ġoutput": 1037,
      "lace": 1038,
      "ctory": 1039,
      "base": 1040,
      "tring": 1041,
      "Ġcur": 1042,
      "html": 1043,
      "0000": 1044,
      "ING": 1045,
      "IG": 1046,
      "view": 1047,
      "cs": 1048,
      "client": 1049,
      "Ġarray": 1050,
      "main": 1051,
      "ĠQ": 1052,
      "result": 1053,
      "ay": 1054,
      "rep": 1055,
      "scription": 1056,
      "spa": 1057,
      "md": 1058,
      "Ġac": 1059,
      "ises": 1060,
      "use": 1061,
      "ts": 1062,
      "Add": 1063,
      "Ġconst": 1064,
      "input": 1065,
      "tle": 1066,
      "Ġle": 1067,
      "ED": 1068,
      "Ġnode": 1069,
      "Ġapp": 1070,
      "Par": 1071,
      "Ġ##": 1072,
      "Ġarg": 1073,
      "().": 1074,
      "Ra": 1075,
      "Ġerror": 1076,
      "Ġpy": 1077,
      "so": 1078,
      "ĊĠĠĠĠĠĠĠĠĠĠĠĠĠĠĠĠĠĠĠĠĠĠĠĠ": 1079,
      "].": 1080,
      "ory": 1081,
      "item": 1082,
      "return": 1083,
      "Ġid": 1084,
      "ool": 1085,
      "ĊĠĠĠĠĠĠĠĠĠĠĠĠĠĠĠĠĠĠĠĠĠĠĠĠĠĠĠ": 1086,
      "led": 1087,
      "perty": 1088,
      "Ġcontext": 1089,
      "Ġcheck": 1090,
      "ject": 1091,
      "django": 1092,
      "Ġstate": 1093,
      "ware": 1094,
      "ken": 1095,
      "Ġspeci": 1096,
      "ariable": 1097,
      "indow": 1098,
      "20": 1099,
      "ich": 1100,
      "ream": 1101,
      "face": 1102,
      "run": 1103,
      "lose": 1104,
      "IL": 1105,
      "Ġconfig": 1106,
      "sys": 1107,
      "ug": 1108,
      "core": 1109,
      "Se": 1110,
      "'])": 1111,
      "At": 1112,
      "'t": 1113,
      "List": 1114,
      "Ġper": 1115,
      "'s": 1116,
      "equal": 1117,
      "Co": 1118,
      "ĠV": 1119,
      "tings": 1120,
      "tions": 1121,
      "_.": 1122,
      "table": 1123,
      "'\\": 1124,
      "ans": 1125,
      "Data": 1126,
      "ual": 1127,
      "ature": 1128,
      "ETTER": 1129,
      "Exception": 1130,
      "rame": 1131,
      "process": 1132,
      "controls": 1133,
      "Ġ6": 1134,
      "ong": 1135,
      "ĠLETTER": 1136,
      "Ġparam": 1137,
      "quired": 1138,
      "Ġcode": 1139,
      "template": 1140,
      "ION": 1141,
      "ph": 1142,
      "Ġurl": 1143,
      "pi": 1144,
      "struct": 1145,
      "length": 1146,
      "Ser": 1147,
      "sk": 1148,
      "Ġhave": 1149,
      "AM": 1150,
      "ĠAN": 1151,
      "Ġmessage": 1152,
      "Ġused": 1153,
      "ally": 1154,
      "raph": 1155,
      "sign": 1156,
      "ach": 1157,
      "fic": 1158,
      "pl": 1159,
      "Ġitem": 1160,
      "fy": 1161,
      "RO": 1162,
      "params": 1163,
      "Ġmethod": 1164,
      "title": 1165,
      "zer": 1166,
      "Time": 1167,
      "gra": 1168,
      "Ġother": 1169,
      "čĊ": 1170,
      "ations": 1171,
      "stribu": 1172,
      "04": 1173,
      "utils": 1174,
      "Ipv": 1175,
      "ä»": 1176,
      "rect": 1177,
      "sible": 1178,
      "ash": 1179,
      "reg": 1180,
      "čĊĠĠĠĠĠĠĠĠĠĠĠ": 1181,
      "sta": 1182,
      "yn": 1183,
      "ps": 1184,
      "andler": 1185,
      "split": 1186,
      "here": 1187,
      "(_": 1188,
      "Ġyou": 1189,
      "network": 1190,
      "AS": 1191,
      "foo": 1192,
      "Ġisinstance": 1193,
      "'))": 1194,
      "Ġargs": 1195,
      "'.": 1196,
      "Ġbu": 1197,
      "ax": 1198,
      "open": 1199,
      "mpty": 1200,
      "auth": 1201,
      "uple": 1202,
      "Ġvalues": 1203,
      "message": 1204,
      "Ġcreate": 1205,
      "not": 1206,
      "pos": 1207,
      "Ġany": 1208,
      "Ġli": 1209,
      "men": 1210,
      "Ġmo": 1211,
      "rans": 1212,
      "ĊĠĠĠĠĠĠĠĠĠĠĠĠĠĠĠĠĠĠĠĠĠĠĠĠĠĠĠĠĠĠĠĠĠĠĠĠ": 1213,
      "lete": 1214,
      "member": 1215,
      "Ġunder": 1216,
      "Ġ>>>": 1217,
      "Ġrange": 1218,
      "obj": 1219,
      "UL": 1220,
      "uto": 1221,
      "Ġwhich": 1222,
      "lean": 1223,
      "output": 1224,
      "call": 1225,
      "HT": 1226,
      "exp": 1227,
      "ValueError": 1228,
      "Ġbut": 1229,
      "Ġwor": 1230,
      "float": 1231,
      "fil": 1232,
      "vo": 1233,
      "Ġbase": 1234,
      "Res": 1235,
      "Ġdict": 1236,
      "AB": 1237,
      "bug": 1238,
      "man": 1239,
      "Ġ..": 1240,
      "query": 1241,
      "do": 1242,
      ":`": 1243,
      "ite": 1244,
      "Ġinter": 1245,
      "Ġresponse": 1246,
      "orted": 1247,
      "CH": 1248,
      "--------------------------------": 1249,
      "Ġcopy": 1250,
      "shape": 1251,
      "Ġne": 1252,
      "ublic": 1253,
      "pri": 1254,
      "fied": 1255,
      "99": 1256,
      "feren": 1257,
      "UR": 1258,
      "arning": 1259,
      "ĠReturn": 1260,
      "oo": 1261,
      "Ġgroup": 1262,
      "be": 1263,
      "Po": 1264,
      "tial": 1265,
      "idget": 1266,
      "IP": 1267,
      "cy": 1268,
      "mis": 1269,
      "Ġend": 1270,
      "Or": 1271,
      "En": 1272,
      "Ġrun": 1273,
      "ftware": 1274,
      "json": 1275,
      "rectory": 1276,
      "Ġindex": 1277,
      "Raises": 1278,
      "=[": 1279,
      "status": 1280,
      "ĉĉ": 1281,
      "msg": 1282,
      "ake": 1283,
      "func": 1284,
      "event": 1285,
      "Ġstart": 1286,
      "ix": 1287,
      "sg": 1288,
      "assertRaises": 1289,
      "ved": 1290,
      "Ġpa": 1291,
      "Si": 1292,
      "çł": 1293,
      "çłģ": 1294,
      "bin": 1295,
      "ctions": 1296,
      "ties": 1297,
      "03": 1298,
      "Un": 1299,
      "pack": 1300,
      "Ġ.": 1301,
      "org": 1302,
      "((": 1303,
      "rt": 1304,
      "ank": 1305,
      "Ac": 1306,
      "ĊĠĠĠĠĠĠĠĠĠĠĠĠĠ": 1307,
      "err": 1308,
      "licy": 1309,
      "assertTrue": 1310,
      "ĠTest": 1311,
      "elp": 1312,
      "21": 1313,
      "mbda": 1314,
      "Ġoptions": 1315,
      "Item": 1316,
      "Ġinput": 1317,
      "ALL": 1318,
      "Ġopen": 1319,
      "response": 1320,
      "Ġwhen": 1321,
      "clude": 1322,
      "ont": 1323,
      "const": 1324,
      "values": 1325,
      "``": 1326,
      "std": 1327,
      "iali": 1328,
      "options": 1329,
      "OT": 1330,
      "sions": 1331,
      "Text": 1332,
      "char": 1333,
      "24": 1334,
      "my": 1335,
      "ton": 1336,
      "To": 1337,
      "Ġevent": 1338,
      "Ġexp": 1339,
      "ep": 1340,
      "ENT": 1341,
      "IS": 1342,
      "ĠLAT": 1343,
      "ĠLATIN": 1344,
      "ĠX": 1345,
      "conn": 1346,
      "andom": 1347,
      ".,": 1348,
      "irst": 1349,
      "Ġdoc": 1350,
      "print": 1351,
      "target": 1352,
      "Ġmatch": 1353,
      "ANT": 1354,
      "'}),": 1355,
      "Ġcurrent": 1356,
      "fault": 1357,
      "iven": 1358,
      "!!": 1359,
      "ote": 1360,
      "api": 1361,
      "ITH": 1362,
      "================": 1363,
      "im": 1364,
      "bs": 1365,
      "Ġone": 1366,
      "ain": 1367,
      "doc": 1368,
      "Ġz": 1369,
      "ffer": 1370,
      "tern": 1371,
      "cre": 1372,
      "String": 1373,
      "model": 1374,
      "Ġelement": 1375,
      "Base": 1376,
      "CO": 1377,
      "ld": 1378,
      "Ġmodels": 1379,
      "teger": 1380,
      "ĊĠĠĠĠĠĠĠĠĠĠ": 1381,
      "Mode": 1382,
      "Ġcall": 1383,
      "IM": 1384,
      "Ġmay": 1385,
      "ĠĠĠĠĠĠ": 1386,
      "ak": 1387,
      "ĠWITH": 1388,
      "Path": 1389,
      "ql": 1390,
      "################################": 1391,
      "ors": 1392,
      "Ġtag": 1393,
      "Ġ10": 1394,
      "Ġexpected": 1395,
      "close": 1396,
      "Ġpart": 1397,
      "point": 1398,
      "Ġhttp": 1399,
      "olumn": 1400,
      "lines": 1401,
      "Ġ``": 1402,
      "ies": 1403,
      "ments": 1404,
      "ĠĠĠĠĠ": 1405,
      "16": 1406,
      "Ġcontain": 1407,
      "uid": 1408,
      "Tra": 1409,
      "Ġonly": 1410,
      "Address": 1411,
      "Ġnumber": 1412,
      "ĠGener": 1413,
      "[:": 1414,
      "its": 1415,
      "ĊĠĠĠĠĠĠĠĠĠĠĠĠĠĠ": 1416,
      "ers": 1417,
      "Ġdjango": 1418,
      "ome": 1419,
      "tin": 1420,
      "var": 1421,
      "ols": 1422,
      "ĠOR": 1423,
      "bar": 1424,
      "Ġsp": 1425,
      "Ġtext": 1426,
      "})": 1427,
      "nel": 1428,
      "Ġmock": 1429,
      "idth": 1430,
      "spe": 1431,
      "Ġreg": 1432,
      "filename": 1433,
      "FF": 1434,
      "pass": 1435,
      "rid": 1436,
      "ä»£": 1437,
      "num": 1438,
      "User": 1439,
      "NU": 1440,
      "types": 1441,
      "ä»£çłģ": 1442,
      "task": 1443,
      "ures": 1444,
      "cr": 1445,
      "ĠReturns": 1446,
      "Ġmax": 1447,
      "Ġhost": 1448,
      "30": 1449,
      "ody": 1450,
      "keys": 1451,
      "PO": 1452,
      "Ġ&": 1453,
      "content": 1454,
      "exec": 1455,
      "Case": 1456,
      "sition": 1457,
      "AC": 1458,
      "function": 1459,
      "åı": 1460,
      "Ġgener": 1461,
      "Id": 1462,
      "Ġver": 1463,
      "iz": 1464,
      "Ġ'''": 1465,
      "Ġ|": 1466,
      "Ġgiven": 1467,
      "Ġcommand": 1468,
      "Ġdate": 1469,
      "viron": 1470,
      "Ġlabel": 1471,
      "Order": 1472,
      "sy": 1473,
      "Ġtarget": 1474,
      "are": 1475,
      "headers": 1476,
      "ĊĠĠĠĠĠĠĠĠĠĠĠĠĠĠĠĠĠĠĠĠĠĠĠĠĠĠĠĠĠĠĠĠĠĠĠĠĠĠĠĠĠĠĠĠ": 1477,
      "Ġ--": 1478,
      "sor": 1479,
      "Ġrequired": 1480,
      "filter": 1481,
      "Ġdescription": 1482,
      "ids": 1483,
      "www": 1484,
      "how": 1485,
      "icode": 1486,
      "copy": 1487,
      "env": 1488,
      "Ġformat": 1489,
      "fer": 1490,
      "Ġro": 1491,
      "ĠCon": 1492,
      "Ġad": 1493,
      "ameters": 1494,
      "HE": 1495,
      "Ġread": 1496,
      "Ġmust": 1497,
      "dit": 1498,
      "Ġtable": 1499,
      "ĠIN": 1500,
      "inal": 1501,
      "the": 1502,
      "Dict": 1503,
      "ĠSee": 1504,
      "find": 1505,
      "Ġfirst": 1506,
      "Ġfiles": 1507,
      "denti": 1508,
      "coding": 1509,
      "block": 1510,
      "Ġ]": 1511,
      "tributes": 1512,
      "mary": 1513,
      "ell": 1514,
      "yle": 1515,
      "trans": 1516,
      "mark": 1517,
      "su": 1518,
      "Ġvi": 1519,
      "select": 1520,
      "Ġtra": 1521,
      "eta": 1522,
      "Ġup": 1523,
      "Ġ'%": 1524,
      "lot": 1525,
      "Ġsu": 1526,
      "raw": 1527,
      "lob": 1528,
      "gr": 1529,
      "names": 1530,
      "expected": 1531,
      "ration": 1532,
      "ollow": 1533,
      "Ġdistribu": 1534,
      "Ġmodel": 1535,
      "utf": 1536,
      "ference": 1537,
      "ging": 1538,
      "ĠGet": 1539,
      "Ġvalid": 1540,
      "Ġpl": 1541,
      "ative": 1542,
      "05": 1543,
      "als": 1544,
      "tag": 1545,
      "Ġte": 1546,
      "ped": 1547,
      "python": 1548,
      "TP": 1549,
      "Ġ8": 1550,
      "Ġmap": 1551,
      "201": 1552,
      "ĠY": 1553,
      "15": 1554,
      "ML": 1555,
      ")))": 1556,
      "of": 1557,
      "ox": 1558,
      "ĠOF": 1559,
      "Ġsize": 1560,
      "ops": 1561,
      "xx": 1562,
      "loc": 1563,
      "Ġsource": 1564,
      "olume": 1565,
      "ĠK": 1566,
      "Ġmore": 1567,
      "Up": 1568,
      "Ġchange": 1569,
      "Action": 1570,
      "Ġclient": 1571,
      "Ġsy": 1572,
      "Ġ'\\": 1573,
      "ion": 1574,
      "iled": 1575,
      "DI": 1576,
      "ick": 1577,
      "alias": 1578,
      "Ġ7": 1579,
      "Ġform": 1580,
      "\".": 1581,
      "dent": 1582,
      "Ġmsg": 1583,
      "Ġport": 1584,
      "000": 1585,
      "Me": 1586,
      "Ġfields": 1587,
      "ĠPy": 1588,
      "Qu": 1589,
      "ocket": 1590,
      "match": 1591,
      "elper": 1592,
      "34": 1593,
      "14": 1594,
      "any": 1595,
      "Ġargument": 1596,
      "Ġinstance": 1597,
      "********": 1598,
      "lection": 1599,
      "Ġpack": 1600,
      "ister": 1601,
      "session": 1602,
      "AG": 1603,
      "').": 1604,
      "tail": 1605,
      "ker": 1606,
      "Ġfe": 1607,
      "order": 1608,
      "angu": 1609,
      "ync": 1610,
      "Com": 1611,
      "ump": 1612,
      "andle": 1613,
      "Ġnet": 1614,
      "ast": 1615,
      "fla": 1616,
      "anguage": 1617,
      "dition": 1618,
      "Ġuid": 1619,
      "mask": 1620,
      "ists": 1621,
      "255": 1622,
      "structor": 1623,
      "cond": 1624,
      "ĠGNU": 1625,
      "Ġdoes": 1626,
      "command": 1627,
      "29": 1628,
      "ĠDe": 1629,
      "Ġparent": 1630,
      "ĠPublic": 1631,
      ")]": 1632,
      "*-": 1633,
      "objects": 1634,
      "ste": 1635,
      "EX": 1636,
      "No": 1637,
      "annel": 1638,
      "ĊĊĊĠĠĠ": 1639,
      "TestCase": 1640,
      "np": 1641,
      "][": 1642,
      "TR": 1643,
      "ven": 1644,
      "Request": 1645,
      "Ġ-*-": 1646,
      "cmd": 1647,
      "part": 1648,
      "ĠGeneral": 1649,
      "property": 1650,
      "Ġsc": 1651,
      "fore": 1652,
      "EST": 1653,
      "over": 1654,
      "Char": 1655,
      "xy": 1656,
      "Ġparams": 1657,
      "space": 1658,
      "ither": 1659,
      "nsor": 1660,
      "Not": 1661,
      "box": 1662,
      "LO": 1663,
      "utton": 1664,
      "abc": 1665,
      "opyright": 1666,
      "Ġover": 1667,
      "verse": 1668,
      "ĠSM": 1669,
      "Ġobj": 1670,
      "amples": 1671,
      "connect": 1672,
      "uint": 1673,
      "{'": 1674,
      "trol": 1675,
      "Ġrep": 1676,
      "Vi": 1677,
      "frame": 1678,
      "address": 1679,
      "cope": 1680,
      "mt": 1681,
      "ilter": 1682,
      "bl": 1683,
      "quen": 1684,
      "Ġcal": 1685,
      "service": 1686,
      "has": 1687,
      "fail": 1688,
      "cord": 1689,
      "ates": 1690,
      "uture": 1691,
      "atab": 1692,
      "ittest": 1693,
      "Ġag": 1694,
      "tocol": 1695,
      "ESS": 1696,
      "lated": 1697,
      "ful": 1698,
      "sup": 1699,
      "For": 1700,
      "Is": 1701,
      "exten": 1702,
      "abled": 1703,
      "ultip": 1704,
      "200": 1705,
      "Default": 1706,
      "atabase": 1707,
      "source": 1708,
      "ĠANY": 1709,
      "Model": 1710,
      "19": 1711,
      "Ġimp": 1712,
      "Ġtuple": 1713,
      "lease": 1714,
      "Ar": 1715,
      "LI": 1716,
      "ĠSMALL": 1717,
      "ĠAn": 1718,
      "current": 1719,
      "Ġorder": 1720,
      "85": 1721,
      "Ġca": 1722,
      "derr": 1723,
      "ini": 1724,
      "Ġ(\"": 1725,
      "old": 1726,
      "Ġserver": 1727,
      "ression": 1728,
      "Ġ201": 1729,
      "items": 1730,
      "render": 1731,
      "Event": 1732,
      "her": 1733,
      "prefix": 1734,
      "Ġtask": 1735,
      "fter": 1736,
      "ats": 1737,
      "script": 1738,
      "cp": 1739,
      "Cl": 1740,
      "dices": 1741,
      "ents": 1742,
      "cache": 1743,
      "ĠCopyright": 1744,
      "Object": 1745,
      "child": 1746,
      "Ġcontent": 1747,
      "OUT": 1748,
      "element": 1749,
      "termin": 1750,
      "Ġconnection": 1751,
      "čĊĠĠĠĠĠĠĠĠĠĠĠĠĠĠĠ": 1752,
      "ĠEx": 1753,
      "duct": 1754,
      "gram": 1755,
      "By": 1756,
      "Ġdirectory": 1757,
      "mi": 1758,
      "debug": 1759,
      "Ġsuper": 1760,
      "02": 1761,
      "ITAL": 1762,
      "Ġusing": 1763,
      "wo": 1764,
      "Ġtrans": 1765,
      "active": 1766,
      "token": 1767,
      "MP": 1768,
      "äº": 1769,
      "Ġop": 1770,
      "present": 1771,
      "fs": 1772,
      "parent": 1773,
      "ĊĠĠĠĠĠĠĠĠĠĠĠĠĠĠĠĠĠĠĠĠĠ": 1774,
      "17": 1775,
      "adata": 1776,
      "~~": 1777,
      "Ġimage": 1778,
      "local": 1779,
      "ched": 1780,
      "Ġdevice": 1781,
      "replace": 1782,
      "US": 1783,
      "Ġmake": 1784,
      "APITAL": 1785,
      "park": 1786,
      "Size": 1787,
      "ĠUn": 1788,
      "33": 1789,
      "ĠValueError": 1790,
      "18": 1791,
      "sw": 1792,
      "store": 1793,
      "stream": 1794,
      "other": 1795,
      "files": 1796,
      "Ġenv": 1797,
      "Ġdistributed": 1798,
      "AD": 1799,
      "ĠCON": 1800,
      "swith": 1801,
      "Ġroot": 1802,
      "ĠCAPITAL": 1803,
      "action": 1804,
      "Ġlambda": 1805,
      "56": 1806,
      "delete": 1807,
      "Ġbool": 1808,
      "bose": 1809,
      "Ġval": 1810,
      "fir": 1811,
      "ĠJ": 1812,
      "Ġfa": 1813,
      "Ġeach": 1814,
      "range": 1815,
      "ager": 1816,
      "Ġwork": 1817,
      "empty": 1818,
      "perties": 1819,
      "Attribute": 1820,
      "uration": 1821,
      "Ġprovi": 1822,
      "All": 1823,
      "Ġmodi": 1824,
      "Ġsign": 1825,
      "build": 1826,
      "tinue": 1827,
      "Ġax": 1828,
      "lication": 1829,
      "datetime": 1830,
      "Ġprocess": 1831,
      "Account": 1832,
      "level": 1833,
      "Ġvariable": 1834,
      "width": 1835,
      "exception": 1836,
      "Ġwithout": 1837,
      "Ġpri": 1838,
      "image": 1839,
      "Ġho": 1840,
      "Ġchar": 1841,
      "page": 1842,
      "Ġeither": 1843,
      "Ġnames": 1844,
      "Ġshape": 1845,
      "Ġresults": 1846,
      "Ġlink": 1847,
      "less": 1848,
      "ugin": 1849,
      "wh": 1850,
      "lear": 1851,
      "Ġinst": 1852,
      "vert": 1853,
      "ARR": 1854,
      "tk": 1855,
      "Ġquery": 1856,
      "Ġhelp": 1857,
      "ffset": 1858,
      "ffe": 1859,
      "remove": 1860,
      "Ġfilename": 1861,
      "Ġsome": 1862,
      "ights": 1863,
      "sum": 1864,
      "Ġ'/": 1865,
      "50": 1866,
      "lied": 1867,
      "AME": 1868,
      "mock": 1869,
      "\"))": 1870,
      "Ġfollow": 1871,
      "ustom": 1872,
      "trl": 1873,
      "Check": 1874,
      "Ġsame": 1875,
      "now": 1876,
      "DO": 1877,
      "Ġmin": 1878,
      "Ġcase": 1879,
      "QU": 1880,
      "ĊĠĠĠĠĠĠĠĠĠĠĠĠĠĠĠĠĠĠĠĠĠĠĠĠĠĠĠĠĠĠĠ": 1881,
      "gor": 1882,
      "ating": 1883,
      "CharField": 1884,
      "iter": 1885,
      "ous": 1886,
      "stor": 1887,
      "77": 1888,
      "Bu": 1889,
      "Node": 1890,
      "Ġsee": 1891,
      "ost": 1892,
      "Box": 1893,
      "Ġmask": 1894,
      "queue": 1895,
      "ili": 1896,
      "CON": 1897,
      "]]": 1898,
      "Ġsa": 1899,
      "server": 1900,
      "column": 1901,
      "Ġ--------": 1902,
      "ameter": 1903,
      "oper": 1904,
      "Date": 1905,
      "atures": 1906,
      "umns": 1907,
      "compile": 1908,
      "ARRANT": 1909,
      "unk": 1910,
      "ĠWARRANT": 1911,
      "UN": 1912,
      "Ġfloat": 1913,
      "true": 1914,
      "ITY": 1915,
      "password": 1916,
      "settings": 1917,
      "ique": 1918,
      "rapper": 1919,
      "Ġinto": 1920,
      "[-": 1921,
      "req": 1922,
      "Ġback": 1923,
      "Ġtoken": 1924,
      "Ġerr": 1925,
      "Ġjson": 1926,
      "Ġneed": 1927,
      "number": 1928,
      "Ġwhile": 1929,
      "ive": 1930,
      "rate": 1931,
      "stamp": 1932,
      "Ġcontinue": 1933,
      "Exchange": 1934,
      "asses": 1935,
      "Ġge": 1936,
      "The": 1937,
      "Ġcor": 1938,
      "Ġparser": 1939,
      "13": 1940,
      "Ġextra": 1941,
      ")),": 1942,
      "last": 1943,
      "sa": 1944,
      "les": 1945,
      "entry": 1946,
      "make": 1947,
      "Ġrow": 1948,
      "pk": 1949,
      "Ġoper": 1950,
      "oly": 1951,
      "tails": 1952,
      "State": 1953,
      "Ctrl": 1954,
      "Ġexception": 1955,
      "strip": 1956,
      "ccess": 1957,
      "til": 1958,
      "Ġauth": 1959,
      "pc": 1960,
      "ĠZ": 1961,
      "Ġoff": 1962,
      "layer": 1963,
      "ice": 1964,
      "ud": 1965,
      "Ġar": 1966,
      "Ġsoftware": 1967,
      "FT": 1968,
      "xml": 1969,
      "Ġupdate": 1970,
      "description": 1971,
      "','": 1972,
      "ract": 1973,
      "Return": 1974,
      "æľ": 1975,
      "Ġexec": 1976,
      "Fe": 1977,
      "rary": 1978,
      "ined": 1979,
      "alog": 1980,
      "void": 1981,
      "handler": 1982,
      "example": 1983,
      "09": 1984,
      "ĠSet": 1985,
      "Input": 1986,
      "Ġ9": 1987,
      "Ġblock": 1988,
      "resh": 1989,
      "Ġattr": 1990,
      "Out": 1991,
      "Ġpos": 1992,
      "river": 1993,
      "otal": 1994,
      "flow": 1995,
      "},": 1996,
      "23": 1997,
      "email": 1998,
      "Ġdtype": 1999,
      "df": 2000,
      "nown": 2001,
      "Ġlook": 2002,
      "ĠHT": 2003,
      "Fa": 2004,
      "ĠSo": 2005,
      "Inter": 2006,
      "tree": 2007,
      "Ġfound": 2008,
      "zed": 2009,
      "reak": 2010,
      "deo": 2011,
      "06": 2012,
      "mpl": 2013,
      "Ġdb": 2014,
      "Ġentry": 2015,
      "Ċĉĉĉĉ": 2016,
      "older": 2017,
      "connection": 2018,
      "gen": 2019,
      "Ġtemplate": 2020,
      "Ġreturned": 2021,
      "Ġlogging": 2022,
      "tadata": 2023,
      "lag": 2024,
      "27": 2025,
      "utable": 2026,
      "sit": 2027,
      "ĠString": 2028,
      "Ġchild": 2029,
      "Ġthen": 2030,
      "lish": 2031,
      "æĺ": 2032,
      "conf": 2033,
      "\"],": 2034,
      "100": 2035,
      "uuid": 2036,
      "äº¤": 2037,
      "Group": 2038,
      "PE": 2039,
      "tity": 2040,
      "><": 2041,
      "post": 2042,
      "Qry": 2043,
      "ial": 2044,
      "mod": 2045,
      "Ġdf": 2046,
      "ĠYou": 2047,
      "ices": 2048,
      "ript": 2049,
      "util": 2050,
      "cli": 2051,
      "rix": 2052,
      "Log": 2053,
      "related": 2054,
      "thing": 2055,
      "Ġdel": 2056,
      "Ġ},": 2057,
      "vate": 2058,
      "pop": 2059,
      "Ġwas": 2060,
      "rf": 2061,
      "ĠAr": 2062,
      "ĊĠĠĠĠĠĠĠĠĠĠĠĠĠĠĠĠĠ": 2063,
      "Ġpackage": 2064,
      "Tag": 2065,
      "ie": 2066,
      "Ġnon": 2067,
      "...": 2068,
      "quire": 2069,
      "IGN": 2070,
      "ĠPython": 2071,
      "variable": 2072,
      "search": 2073,
      "igh": 2074,
      "ha": 2075,
      "chema": 2076,
      "ution": 2077,
      "Ġyour": 2078,
      "Ġlast": 2079,
      "Ġstd": 2080,
      "lex": 2081,
      "mation": 2082,
      "Ġab": 2083,
      "CL": 2084,
      "ink": 2085,
      "lation": 2086,
      "Ġses": 2087,
      "splay": 2088,
      "ord": 2089,
      "encode": 2090,
      "pache": 2091,
      "ĠWe": 2092,
      "Ġnum": 2093,
      "ride": 2094,
      "Info": 2095,
      "wait": 2096,
      "ĠAND": 2097,
      "top": 2098,
      "ometry": 2099,
      "55": 2100,
      "Dis": 2101,
      "Pre": 2102,
      "Ġexist": 2103,
      "Index": 2104,
      "changed": 2105,
      "Ġdocument": 2106,
      "section": 2107,
      "Ġspecific": 2108,
      "åı·": 2109,
      "dev": 2110,
      "meta": 2111,
      "timeout": 2112,
      "dia": 2113,
      "Ġallow": 2114,
      "è¯": 2115,
      "errors": 2116,
      "Config": 2117,
      "ready": 2118,
      "ĠPar": 2119,
      "job": 2120,
      "site": 2121,
      "sets": 2122,
      "FI": 2123,
      "gener": 2124,
      "FA": 2125,
      "mory": 2126,
      "show": 2127,
      "atform": 2128,
      "ĠTHE": 2129,
      "Lo": 2130,
      "sl": 2131,
      "KE": 2132,
      "oid": 2133,
      "Ġsupport": 2134,
      "]:": 2135,
      "Ġcolumn": 2136,
      "08": 2137,
      "UP": 2138,
      "rag": 2139,
      "Ġ[\"": 2140,
      "Ġtests": 2141,
      "ava": 2142,
      "abs": 2143,
      "Valid": 2144,
      "Ġsettings": 2145,
      "_(": 2146,
      "Ġsession": 2147,
      "Ptr": 2148,
      "ceiv": 2149,
      "div": 2150,
      "ĊĠĠĠĠĠĠĠĠĊĠĠĠĠĠĠĠ": 2151,
      "Ġyield": 2152,
      "---": 2153,
      "tools": 2154,
      "gorith": 2155,
      "Ġservice": 2156,
      "]))": 2157,
      "coder": 2158,
      "Ġwrite": 2159,
      "%(": 2160,
      "lice": 2161,
      "Ġload": 2162,
      "results": 2163,
      "save": 2164,
      "ources": 2165,
      "oreign": 2166,
      "ailable": 2167,
      "dmp": 2168,
      "exit": 2169,
      "ĠCo": 2170,
      "quence": 2171,
      "Create": 2172,
      "ui": 2173,
      "Ġpage": 2174,
      "ify": 2175,
      "IGHT": 2176,
      "Ġspecified": 2177,
      "system": 2178,
      "OL": 2179,
      ")):": 2180,
      "Ġlib": 2181,
      "Ġkwargs": 2182,
      "down": 2183,
      "Ġ'--": 2184,
      "Ġaction": 2185,
      "ART": 2186,
      "Class": 2187,
      "He": 2188,
      "Ġhere": 2189,
      "cour": 2190,
      "Ġaddress": 2191,
      "package": 2192,
      "æĺĵ": 2193,
      "hi": 2194,
      ":`.": 2195,
      "äº¤æĺĵ": 2196,
      "null": 2197,
      "policy": 2198,
      "io": 2199,
      "device": 2200,
      "Ġrule": 2201,
      "ush": 2202,
      "cf": 2203,
      "patch": 2204,
      "lected": 2205,
      "Ġman": 2206,
      "253": 2207,
      "Ġopt": 2208,
      "Context": 2209,
      "Ġkeys": 2210,
      "ILITY": 2211,
      "86": 2212,
      "spaces": 2213,
      "dio": 2214,
      "pool": 2215,
      "bool": 2216,
      "body": 2217,
      "round": 2218,
      "dis": 2219,
      "mote": 2220,
      "cls": 2221,
      "Ġcmd": 2222,
      "Ġexten": 2223,
      "Ġ200": 2224,
      "Ġfunc": 2225,
      "RL": 2226,
      "MA": 2227,
      "src": 2228,
      "Ġlimit": 2229,
      "inst": 2230,
      "Ġdatetime": 2231,
      "XX": 2232,
      "dic": 2233,
      "account": 2234,
      "Ġpoint": 2235,
      "tify": 2236,
      "ctionary": 2237,
      "Ġcho": 2238,
      "Ġ\"%": 2239,
      "cii": 2240,
      "Ġcount": 2241,
      ".\"": 2242,
      "olve": 2243,
      "Ġattribute": 2244,
      "licen": 2245,
      "rtual": 2246,
      "Column": 2247,
      "Net": 2248,
      "onents": 2249,
      "Ġnext": 2250,
      "exists": 2251,
      "Service": 2252,
      "stdout": 2253,
      "ility": 2254,
      "ceived": 2255,
      "{}": 2256,
      "pace": 2257,
      "vision": 2258,
      "Ġmark": 2259,
      "')])": 2260,
      "Ġprefix": 2261,
      "Ver": 2262,
      "random": 2263,
      "ç»": 2264,
      "Ġ'<": 2265,
      "Ġsk": 2266,
      "ĠSoftware": 2267,
      "\\\\": 2268,
      "ĊĠĠĠĠĠĠĠĠĠĠĠĠĠĠĠĠĠĠĠĠĠĠĠĠĠ": 2269,
      "del": 2270,
      "ĠColumn": 2271,
      "project": 2272,
      "left": 2273,
      "cket": 2274,
      "prec": 2275,
      "graph": 2276,
      "ĠException": 2277,
      "Ġwri": 2278,
      "Ġ</": 2279,
      "mbed": 2280,
      "TH": 2281,
      "repr": 2282,
      "course": 2283,
      "`.": 2284,
      "Ġstatus": 2285,
      "Map": 2286,
      "Tests": 2287,
      "\"):": 2288,
      "Ġprogram": 2289,
      "(-": 2290,
      "Py": 2291,
      "direct": 2292,
      "constructor": 2293,
      "Ġdir": 2294,
      "spec": 2295,
      "sm": 2296,
      "Ġproperty": 2297,
      "ĊĊĠĠĠĠĠĠĠĠĠĠĠĠĠĠĠ": 2298,
      "Ġipv": 2299,
      "head": 2300,
      "></": 2301,
      "Cur": 2302,
      "uble": 2303,
      "Ġdis": 2304,
      "Ġpython": 2305,
      "Ġreq": 2306,
      "Param": 2307,
      "28": 2308,
      "VER": 2309,
      "gine": 2310,
      "Ġq": 2311,
      "Ġ'.": 2312,
      "Ġwhere": 2313,
      "sitive": 2314,
      "Ġaxis": 2315,
      "gorithm": 2316,
      "OP": 2317,
      "hash": 2318,
      "!!!!": 2319,
      "cer": 2320,
      "non": 2321,
      "('/": 2322,
      "LIC": 2323,
      "Ġren": 2324,
      "Bro": 2325,
      "Ġtemp": 2326,
      "Ġorig": 2327,
      "trib": 2328,
      "interface": 2329,
      "static": 2330,
      "Al": 2331,
      "Ġ%}": 2332,
      "čĊčĊĠĠĠ": 2333,
      "ULT": 2334,
      "licenses": 2335,
      "Ġafter": 2336,
      "26": 2337,
      "Ġthan": 2338,
      "mbol": 2339,
      "Ġright": 2340,
      "Ġref": 2341,
      "IO": 2342,
      "Ġpassword": 2343,
      "oog": 2344,
      "ish": 2345,
      "Option": 2346,
      "cap": 2347,
      "uter": 2348,
      "asic": 2349,
      "distribu": 2350,
      "ourse": 2351,
      "]),": 2352,
      "'].": 2353,
      "sen": 2354,
      "Ġret": 2355,
      "ublish": 2356,
      "URL": 2357,
      "Ġfind": 2358,
      "Ġtrue": 2359,
      "rule": 2360,
      "Ġ',": 2361,
      "49": 2362,
      "NAME": 2363,
      "Ġlength": 2364,
      "ĊĠĠĠĠĊĠĠĠ": 2365,
      "UB": 2366,
      "oreignKey": 2367,
      "assi": 2368,
      "alize": 2369,
      "curity": 2370,
      "internet": 2371,
      "mented": 2372,
      "environ": 2373,
      "first": 2374,
      "\"])": 2375,
      "send": 2376,
      "gex": 2377,
      "span": 2378,
      "ĠWITHOUT": 2379,
      "ported": 2380,
      "ATE": 2381,
      "Count": 2382,
      "89": 2383,
      "Ġthere": 2384,
      "Ġits": 2385,
      "oogle": 2386,
      "OS": 2387,
      "fier": 2388,
      "seriali": 2389,
      "cho": 2390,
      "force": 2391,
      "Trans": 2392,
      "formation": 2393,
      "MM": 2394,
      "war": 2395,
      "ince": 2396,
      "Ġnorm": 2397,
      "Ġparse": 2398,
      "cul": 2399,
      "emp": 2400,
      "future": 2401,
      "ĠIS": 2402,
      "common": 2403,
      "startswith": 2404,
      "indows": 2405,
      "ActionField": 2406,
      "Pack": 2407,
      "ared": 2408,
      "Ġ'__": 2409,
      "ĠFor": 2410,
      "([[": 2411,
      "lobal": 2412,
      "Element": 2413,
      "Ġcr": 2414,
      "Ġinclude": 2415,
      "six": 2416,
      "Device": 2417,
      "ABILITY": 2418,
      "auto": 2419,
      "Ġdest": 2420,
      "Ġlong": 2421,
      "lower": 2422,
      "let": 2423,
      "quot": 2424,
      "Ġdetails": 2425,
      "CThostFtdcQry": 2426,
      "ati": 2427,
      "stop": 2428,
      "only": 2429,
      "admin": 2430,
      "Ġreturns": 2431,
      "TY": 2432,
      "TEST": 2433,
      "next": 2434,
      "Response": 2435,
      "Ġ...": 2436,
      "umpy": 2437,
      "Widget": 2438,
      "ait": 2439,
      "gin": 2440,
      "identi": 2441,
      "tests": 2442,
      "ĠPro": 2443,
      "color": 2444,
      "username": 2445,
      "37": 2446,
      "Ġheader": 2447,
      "Ġtitle": 2448,
      "wise": 2449,
      "æĬ": 2450,
      "Ġfin": 2451,
      "Ġact": 2452,
      "ĠFOR": 2453,
      "ffff": 2454,
      "zero": 2455,
      "čĊč": 2456,
      "tx": 2457,
      "Ġstyle": 2458,
      "mission": 2459,
      "Ġimplied": 2460,
      "Broker": 2461,
      "++": 2462,
      "44": 2463,
      "Ġrandom": 2464,
      "skip": 2465,
      "View": 2466,
      "Tree": 2467,
      "assed": 2468,
      "terms": 2469,
      "Ġcontrol": 2470,
      "Ġlate": 2471,
      "lector": 2472,
      "logger": 2473,
      "{%": 2474,
      "Ġini": 2475,
      "As": 2476,
      "Ġbreak": 2477,
      "ĊĠĠĠĠĠĠĠĠĠĠĠĠĠĠĠĠĠĠĠĠĠĠ": 2478,
      "Ġlocal": 2479,
      "groups": 2480,
      "stack": 2481,
      "Ġbin": 2482,
      "Ġlanguage": 2483,
      "36": 2484,
      "added": 2485,
      "argument": 2486,
      "blank": 2487,
      "offset": 2488,
      "argv": 2489,
      "IES": 2490,
      "tition": 2491,
      "Ġfail": 2492,
      "virtual": 2493,
      "constant": 2494,
      "keep": 2495,
      "Ġsearch": 2496,
      "AccountField": 2497,
      "Le": 2498,
      "ĊĠĠ": 2499,
      "stderr": 2500,
      "Ġalso": 2501,
      "Ġtensor": 2502,
      "EL": 2503,
      "ĊĠĠĠĠĠĠĠĠĠĠĠĠĠĠĠĠĠĠĠĠĠĠĠĠĠĠĠĠĠ": 2504,
      "ingle": 2505,
      "Ġbuild": 2506,
      "multi": 2507,
      "Ġsample": 2508,
      "Ref": 2509,
      "eq": 2510,
      "Ġ''": 2511,
      "Ġbet": 2512,
      "Ġwarning": 2513,
      "'''": 2514,
      "partner": 2515,
      "ĠTO": 2516,
      "ranch": 2517,
      "tmp": 2518,
      "Ġimple": 2519,
      ".\")": 2520,
      "fl": 2521,
      "oci": 2522,
      "Result": 2523,
      "Ġoffset": 2524,
      "Handler": 2525,
      "ings": 2526,
      "eval": 2527,
      "AND": 2528,
      "Query": 2529,
      "decode": 2530,
      "oding": 2531,
      "Ġmain": 2532,
      "Ċĉĉĉĉĉ": 2533,
      "Ġlines": 2534,
      "Ġ>=": 2535,
      "Message": 2536,
      "unittest": 2537,
      "Ġbytes": 2538,
      "style": 2539,
      "attern": 2540,
      "ĠSt": 2541,
      "dump": 2542,
      "ĠQt": 2543,
      "Form": 2544,
      "br": 2545,
      "Ġtwo": 2546,
      "Ġshow": 2547,
      "win": 2548,
      "Ġcoding": 2549,
      "Ġstream": 2550,
      "07": 2551,
      "Module": 2552,
      "coun": 2553,
      "very": 2554,
      "mplete": 2555,
      "norm": 2556,
      "INT": 2557,
      ".')": 2558,
      "limit": 2559,
      "tags": 2560,
      "ators": 2561,
      "Ġass": 2562,
      "Ġids": 2563,
      "Ġ'-": 2564,
      "exc": 2565,
      "RA": 2566,
      "zip": 2567,
      "lambda": 2568,
      "ĠCheck": 2569,
      "']:": 2570,
      "usr": 2571,
      ":%": 2572,
      "Col": 2573,
      "ForeignKey": 2574,
      "Instance": 2575,
      "Exec": 2576,
      "OW": 2577,
      "Th": 2578,
      "æī": 2579,
      "Ġbo": 2580,
      "batch": 2581,
      "sql": 2582,
      "Ġthread": 2583,
      "Ġauto": 2584,
      "book": 2585,
      "ift": 2586,
      "Ġobjects": 2587,
      "Sub": 2588,
      "tainer": 2589,
      "seq": 2590,
      "idden": 2591,
      "primary": 2592,
      "volume": 2593,
      "clo": 2594,
      "height": 2595,
      "Ġdataset": 2596,
      "Ġ'$": 2597,
      "Ġvoid": 2598,
      "herit": 2599,
      "sten": 2600,
      "real": 2601,
      "dered": 2602,
      "like": 2603,
      "ORT": 2604,
      "day": 2605,
      "Ġutf": 2606,
      "Ġiter": 2607,
      "Ġcre": 2608,
      "buf": 2609,
      "Ġview": 2610,
      "Ġheaders": 2611,
      "Ġdup": 2612,
      "parser": 2613,
      "pb": 2614,
      "ĠIP": 2615,
      "Ġweb": 2616,
      "bytes": 2617,
      "ultiple": 2618,
      "From": 2619,
      "Ġerrors": 2620,
      "flags": 2621,
      "Ġav": 2622,
      "namespaces": 2623,
      "conds": 2624,
      "Ġemail": 2625,
      "Ġresp": 2626,
      "assertEquals": 2627,
      "EV": 2628,
      "Ġ_(\"": 2629,
      "ĠNOT": 2630,
      "ob": 2631,
      "enter": 2632,
      "Ġbefore": 2633,
      "web": 2634,
      "Ġold": 2635,
      "oolean": 2636,
      "case": 2637,
      "ĠArgs": 2638,
      "And": 2639,
      "Ġloc": 2640,
      "ĠVer": 2641,
      "Call": 2642,
      "FOR": 2643,
      "fication": 2644,
      "Ġob": 2645,
      "Ġsubprocess": 2646,
      "helper": 2647,
      "PI": 2648,
      "dep": 2649,
      "Ġfollowing": 2650,
      "ĊĠĠĠĠĠĠĠĠĠĠĠĠĠĠĠĠĠĠĠĠĠĠĠĠĠĠ": 2651,
      "ello": 2652,
      "wd": 2653,
      "Integer": 2654,
      "Ġtimeout": 2655,
      "Ġinterface": 2656,
      "Ġmodify": 2657,
      "ĠCreate": 2658,
      "Ġdep": 2659,
      "Ġparameter": 2660,
      "Ġ/>": 2661,
      "points": 2662,
      "45": 2663,
      "actions": 2664,
      "sv": 2665,
      "txt": 2666,
      "Ġfilter": 2667,
      "rop": 2668,
      "Ġwant": 2669,
      "Reg": 2670,
      "Ġdiffe": 2671,
      "Tool": 2672,
      "ale": 2673,
      "can": 2674,
      "çº": 2675,
      "Ġalready": 2676,
      "components": 2677,
      "Ġpolicy": 2678,
      "Ġoptional": 2679,
      "Ġlevel": 2680,
      "ĠKey": 2681,
      "channel": 2682,
      "etch": 2683,
      "register": 2684,
      "plot": 2685,
      "wer": 2686,
      "Ġstruct": 2687,
      "vestor": 2688,
      "properties": 2689,
      "Investor": 2690,
      "dirs": 2691,
      "mer": 2692,
      "Ġpassed": 2693,
      "kemon": 2694,
      "ĊĊĉ": 2695,
      "author": 2696,
      "wx": 2697,
      "Ġunicode": 2698,
      "CE": 2699,
      "css": 2700,
      "fn": 2701,
      "gg": 2702,
      "aster": 2703,
      "ĠFound": 2704,
      "Ġdictionary": 2705,
      "ĠNot": 2706,
      "39": 2707,
      "tf": 2708,
      "assertFalse": 2709,
      "ĠCom": 2710,
      "font": 2711,
      "required": 2712,
      "Ġremove": 2713,
      "sport": 2714,
      "ĠNo": 2715,
      "backend": 2716,
      "Ġlogger": 2717,
      "Do": 2718,
      "setup": 2719,
      "Ġarguments": 2720,
      "Core": 2721,
      "ear": 2722,
      "extra": 2723,
      "Sign": 2724,
      "profile": 2725,
      "ĠURL": 2726,
      "ib": 2727,
      "rel": 2728,
      "ason": 2729,
      "Ġbody": 2730,
      "button": 2731,
      "Ġfree": 2732,
      "Ġtf": 2733,
      "except": 2734,
      "'})": 2735,
      "scope": 2736,
      "cause": 2737,
      "Header": 2738,
      "Frame": 2739,
      "QL": 2740,
      "play": 2741,
      "tuple": 2742,
      "ries": 2743,
      "olver": 2744,
      "nodes": 2745,
      "Ġcreated": 2746,
      "Ġprovided": 2747,
      "OK": 2748,
      "metadata": 2749,
      "Ġfalse": 2750,
      "ĠType": 2751,
      "Ġ<=": 2752,
      "Ġalong": 2753,
      "Parser": 2754,
      "af": 2755,
      "Ġ,": 2756,
      "Req": 2757,
      "Ġsess": 2758,
      "uster": 2759,
      "42": 2760,
      "Lay": 2761,
      "Ġgetattr": 2762,
      "Ġverbose": 2763,
      ")],": 2764,
      "UM": 2765,
      "used": 2766,
      "****************": 2767,
      "ba": 2768,
      "Content": 2769,
      "Comp": 2770,
      "ĠFoundation": 2771,
      "Ġhandle": 2772,
      "Ġsystem": 2773,
      "metri": 2774,
      "features": 2775,
      "================================": 2776,
      "OrderField": 2777,
      "38": 2778,
      "rec": 2779,
      "peri": 2780,
      "ERR": 2781,
      "ĊĠĠĠĠĠĠĠĠĠĠĠĠĠĠĠĠĠĠĠĠĠĠĠĠĠĠĠĠĠĠĠĠĠĠĠ": 2782,
      "missions": 2783,
      "ditional": 2784,
      "MO": 2785,
      "Mock": 2786,
      "rations": 2787,
      "Sh": 2788,
      "Ġnull": 2789,
      "')],": 2790,
      "Ġeven": 2791,
      "fake": 2792,
      "Change": 2793,
      "40": 2794,
      "Button": 2795,
      "PAT": 2796,
      "Ġap": 2797,
      "pect": 2798,
      "HTTP": 2799,
      "({": 2800,
      "ENSE": 2801,
      "WAR": 2802,
      "mal": 2803,
      "thread": 2804,
      "Ġinfo": 2805,
      "andard": 2806,
      "Ġconn": 2807,
      "Position": 2808,
      "ĠHTTP": 2809,
      "istr": 2810,
      "Ġtree": 2811,
      "diff": 2812,
      "ternal": 2813,
      "]['": 2814,
      "Ġbeen": 2815,
      "ose": 2816,
      "åĲ": 2817,
      "Ġfl": 2818,
      "Ġ[[": 2819,
      "ĠIt": 2820,
      "Ġencoding": 2821,
      "Ġchanged": 2822,
      "FAULT": 2823,
      "sparse": 2824,
      "lour": 2825,
      "]])": 2826,
      "ĠAdd": 2827,
      "vironment": 2828,
      "Ġ[(": 2829,
      "licit": 2830,
      "Output": 2831,
      "=['": 2832,
      "dat": 2833,
      "ession": 2834,
      "ube": 2835,
      "Ns": 2836,
      "éĩ": 2837,
      "ensor": 2838,
      "uri": 2839,
      "Ġ20": 2840,
      "TypeError": 2841,
      "include": 2842,
      "An": 2843,
      "bit": 2844,
      "ium": 2845,
      "sort": 2846,
      "Ġrecord": 2847,
      "Ġrepresent": 2848,
      "served": 2849,
      "fit": 2850,
      "60": 2851,
      "With": 2852,
      "gest": 2853,
      "Ġsocket": 2854,
      "ĠCh": 2855,
      "cies": 2856,
      "Ġwidget": 2857,
      "Ġhasattr": 2858,
      "extend": 2859,
      "assertIs": 2860,
      "Ġuseful": 2861,
      "Ġlin": 2862,
      "rew": 2863,
      "Ġmat": 2864,
      "Ġjust": 2865,
      "00000000": 2866,
      "Interface": 2867,
      "48": 2868,
      "CR": 2869,
      "IB": 2870,
      "warning": 2871,
      "widget": 2872,
      "Ġreal": 2873,
      "Ġempty": 2874,
      "åħ": 2875,
      "Ġjoin": 2876,
      "Ġtop": 2877,
      "ĠID": 2878,
      "ector": 2879,
      "Ġlabels": 2880,
      "ĠWARRANTIES": 2881,
      "Per": 2882,
      "ef": 2883,
      "edit": 2884,
      "https": 2885,
      "We": 2886,
      "driver": 2887,
      "rs": 2888,
      "speci": 2889,
      "ĠAt": 2890,
      "ATION": 2891,
      "modules": 2892,
      "cry": 2893,
      "Ġdon": 2894,
      "resource": 2895,
      "forms": 2896,
      "Feature": 2897,
      "sentry": 2898,
      "EXT": 2899,
      "'+": 2900,
      "place": 2901,
      "Ġterms": 2902,
      "ĠMock": 2903,
      "YR": 2904,
      "dar": 2905,
      "Ġinclu": 2906,
      "INE": 2907,
      "Ġparameters": 2908,
      "ski": 2909,
      "ĠUser": 2910,
      "Ġ}}": 2911,
      "Ġregister": 2912,
      "ç¼": 2913,
      "\").": 2914,
      "ĠAnsible": 2915,
      "ç¼ĸ": 2916,
      "Ġsrc": 2917,
      "unique": 2918,
      "dist": 2919,
      "KEY": 2920,
      "Ġavailable": 2921,
      "EM": 2922,
      "NESS": 2923,
      "dtype": 2924,
      "ateg": 2925,
      "ĠFree": 2926,
      "penden": 2927,
      "={": 2928,
      "Image": 2929,
      "TO": 2930,
      "act": 2931,
      "Ġarch": 2932,
      "Ġdebug": 2933,
      "INGS": 2934,
      "Run": 2935,
      "Ġfull": 2936,
      "Ġreceived": 2937,
      "commit": 2938,
      "strument": 2939,
      "full": 2940,
      "argin": 2941,
      "REE": 2942,
      "execute": 2943,
      "Current": 2944,
      "35": 2945,
      "java": 2946,
      "indices": 2947,
      "cision": 2948,
      "ways": 2949,
      "Ġcolor": 2950,
      "Gener": 2951,
      "brow": 2952,
      "alt": 2953,
      "ĠEn": 2954,
      "callback": 2955,
      "stead": 2956,
      "lan": 2957,
      "Ġabs": 2958,
      "Ġselect": 2959,
      "mplemented": 2960,
      "quires": 2961,
      "methods": 2962,
      "Ġcache": 2963,
      ".*": 2964,
      "Ġnumpy": 2965,
      "Ġdatabase": 2966,
      "HTML": 2967,
      "67": 2968,
      "DF": 2969,
      "fin": 2970,
      "Ġ),": 2971,
      "tice": 2972,
      "Ġph": 2973,
      "ITNESS": 2974,
      "Ġconstant": 2975,
      "/%": 2976,
      "score": 2977,
      "ERCH": 2978,
      "labels": 2979,
      "mbedding": 2980,
      "/',": 2981,
      "unicode": 2982,
      "olution": 2983,
      "ĊĠĠĠĠĠĠĠĠĠĠĠĠĠĠĠĠĠĠĠĠĠĠĠĠĠĠĠĠĠĠ": 2984,
      "Ġattributes": 2985,
      "POSE": 2986,
      "ARTIC": 2987,
      "80": 2988,
      "This": 2989,
      "cing": 2990,
      "Ġinstead": 2991,
      "sis": 2992,
      "Ġuv": 2993,
      "ĠData": 2994,
      "Ġelements": 2995,
      "chedule": 2996,
      "DB": 2997,
      "Ġfake": 2998,
      "side": 2999,
      "CThostFtdcExchange": 3000,
      "plugin": 3001,
      "#!": 3002,
      "Client": 3003,
      "ux": 3004,
      "encoding": 3005,
      "ĠAll": 3006,
      "Ġsta": 3007,
      "PATH": 3008,
      "ERCHANT": 3009,
      "Open": 3010,
      "Wrapper": 3011,
      "car": 3012,
      "sn": 3013,
      "roid": 3014,
      "comb": 3015,
      "ummy": 3016,
      "ween": 3017,
      "Ġcalled": 3018,
      "tex": 3019,
      "olute": 3020,
      "classes": 3021,
      "(\"%": 3022,
      "ĠFITNESS": 3023,
      "access": 3024,
      "press": 3025,
      "Ġpresent": 3026,
      "æľŁ": 3027,
      "Helper": 3028,
      "IZ": 3029,
      "VE": 3030,
      "aded": 3031,
      "ĠOpen": 3032,
      "Ġinteger": 3033,
      "ntry": 3034,
      "timestamp": 3035,
      "URPOSE": 3036,
      "ized": 3037,
      "Ad": 3038,
      "Ġqu": 3039,
      "Ġindices": 3040,
      "ĠPURPOSE": 3041,
      "Ġtypes": 3042,
      "ULAR": 3043,
      "=%": 3044,
      "release": 3045,
      "ĠPARTIC": 3046,
      "circ": 3047,
      "ancel": 3048,
      "ĠPARTICULAR": 3049,
      "Link": 3050,
      "bind": 3051,
      "Ġ],": 3052,
      "Ġreference": 3053,
      "pec": 3054,
      "mac": 3055,
      "Ġunittest": 3056,
      "links": 3057,
      "istry": 3058,
      "({'": 3059,
      "Str": 3060,
      "aa": 3061,
      "ttp": 3062,
      "ĊĊĠĠĠĠĠ": 3063,
      "uff": 3064,
      "Ġ\"-": 3065,
      "Ġtmp": 3066,
      "Ġexc": 3067,
      "tach": 3068,
      "Ġresource": 3069,
      "ĠMERCHANT": 3070,
      ":]": 3071,
      "Filter": 3072,
      "gm": 3073,
      "Ġ----": 3074,
      "46": 3075,
      "={'": 3076,
      "Code": 3077,
      "HO": 3078,
      "Warning": 3079,
      "Ġ\"/": 3080,
      "Ġfla": 3081,
      "Ġmath": 3082,
      "~~~~": 3083,
      "Ġ\"'": 3084,
      "Ġrepo": 3085,
      "Ġpublish": 3086,
      "Ġscope": 3087,
      ")).": 3088,
      "Ġbecause": 3089,
      "columns": 3090,
      "imum": 3091,
      "Ġchoices": 3092,
      "Window": 3093,
      "ĠĊĠĠĠ": 3094,
      "sec": 3095,
      "opt": 3096,
      "ĠBO": 3097,
      "\"}": 3098,
      "+)": 3099,
      "grid": 3100,
      "orig": 3101,
      "Ġthey": 3102,
      "vices": 3103,
      "Ġaccount": 3104,
      "IONS": 3105,
      "On": 3106,
      "bot": 3107,
      "fp": 3108,
      "many": 3109,
      "location": 3110,
      "Ġnetwork": 3111,
      "Ġlater": 3112,
      "tep": 3113,
      "ily": 3114,
      "dataset": 3115,
      "CThostFtdcReq": 3116,
      "ERROR": 3117,
      "SER": 3118,
      "aly": 3119,
      "ship": 3120,
      "coded": 3121,
      "click": 3122,
      "75": 3123,
      "=(": 3124,
      "Ġinformation": 3125,
      "mplex": 3126,
      "step": 3127,
      "CK": 3128,
      "(['": 3129,
      "æĪ": 3130,
      "Ġcourse": 3131,
      "itch": 3132,
      "verage": 3133,
      "ĠSe": 3134,
      "signed": 3135,
      "eff": 3136,
      "ize": 3137,
      "raint": 3138,
      "apping": 3139,
      "nal": 3140,
      "stats": 3141,
      "Ġmulti": 3142,
      "hether": 3143,
      "cast": 3144,
      "Ġexpression": 3145,
      ")[": 3146,
      "dot": 3147,
      "security": 3148,
      "okup": 3149,
      "Attr": 3150,
      "Server": 3151,
      "Ġstdout": 3152,
      "BU": 3153,
      "repo": 3154,
      "('\\": 3155,
      "way": 3156,
      "sym": 3157,
      ")])": 3158,
      "cc": 3159,
      "Ġcf": 3160,
      "ĊĉĠ": 3161,
      "ĠImport": 3162,
      "axis": 3163,
      "stract": 3164,
      "loy": 3165,
      "Ġbla": 3166,
      "raise": 3167,
      "contrib": 3168,
      "optional": 3169,
      "Implemented": 3170,
      "Ġsingle": 3171,
      "Ġurllib": 3172,
      "Ġexisting": 3173,
      "ĠMERCHANTABILITY": 3174,
      "comment": 3175,
      "Ġpost": 3176,
      "Ġaccess": 3177,
      "]],": 3178,
      "poly": 3179,
      "window": 3180,
      "Ġcustom": 3181,
      "ditions": 3182,
      "Ġsend": 3183,
      "ured": 3184,
      "delta": 3185,
      "iso": 3186,
      "lendar": 3187,
      "ĠDO": 3188,
      "ariant": 3189,
      "Protocol": 3190,
      "ULL": 3191,
      "cent": 3192,
      "Ġhash": 3193,
      "ĊĠĠĠĠĠĠ": 3194,
      "Ġsorted": 3195,
      "------------": 3196,
      "precated": 3197,
      "EG": 3198,
      "rand": 3199,
      "sume": 3200,
      "ana": 3201,
      "Ġ(_": 3202,
      "Ġdelete": 3203,
      "END": 3204,
      "Ġlike": 3205,
      "----------------------------------------------------------------": 3206,
      "ferences": 3207,
      "{{": 3208,
      "çĶ": 3209,
      "Ġfp": 3210,
      "Ġdist": 3211,
      "Ġmember": 3212,
      "gnore": 3213,
      "Ġitems": 3214,
      "Ġmethods": 3215,
      "git": 3216,
      "hs": 3217,
      "mul": 3218,
      "tab": 3219,
      "Ġwar": 3220,
      "sive": 3221,
      "idx": 3222,
      "ĠList": 3223,
      "shot": 3224,
      "Ġ----------": 3225,
      "allow": 3226,
      "duce": 3227,
      "pha": 3228,
      "Callback": 3229,
      "__,": 3230,
      "vider": 3231,
      "license": 3232,
      "Ġxml": 3233,
      "Ġfunctions": 3234,
      "control": 3235,
      "Seriali": 3236,
      "manager": 3237,
      "Man": 3238,
      "Qt": 3239,
      "greg": 3240,
      "ascii": 3241,
      "Ġthem": 3242,
      "ular": 3243,
      "issing": 3244,
      "Stream": 3245,
      "train": 3246,
      "(?": 3247,
      "handle": 3248,
      "sq": 3249,
      "sure": 3250,
      "tered": 3251,
      "Ġwx": 3252,
      "App": 3253,
      "Bar": 3254,
      "gt": 3255,
      "Ġ{\"": 3256,
      "Ġscript": 3257,
      "vm": 3258,
      "Ġnow": 3259,
      "some": 3260,
      "Ġcontaining": 3261,
      "Ġbinary": 3262,
      "ç¼ĸåı·": 3263,
      "BO": 3264,
      "long": 3265,
      "ĠCT": 3266,
      "Ġgra": 3267,
      "COMM": 3268,
      "IME": 3269,
      "Ġsum": 3270,
      "')),": 3271,
      "Ġvar": 3272,
      "Ġdifferent": 3273,
      "#!/": 3274,
      "fd": 3275,
      "æĹ": 3276,
      "Ġidenti": 3277,
      "Ġsave": 3278,
      "dirname": 3279,
      "byte": 3280,
      "Ġmapper": 3281,
      "MS": 3282,
      "pol": 3283,
      "ystem": 3284,
      "umerate": 3285,
      "'/": 3286,
      "Down": 3287,
      "report": 3288,
      "Ġsure": 3289,
      "opts": 3290,
      "Ġexample": 3291,
      "ĠGe": 3292,
      "login": 3293,
      "platform": 3294,
      "Mark": 3295,
      "Ro": 3296,
      "inherit": 3297,
      "ntax": 3298,
      "verbose": 3299,
      "Connection": 3300,
      "EVT": 3301,
      "76": 3302,
      "cb": 3303,
      "entic": 3304,
      "lim": 3305,
      "ric": 3306,
      "Ġbound": 3307,
      "ĠĠĠĠĠĠĠĠĠ": 3308,
      "ĠĠĠĠĠĠĠĠĠĠ": 3309,
      "Ġwait": 3310,
      "prog": 3311,
      "proto": 3312,
      "structDict": 3313,
      "Ġskip": 3314,
      "this": 3315,
      "ĠParameters": 3316,
      "ĠCThostFtdc": 3317,
      "ward": 3318,
      "alled": 3319,
      "icro": 3320,
      "IND": 3321,
      "Ġproject": 3322,
      "Trading": 3323,
      "AGE": 3324,
      "Ġbetween": 3325,
      "indent": 3326,
      "Ġreport": 3327,
      "assertAll": 3328,
      "Ġhandler": 3329,
      "buffer": 3330,
      "ĠBase": 3331,
      "################################################################": 3332,
      "Ġdoesn": 3333,
      "æīĢ": 3334,
      "LIST": 3335,
      "Ġrender": 3336,
      "88": 3337,
      "Ġapi": 3338,
      "layout": 3339,
      "binary": 3340,
      "DIFF": 3341,
      "safe": 3342,
      "RES": 3343,
      "Ġtri": 3344,
      "raises": 3345,
      "itmap": 3346,
      "aml": 3347,
      "ATA": 3348,
      "Attributes": 3349,
      "Ġobtain": 3350,
      "cat": 3351,
      "ki": 3352,
      "nu": 3353,
      "wn": 3354,
      "tensor": 3355,
      "engine": 3356,
      "product": 3357,
      "Auto": 3358,
      "0001": 3359,
      "ending": 3360,
      "ĠOption": 3361,
      ").__": 3362,
      "ĠĠĠĠĠĠĠĠĠĠĠĠĠĠĠĠĠĠĠĠĠĠĠĠĠĠĠĠĠĠĠĠ": 3363,
      "ixed": 3364,
      "Ġcharac": 3365,
      "Packet": 3366,
      "Entry": 3367,
      "memory": 3368,
      "lative": 3369,
      "iler": 3370,
      "Ġseriali": 3371,
      "DateTime": 3372,
      "ĠComp": 3373,
      "31": 3374,
      "Host": 3375,
      "Len": 3376,
      "Label": 3377,
      "OFT": 3378,
      "Rsp": 3379,
      "Sto": 3380,
      "yp": 3381,
      "display": 3382,
      "most": 3383,
      "istory": 3384,
      "WARE": 3385,
      "Number": 3386,
      "SON": 3387,
      "rer": 3388,
      "tiv": 3389,
      "Ġinte": 3390,
      "tran": 3391,
      "Ġsecond": 3392,
      "bove": 3393,
      "Ġraw": 3394,
      "Ġconfiguration": 3395,
      "IntegerField": 3396,
      "Session": 3397,
      "cle": 3398,
      "enable": 3399,
      "fill": 3400,
      "igration": 3401,
      "ĠDE": 3402,
      "ĠMe": 3403,
      "Ġsetup": 3404,
      "feature": 3405,
      "xxxx": 3406,
      "Ġstatic": 3407,
      "(__": 3408,
      "Int": 3409,
      "Line": 3410,
      "èµ": 3411,
      "Ġ[])": 3412,
      "ĠPo": 3413,
      "urllib": 3414,
      "Quote": 3415,
      "support": 3416,
      "TYPE": 3417,
      "Ġwarnings": 3418,
      "Ġkeep": 3419,
      "sep": 3420,
      "oto": 3421,
      "Ġforce": 3422,
      "agraph": 3423,
      "Ġbyte": 3424,
      "domain": 3425,
      "è¡": 3426,
      "Ġ'_": 3427,
      "Ġwindow": 3428,
      "Ġdefined": 3429,
      "Ġus": 3430,
      "RAW": 3431,
      "lr": 3432,
      "total": 3433,
      "vor": 3434,
      "Ġuint": 3435,
      "ical": 3436,
      "Ġusername": 3437,
      "Ġidx": 3438,
      "Ġfeature": 3439,
      "ĠWARRANTY": 3440,
      ")\"\"\"": 3441,
      "SH": 3442,
      "Sync": 3443,
      "see": 3444,
      "Ġstderr": 3445,
      "Control": 3446,
      "ĠRun": 3447,
      "hort": 3448,
      "åį": 3449,
      "record": 3450,
      "entries": 3451,
      "Read": 3452,
      "Ġdisplay": 3453,
      "Ġpaths": 3454,
      "ixin": 3455,
      "Ġadded": 3456,
      "Ġgeometry": 3457,
      "ffix": 3458,
      "Ġel": 3459,
      "remote": 3460,
      "Ġreverse": 3461,
      "Ġrc": 3462,
      "ĊĠĠĠĠĠĠĠĠĠĠĠĠĠĠĠĠĠĠĠĠĠĠĠĠĠĠĠĠĠĠĠĠ": 3463,
      "dense": 3464,
      "äº¤æĺĵæīĢ": 3465,
      "cript": 3466,
      "insert": 3467,
      "rable": 3468,
      "ĠSIGN": 3469,
      "position": 3470,
      "cale": 3471,
      "leanup": 3472,
      "samples": 3473,
      "Ġ$": 3474,
      "Ġabove": 3475,
      "Dir": 3476,
      "pid": 3477,
      "uce": 3478,
      "xb": 3479,
      "Ġalias": 3480,
      "repe": 3481,
      "sity": 3482,
      "lause": 3483,
      "aries": 3484,
      "Ġzip": 3485,
      "Ġpartner": 3486,
      "Ġsignal": 3487,
      "ĠNotImplemented": 3488,
      "zone": 3489,
      "čĊĠĠĠĠĠĠĠĠĠĠĠĠĠĠĠĠĠĠĠ": 3490,
      "Ġ):": 3491,
      "assword": 3492,
      "matrix": 3493,
      "curses": 3494,
      "ACK": 3495,
      "Auth": 3496,
      "lang": 3497,
      "mk": 3498,
      "Ġ100": 3499,
      "respon": 3500,
      "xture": 3501,
      "times": 3502,
      "classmethod": 3503,
      "256": 3504,
      "POST": 3505,
      "Ġfailed": 3506,
      "Pick": 3507,
      "false": 3508,
      "Ġti": 3509,
      "stat": 3510,
      "Ġcell": 3511,
      "Ġenumerate": 3512,
      "weights": 3513,
      "èµĦ": 3514,
      ")\"": 3515,
      "Margin": 3516,
      "orter": 3517,
      "Ġim": 3518,
      "comm": 3519,
      "rency": 3520,
      "ticle": 3521,
      "rectly": 3522,
      "Ġ&',": 3523,
      "-%": 3524,
      "Ġsw": 3525,
      "Ġ((": 3526,
      "simple": 3527,
      "ĠName": 3528,
      "Ġcolumns": 3529,
      "åħ¬": 3530,
      "Back": 3531,
      "Ge": 3532,
      "zy": 3533,
      "dest": 3534,
      "attribute": 3535,
      "tool": 3536,
      "ization": 3537,
      "Ġopts": 3538,
      "ĠTypeError": 3539,
      "è¡Į": 3540,
      "Loc": 3541,
      "imat": 3542,
      "pr": 3543,
      "Ġredistribu": 3544,
      "urls": 3545,
      "ĠsetUp": 3546,
      "pping": 3547,
      "Ġcomment": 3548,
      "DEFAULT": 3549,
      "Ġcontains": 3550,
      "functions": 3551,
      "PAR": 3552,
      "rp": 3553,
      "desc": 3554,
      "elow": 3555,
      "testType": 3556,
      "Ġeval": 3557,
      "pose": 3558,
      "Simple": 3559,
      "serialize": 3560,
      "Ġimplement": 3561,
      "ĠĊĠĠĠĠĠĠĠĠĠĠĠ": 3562,
      "invalid": 3563,
      "medi": 3564,
      "posix": 3565,
      "lenium": 3566,
      "ĠNote": 3567,
      "ordin": 3568,
      "ĠVersion": 3569,
      "'\",": 3570,
      "ev": 3571,
      "utes": 3572,
      "Ġite": 3573,
      "fici": 3574,
      "vious": 3575,
      "UBLE": 3576,
      "wrap": 3577,
      "Ġpick": 3578,
      "############": 3579,
      "crement": 3580,
      "Ġassoci": 3581,
      "weight": 3582,
      "DS": 3583,
      "ground": 3584,
      "Ġhtml": 3585,
      "Ġ12": 3586,
      "ĠApache": 3587,
      "Build": 3588,
      "pkg": 3589,
      "Ġabout": 3590,
      "Ca": 3591,
      "Row": 3592,
      "Ġsen": 3593,
      "Ġbuil": 3594,
      "Ġpublished": 3595,
      "NE": 3596,
      "Volume": 3597,
      "apache": 3598,
      "zation": 3599,
      "Ġtake": 3600,
      "loader": 3601,
      "ĠDi": 3602,
      "ĠDRAW": 3603,
      "Ġsplit": 3604,
      "CLU": 3605,
      "Ġdocumentation": 3606,
      "ĠBOX": 3607,
      "ĠDRAWINGS": 3608,
      "79": 3609,
      "dle": 3610,
      "hen": 3611,
      "sue": 3612,
      "('-": 3613,
      "Instrument": 3614,
      "\"].": 3615,
      "mbols": 3616,
      "ĠRa": 3617,
      "1111": 3618,
      "ĠQtCore": 3619,
      "ĠImportError": 3620,
      "Mo": 3621,
      "Ġflag": 3622,
      "ctype": 3623,
      "math": 3624,
      "Ġ%(": 3625,
      "åı¸": 3626,
      "æĪ·": 3627,
      "åħ¬åı¸": 3628,
      "sample": 3629,
      "Ġsql": 3630,
      "tact": 3631,
      "mapper": 3632,
      "Ġeq": 3633,
      "ORS": 3634,
      "Ġtags": 3635,
      "Command": 3636,
      "Bank": 3637,
      "Vector": 3638,
      "inv": 3639,
      "Ġversionadded": 3640,
      "Ġapplic": 3641,
      "Ġtrace": 3642,
      "Ġactual": 3643,
      "Page": 3644,
      "WOR": 3645,
      "ni": 3646,
      "none": 3647,
      "leep": 3648,
      "ross": 3649,
      "__)": 3650,
      "DEL": 3651,
      "Temp": 3652,
      "Ġ\"\"": 3653,
      "Ġpay": 3654,
      "()[": 3655,
      "Ġdown": 3656,
      "Ġ16": 3657,
      "short": 3658,
      "Ġ>',": 3659,
      "ĠUN": 3660,
      "Process": 3661,
      "OrderActionField": 3662,
      "DIR": 3663,
      "Task": 3664,
      "Ġstrings": 3665,
      "Ġdisable": 3666,
      ")/": 3667,
      "Flag": 3668,
      "`,": 3669,
      "sel": 3670,
      "Ġexists": 3671,
      "']['": 3672,
      "ĠPRO": 3673,
      "question": 3674,
      "Start": 3675,
      "trace": 3676,
      "inputs": 3677,
      "vars": 3678,
      "success": 3679,
      "Ġredistribute": 3680,
      "VAL": 3681,
      "js": 3682,
      "è´": 3683,
      "tiali": 3684,
      "tenant": 3685,
      "TypeId": 3686,
      "gnu": 3687,
      "Update": 3688,
      "Ġwriting": 3689,
      "ĠIPv": 3690,
      "PORT": 3691,
      "clear": 3692,
      "roll": 3693,
      "okie": 3694,
      "Ġsimple": 3695,
      "'},": 3696,
      "subprocess": 3697,
      "Ġmessages": 3698,
      "CONF": 3699,
      "Ġoriginal": 3700,
      "Ġtensorflow": 3701,
      ">'": 3702,
      "CS": 3703,
      "Ġjob": 3704,
      "Ġfoo": 3705,
      "pay": 3706,
      "boo": 3707,
      "Container": 3708,
      "Ġagain": 3709,
      "Ġframe": 3710,
      "video": 3711,
      "Ġalways": 3712,
      "interval": 3713,
      "Ġpermissions": 3714,
      "Ġreplace": 3715,
      "Ġmasked": 3716,
      "54": 3717,
      "Max": 3718,
      "wi": 3719,
      "æł": 3720,
      "ged": 3721,
      "Ġunique": 3722,
      "called": 3723,
      "Transfer": 3724,
      "go": 3725,
      "Ġctx": 3726,
      "iddle": 3727,
      "term": 3728,
      "hour": 3729,
      "ĠQgs": 3730,
      "Ġparts": 3731,
      "Ġsuccess": 3732,
      "66": 3733,
      "FN": 3734,
      "Ġcv": 3735,
      "Ġ00": 3736,
      "('%": 3737,
      "ases": 3738,
      "addr": 3739,
      "Ġsym": 3740,
      "Rate": 3741,
      "Source": 3742,
      "ĠLI": 3743,
      "reduce": 3744,
      "moved": 3745,
      "users": 3746,
      "ME": 3747,
      "PL": 3748,
      "bi": 3749,
      "zen": 3750,
      "Ġignore": 3751,
      "Ġthese": 3752,
      "Ġselected": 3753,
      "æĬķ": 3754,
      "OFTWARE": 3755,
      "Found": 3756,
      "known": 3757,
      "ination": 3758,
      "Ġdmp": 3759,
      "verti": 3760,
      "INF": 3761,
      "ĠTODO": 3762,
      "éĩĳ": 3763,
      "Function": 3764,
      "gid": 3765,
      "ould": 3766,
      "xa": 3767,
      "Ġplace": 3768,
      "Ġmy": 3769,
      "ERS": 3770,
      "bound": 3771,
      "ĠEX": 3772,
      "ABLE": 3773,
      "Ġhope": 3774,
      "Ġfinally": 3775,
      "If": 3776,
      "eve": 3777,
      "cell": 3778,
      "directory": 3779,
      "Ġconvert": 3780,
      "Ġgover": 3781,
      "hosts": 3782,
      "78": 3783,
      "=-": 3784,
      "ä¿": 3785,
      "Ġest": 3786,
      "esca": 3787,
      "ĠAPI": 3788,
      "Settings": 3789,
      "Ġrequests": 3790,
      "DEF": 3791,
      "Ġsprite": 3792,
      "PR": 3793,
      "uch": 3794,
      "Ġsparse": 3795,
      "__':": 3796,
      "enerp": 3797,
      "ransport": 3798,
      "Ġleft": 3799,
      "ished": 3800,
      "PRO": 3801,
      "Ġ[('": 3802,
      "ĠAuth": 3803,
      "apshot": 3804,
      "Ġnamespace": 3805,
      "Ġcommon": 3806,
      "Ġcallback": 3807,
      "executable": 3808,
      "DIT": 3809,
      "Hex": 3810,
      "Pa": 3811,
      "bility": 3812,
      "isect": 3813,
      "ĠOS": 3814,
      "Trade": 3815,
      "ĠKIND": 3816,
      "Of": 3817,
      "Pri": 3818,
      "ling": 3819,
      "nb": 3820,
      "pred": 3821,
      "protocol": 3822,
      "Ġnotice": 3823,
      "document": 3824,
      "Ġwarran": 3825,
      "DING": 3826,
      "Write": 3827,
      "Ġ\".": 3828,
      "ĠFile": 3829,
      "Ġproduct": 3830,
      "859": 3831,
      "ĠExamples": 3832,
      "Network": 3833,
      "(**": 3834,
      "Boolean": 3835,
      "End": 3836,
      "Sp": 3837,
      "attributes": 3838,
      "ĠSQL": 3839,
      "amily": 3840,
      "cimal": 3841,
      "library": 3842,
      "FilePath": 3843,
      "Ġwarranty": 3844,
      "Meta": 3845,
      "gh": 3846,
      "å®": 3847,
      "reverse": 3848,
      "eno": 3849,
      "Ġtotal": 3850,
      "hook": 3851,
      "Ġconditions": 3852,
      "ĠSH": 3853,
      "Ġgr": 3854,
      "Ġglobal": 3855,
      "Ġsupported": 3856,
      "eeded": 3857,
      "Ġcommands": 3858,
      "Ġfeed": 3859,
      "USER": 3860,
      "=_": 3861,
      "IAL": 3862,
      "NO": 3863,
      "help": 3864,
      "schema": 3865,
      "ually": 3866,
      "atten": 3867,
      "cols": 3868,
      "Ġmod": 3869,
      "ĠSer": 3870,
      "cheme": 3871,
      "ventory": 3872,
      "Ġgenerate": 3873,
      "90": 3874,
      "inp": 3875,
      "double": 3876,
      "HTMLEqual": 3877,
      "ĠDOUBLE": 3878,
      "Iter": 3879,
      "Ġfont": 3880,
      "roug": 3881,
      "Ġscal": 3882,
      "unit": 3883,
      "Ġwould": 3884,
      "edge": 3885,
      "quote": 3886,
      "Ġgo": 3887,
      "Ġansible": 3888,
      "!!!!!!!!": 3889,
      "BrokerID": 3890,
      "Future": 3891,
      "GET": 3892,
      "Variable": 3893,
      "annot": 3894,
      "rome": 3895,
      "Ġsort": 3896,
      "unded": 3897,
      "sig": 3898,
      "ones": 3899,
      "\");": 3900,
      "FORM": 3901,
      "Password": 3902,
      "riter": 3903,
      "icen": 3904,
      "ategory": 3905,
      "COMMAND": 3906,
      "(\\": 3907,
      "/>": 3908,
      "License": 3909,
      "Socket": 3910,
      "ws": 3911,
      "Ġip": 3912,
      "Ġsince": 3913,
      "assertHTMLEqual": 3914,
      "Ġstop": 3915,
      "ĠHttp": 3916,
      "ASS": 3917,
      "menu": 3918,
      ")'": 3919,
      "language": 3920,
      "'][": 3921,
      "ĠMo": 3922,
      "ipel": 3923,
      "ĠInc": 3924,
      "Ġdomain": 3925,
      "Ġabsolute": 3926,
      "AA": 3927,
      "med": 3928,
      "ĠPer": 3929,
      "CThostFtdcRsp": 3930,
      "Status": 3931,
      "Selection": 3932,
      "children": 3933,
      "imator": 3934,
      "icensed": 3935,
      "Mixin": 3936,
      "ĠĠĠĠĠĠĠĠĠĠĠĠ": 3937,
      "liter": 3938,
      "Ġgenerated": 3939,
      "Array": 3940,
      "Ġmarker": 3941,
      "Ġapplicable": 3942,
      "escape": 3943,
      "ril": 3944,
      "Ġwho": 3945,
      "chain": 3946,
      "Ġforms": 3947,
      "Ġext": 3948,
      "STAT": 3949,
      "ANG": 3950,
      "Ġattrs": 3951,
      "small": 3952,
      "Ġboth": 3953,
      "ACT": 3954,
      "xe": 3955,
      "arab": 3956,
      "Ġscore": 3957,
      "Ġinvalid": 3958,
      "Ġmultiple": 3959,
      "ĠTree": 3960,
      "ĊĠĠĠĠĠĠĠĠĠĠĠĠĠĠĠĠĠĠĠĠĠĠĠĠĠĠĠĠĠĠĠĠĠ": 3961,
      "Ġotherwise": 3962,
      "Ġlibrary": 3963,
      "Version": 3964,
      "nc": 3965,
      "Ġqueue": 3966,
      "arr": 3967,
      "vector": 3968,
      "Ġconstructor": 3969,
      "ĠSOFTWARE": 3970,
      "Child": 3971,
      "Ġnodes": 3972,
      "Ġbuffer": 3973,
      "Ġtrain": 3974,
      "variables": 3975,
      "Ġblah": 3976,
      "57": 3977,
      "TEXT": 3978,
      "big": 3979,
      "hd": 3980,
      "leted": 3981,
      "Ġwhether": 3982,
      "quare": 3983,
      "achine": 3984,
      "ç»ı": 3985,
      "periment": 3986,
      "Font": 3987,
      "Sy": 3988,
      "pu": 3989,
      "invo": 3990,
      "ĠĠĠĠĠĠĠĠĠĠĠ": 3991,
      "Ġ\",": 3992,
      "Ġour": 3993,
      "Ġtheir": 3994,
      "convert": 3995,
      "Inst": 3996,
      "faces": 3997,
      "neg": 3998,
      "gis": 3999,
      "mm": 4000,
      "éĵ": 4001,
      "liance": 4002,
      "unch": 4003,
      "Ġdat": 4004,
      "Ġevery": 4005,
      "collect": 4006,
      "Ġpyl": 4007,
      "éĵ¶": 4008,
      "Bad": 4009,
      "PS": 4010,
      "ªåħ¬åı¸": 4011,
      "des": 4012,
      "Ġ\"--": 4013,
      "board": 4014,
      "cursor": 4015,
      "LICENSE": 4016,
      "çºªåħ¬åı¸": 4017,
      "arabic": 4018,
      "ç»ıçºªåħ¬åı¸": 4019,
      "CC": 4020,
      "Ġclo": 4021,
      "()))": 4022,
      "Ġuses": 4023,
      "Ġconf": 4024,
      "ĠLicensed": 4025,
      "Ġden": 4026,
      "Point": 4027,
      ");": 4028,
      "bisect": 4029,
      "ned": 4030,
      "inx": 4031,
      "lections": 4032,
      "ane": 4033,
      "loop": 4034,
      "Ġbar": 4035,
      "Ġwrap": 4036,
      "IPE": 4037,
      "Ġexpr": 4038,
      "Ġvariables": 4039,
      "FILE": 4040,
      "install": 4041,
      "ĠKeyError": 4042,
      "assertAllEqual": 4043,
      ")+": 4044,
      "ored": 4045,
      "ptr": 4046,
      "Ġ::": 4047,
      "Ġindic": 4048,
      "matic": 4049,
      "application": 4050,
      "Ġwhat": 4051,
      "Ġsix": 4052,
      "soft": 4053,
      "afi": 4054,
      "done": 4055,
      "mor": 4056,
      "lick": 4057,
      "Ġbeing": 4058,
      "aliases": 4059,
      "Buffer": 4060,
      "ĠHTML": 4061,
      "çĶ¨": 4062,
      "Picker": 4063,
      "Ġassociated": 4064,
      "Des": 4065,
      "EMP": 4066,
      "}'.": 4067,
      "tils": 4068,
      "Ġsetting": 4069,
      "attrs": 4070,
      "API": 4071,
      "choices": 4072,
      "dumps": 4073,
      "rough": 4074,
      "ret": 4075,
      "rector": 4076,
      "stage": 4077,
      "aris": 4078,
      "vals": 4079,
      "ability": 4080,
      "ics": 4081,
      "jobs": 4082,
      "ĠUse": 4083,
      "Ġchannel": 4084,
      "Ġweights": 4085,
      "Ġclasses": 4086,
      "BUG": 4087,
      "84": 4088,
      "bla": 4089,
      "reed": 4090,
      "endswith": 4091,
      "pokemon": 4092,
      "Ġsepar": 4093,
      "scale": 4094,
      "ETE": 4095,
      "ĠRes": 4096,
      "override": 4097,
      "extension": 4098,
      "Ġlocation": 4099,
      "åįķ": 4100,
      "61": 4101,
      "au": 4102,
      "gno": 4103,
      "hidden": 4104,
      "':'": 4105,
      "angle": 4106,
      "Ġ600": 4107,
      "Ġpoints": 4108,
      "Ġflags": 4109,
      "8859": 4110,
      "Ġschema": 4111,
      "sired": 4112,
      "mapping": 4113,
      "Ġ11": 4114,
      "Ġdisc": 4115,
      "ather": 4116,
      "factory": 4117,
      "ĠConfig": 4118,
      "Ġbackend": 4119,
      "Factory": 4120,
      "IX": 4121,
      "just": 4122,
      "xf": 4123,
      "rozen": 4124,
      "unic": 4125,
      "fixture": 4126,
      "assertIn": 4127,
      "Ġhref": 4128,
      "proxy": 4129,
      "ĊĠĠĠĠĠĠĠĠĠĠĠĠĠĠĠĠĠĠĠĠĠĠĠĠĠĠĠĠĠĠĠĠĠĠ": 4130,
      "Ġalgorithm": 4131,
      "ĊĠĠĠĠĠĠĠĠĠĠĠĠĠĠĠĠĠĠĠĠĠĠĠĠĠĠĠĠĠĠĠĠĠĠĠĠĠĠĠ": 4132,
      "Ġinputs": 4133,
      "rillic": 4134,
      ".%": 4135,
      ".'": 4136,
      "Machine": 4137,
      "SION": 4138,
      "imp": 4139,
      "ming": 4140,
      "ng": 4141,
      "sted": 4142,
      "Ġclose": 4143,
      "Ġsec": 4144,
      "feed": 4145,
      "UTE": 4146,
      "Ġcompliance": 4147,
      "Select": 4148,
      "ACE": 4149,
      "Ġadmin": 4150,
      "marker": 4151,
      "Checker": 4152,
      "59": 4153,
      "HER": 4154,
      "rpc": 4155,
      "ins": 4156,
      "upper": 4157,
      "Ġwithin": 4158,
      "ĠMy": 4159,
      "Ġ30": 4160,
      "ignore": 4161,
      "aved": 4162,
      "Ext": 4163,
      "dt": 4164,
      "database": 4165,
      "vs": 4166,
      "èĢ": 4167,
      "star": 4168,
      "role": 4169,
      "dim": 4170,
      "lookup": 4171,
      "isted": 4172,
      "252": 4173,
      "Ġapplication": 4174,
      "Returns": 4175,
      "identical": 4176,
      "boolean": 4177,
      "èĢħ": 4178,
      "47": 4179,
      "Close": 4180,
      "FIL": 4181,
      "Gui": 4182,
      "SL": 4183,
      "public": 4184,
      "reen": 4185,
      "Ġinit": 4186,
      "Ġdimen": 4187,
      "Ġsequence": 4188,
      "lert": 4189,
      "expr": 4190,
      "Ġhttps": 4191,
      "ĠZZ": 4192,
      "Validator": 4193,
      "ĠAttribute": 4194,
      "Sta": 4195,
      "folder": 4196,
      "Ġretri": 4197,
      "Ġ_('": 4198,
      "Ġgraph": 4199,
      "quet": 4200,
      "Enable": 4201,
      "inheritance": 4202,
      "ĠNotImplementedError": 4203,
      "afii": 4204,
      "'\"": 4205,
      "basic": 4206,
      "mall": 4207,
      "nan": 4208,
      "Ġexpress": 4209,
      "paths": 4210,
      "chemy": 4211,
      "private": 4212,
      "[:,": 4213,
      "havi": 4214,
      "\"}),": 4215,
      "DateTimeField": 4216,
      "MET": 4217,
      "draw": 4218,
      "Ġpk": 4219,
      "ĠTH": 4220,
      "Ġmenu": 4221,
      "sprite": 4222,
      "posal": 4223,
      "Ġtrack": 4224,
      "NetDevice": 4225,
      "Web": 4226,
      "èµĦèĢħ": 4227,
      "æĬķèµĦèĢħ": 4228,
      "58": 4229,
      "ping": 4230,
      "pattern": 4231,
      "rive": 4232,
      "Ġexit": 4233,
      "pow": 4234,
      "Ġmetri": 4235,
      "mount": 4236,
      "Ġlaw": 4237,
      "zeros": 4238,
      "ĠUnless": 4239,
      "Ġextension": 4240,
      "Many": 4241,
      "Offset": 4242,
      "###": 4243,
      "Ġloop": 4244,
      "Ġbuf": 4245,
      "Ġbased": 4246,
      "\"\\": 4247,
      "SET": 4248,
      "cm": 4249,
      "ja": 4250,
      "loss": 4251,
      "Ġenvironment": 4252,
      "IMIT": 4253,
      "ĠDefault": 4254,
      "flush": 4255,
      "DITIONS": 4256,
      "EC": 4257,
      "wisted": 4258,
      "mpy": 4259,
      "Ġmetadata": 4260,
      "dential": 4261,
      "Property": 4262,
      "cords": 4263,
      "Loader": 4264,
      "combo": 4265,
      "custom": 4266,
      "elif": 4267,
      "tten": 4268,
      "router": 4269,
      "Ġremote": 4270,
      "Ġpi": 4271,
      "omial": 4272,
      "Ġsection": 4273,
      "Ġprofile": 4274,
      "Ġproperties": 4275,
      "ĠMake": 4276,
      "ĊĉĉĊĉ": 4277,
      "Ġ>>": 4278,
      "grade": 4279,
      "Trace": 4280,
      "Format": 4281,
      "swig": 4282,
      "è¯ģ": 4283,
      "lite": 4284,
      "Ġbind": 4285,
      "Ġmac": 4286,
      "__.": 4287,
      "ĠAd": 4288,
      "Ġstandard": 4289,
      "Ġchunk": 4290,
      "Ġ})": 4291,
      "loads": 4292,
      "Ġcannot": 4293,
      "ĠCONDITIONS": 4294,
      "PER": 4295,
      "PIPE": 4296,
      "Tensor": 4297,
      "google": 4298,
      "native": 4299,
      "inf": 4300,
      "Ġ'',": 4301,
      "atter": 4302,
      "Ġbatch": 4303,
      "paragraph": 4304,
      "']),": 4305,
      "quality": 4306,
      "words": 4307,
      "Ġentity": 4308,
      "acy": 4309,
      "ĠBAS": 4310,
      "Ġbutton": 4311,
      "3456": 4312,
      "åĲĪ": 4313,
      "browse": 4314,
      "CLUDING": 4315,
      "98": 4316,
      "Graph": 4317,
      "hello": 4318,
      "ä¸": 4319,
      "rection": 4320,
      "team": 4321,
      "leg": 4322,
      "Ġfinal": 4323,
      "ĊĊĊ": 4324,
      "scape": 4325,
      "internal": 4326,
      "states": 4327,
      "ĊĠĠĠĠĠĠĠĠĠĠĠĠĠĠĠĠĠĠĠĠĠĠĠĠĠĠĠĠĠĠĠĠĠĠĠĠĠ": 4328,
      "Ġcontents": 4329,
      "Ġlimitations": 4330,
      "ĠBASIS": 4331,
      "AY": 4332,
      "LINE": 4333,
      "Match": 4334,
      "inner": 4335,
      "tio": 4336,
      "rot": 4337,
      "etc": 4338,
      "pair": 4339,
      "failed": 4340,
      "Ġposition": 4341,
      "single": 4342,
      "Ġcopyright": 4343,
      "Ġagreed": 4344,
      "Ġoperation": 4345,
      "Ġgoverning": 4346,
      "ĠAttributeError": 4347,
      "Ġhe": 4348,
      "reset": 4349,
      "Ġtmpl": 4350,
      "Ġinp": 4351,
      "sid": 4352,
      "Ġprop": 4353,
      "iddleware": 4354,
      "ipeline": 4355,
      "Multi": 4356,
      "OG": 4357,
      "city": 4358,
      "ia": 4359,
      "åĪ": 4360,
      "heb": 4361,
      "Ġpylint": 4362,
      "cd": 4363,
      "holder": 4364,
      "nume": 4365,
      "ĠAffer": 4366,
      "fromHex": 4367,
      "../": 4368,
      "Ġpytest": 4369,
      "ROM": 4370,
      "Ġrunning": 4371,
      "Ġlookup": 4372,
      "############################################################################": 4373,
      "æłĩ": 4374,
      "ĠAffero": 4375,
      "'re": 4376,
      "Ġoc": 4377,
      "isinstance": 4378,
      "']))": 4379,
      "igrations": 4380,
      "CTION": 4381,
      "Parse": 4382,
      "Ġsuch": 4383,
      "Ġcalcul": 4384,
      "ĠCONTR": 4385,
      "exceptions": 4386,
      "sumer": 4387,
      "mc": 4388,
      "uest": 4389,
      "namespace": 4390,
      "Ġutil": 4391,
      "ĠOn": 4392,
      "Ġmatches": 4393,
      "Ġprimary": 4394,
      "Manager": 4395,
      "Cache": 4396,
      "Edit": 4397,
      "å¿": 4398,
      "media": 4399,
      "Ġrelative": 4400,
      "complete": 4401,
      "parameters": 4402,
      "yspark": 4403,
      "Ġcould": 4404,
      "factor": 4405,
      "Ġplatform": 4406,
      "BooleanField": 4407,
      "See": 4408,
      "icon": 4409,
      "Ġpatch": 4410,
      "Ġmissing": 4411,
      "heet": 4412,
      "ested": 4413,
      "modi": 4414,
      "ĠInput": 4415,
      "Unexpected": 4416,
      "Ġinstall": 4417,
      "Root": 4418,
      ")\",": 4419,
      "Has": 4420,
      "Met": 4421,
      "ber": 4422,
      "hex": 4423,
      "nn": 4424,
      "ude": 4425,
      "where": 4426,
      "Ġpid": 4427,
      "Ġspa": 4428,
      "ĠPre": 4429,
      "validate": 4430,
      "ĠCommand": 4431,
      "VAR": 4432,
      "ae": 4433,
      "dk": 4434,
      "master": 4435,
      "va": 4436,
      "Ġfil": 4437,
      "Ġbl": 4438,
      "visit": 4439,
      "123": 4440,
      ":`~": 4441,
      "grp": 4442,
      "69": 4443,
      "enum": 4444,
      "Ġway": 4445,
      "radi": 4446,
      "Ġencoded": 4447,
      "Ġoperator": 4448,
      "Ġallowed": 4449,
      "je": 4450,
      "rb": 4451,
      "inder": 4452,
      "rest": 4453,
      "ĠSy": 4454,
      "particle": 4455,
      "Invalid": 4456,
      "Ġcomplete": 4457,
      "Ġkeyword": 4458,
      "storage": 4459,
      "Stock": 4460,
      "'^": 4461,
      "mes": 4462,
      "Ġdetermin": 4463,
      "Ġunit": 4464,
      "Const": 4465,
      "download": 4466,
      "cloud": 4467,
      "FORMAT": 4468,
      "Oper": 4469,
      "second": 4470,
      "Ġstri": 4471,
      "Ġhosts": 4472,
      "ferred": 4473,
      "metric": 4474,
      "Ġ-------": 4475,
      "AutoField": 4476,
      ">\\": 4477,
      "OM": 4478,
      "URE": 4479,
      "seconds": 4480,
      "regex": 4481,
      "tialize": 4482,
      "enu": 4483,
      "Ġpattern": 4484,
      "ris": 4485,
      "exist": 4486,
      "rays": 4487,
      "Ġtool": 4488,
      "ffect": 4489,
      "Ġanother": 4490,
      "Ġsubnet": 4491,
      "Ġspecify": 4492,
      "phic": 4493,
      "Ġrepr": 4494,
      "operator": 4495,
      "Ġpossible": 4496,
      "Ġmatrix": 4497,
      "arison": 4498,
      ".\",": 4499,
      "card": 4500,
      "nail": 4501,
      "adding": 4502,
      "ĠRequest": 4503,
      "Ġ42": 4504,
      "umbnail": 4505,
      "Ġ60": 4506,
      "Options": 4507,
      "éĵ¶è¡Į": 4508,
      "ç»ıçºªåħ¬åı¸ä»£çłģ": 4509,
      ")**": 4510,
      "65": 4511,
      "97": 4512,
      "after": 4513,
      "lst": 4514,
      "reference": 4515,
      "Ġpoly": 4516,
      "Ġslice": 4517,
      "Ġ15": 4518,
      "Delete": 4519,
      "cret": 4520,
      "reshape": 4521,
      "Mapper": 4522,
      "FL": 4523,
      "PUT": 4524,
      "fun": 4525,
      "Ġtermin": 4526,
      "onent": 4527,
      "defined": 4528,
      "cts": 4529,
      "Ġtimestamp": 4530,
      "Ġtransform": 4531,
      "Lock": 4532,
      "pto": 4533,
      "socket": 4534,
      "Ġlicense": 4535,
      "Ġneeded": 4536,
      "agement": 4537,
      "defaults": 4538,
      "Ġmodules": 4539,
      "mitted": 4540,
      "abspath": 4541,
      "SP": 4542,
      "ĠCYR": 4543,
      "Ġgen": 4544,
      "\")),": 4545,
      "ĠDo": 4546,
      "ILLIC": 4547,
      "targets": 4548,
      "Ġplugin": 4549,
      "Failed": 4550,
      "pendencies": 4551,
      "morphic": 4552,
      "ĠCYRILLIC": 4553,
      "clean": 4554,
      "global": 4555,
      "ines": 4556,
      "lider": 4557,
      "Ġdst": 4558,
      "conv": 4559,
      "ves": 4560,
      "Ġconver": 4561,
      "Ġprotocol": 4562,
      "Ġmer": 4563,
      "extract": 4564,
      "ness": 4565,
      "learn": 4566,
      "warn": 4567,
      "Layer": 4568,
      "Help": 4569,
      "fetch": 4570,
      "Ġrel": 4571,
      "Ġreserved": 4572,
      "lip": 4573,
      "Ġwidth": 4574,
      "Ġmapping": 4575,
      "ĠText": 4576,
      "Ġgot": 4577,
      "ĠDis": 4578,
      "ĠUSE": 4579,
      "Colour": 4580,
      "ĊĠĠĠĠĠĠĠĠĠĠĠĠĠĠĠĠĠĠĠĠĠĠĠĠĠĠĠĠĠĠĠĠĠĠĠĠĠĠ": 4581,
      "super": 4582,
      "gnored": 4583,
      "43": 4584,
      "CA": 4585,
      "Empty": 4586,
      "Su": 4587,
      "bad": 4588,
      "na": 4589,
      "Ġ----------------------------------------------------------------": 4590,
      "Ġfd": 4591,
      "Ġreason": 4592,
      "ONT": 4593,
      "Proxy": 4594,
      "RECT": 4595,
      "Ġoverride": 4596,
      "Prefix": 4597,
      "CP": 4598,
      "SIGN": 4599,
      "bc": 4600,
      "drop": 4601,
      "fr": 4602,
      "lem": 4603,
      "ĠCOP": 4604,
      "parts": 4605,
      "ĠLo": 4606,
      "Err": 4607,
      "Ġsent": 4608,
      "moves": 4609,
      "signal": 4610,
      "Ġextensions": 4611,
      "THER": 4612,
      "Ġinitial": 4613,
      "Iterator": 4614,
      "RU": 4615,
      "lt": 4616,
      "spark": 4617,
      "tty": 4618,
      "ĠĊĠĠĠĠĠĠĠ": 4619,
      "redirect": 4620,
      "timi": 4621,
      "Ġ'#": 4622,
      "mpt": 4623,
      "loaded": 4624,
      "ĊĉĊ": 4625,
      "timeError": 4626,
      "props": 4627,
      "([(": 4628,
      "Dialog": 4629,
      "Ġcursor": 4630,
      "Policy": 4631,
      "Ġpacket": 4632,
      "generate": 4633,
      "rectories": 4634,
      "=',": 4635,
      "LL": 4636,
      "xd": 4637,
      "ority": 4638,
      "Ġ'&": 4639,
      "Ġmon": 4640,
      "ram": 4641,
      "Ġembedding": 4642,
      "Ġhand": 4643,
      "Ġparsed": 4644,
      "callable": 4645,
      "missing": 4646,
      "contents": 4647,
      "Ġrows": 4648,
      "Logger": 4649,
      "Ġappro": 4650,
      "æĹ¥": 4651,
      "Bo": 4652,
      "EE": 4653,
      "PDF": 4654,
      "two": 4655,
      "stub": 4656,
      "anti": 4657,
      "Ġ'{": 4658,
      "Ġ\"__": 4659,
      "Ġplay": 4660,
      "Ġsq": 4661,
      "Ġstep": 4662,
      "ueue": 4663,
      "Ġbranch": 4664,
      "Ġseconds": 4665,
      ">>>": 4666,
      "LOG": 4667,
      "Ġcorrespon": 4668,
      "ragment": 4669,
      "posixpath": 4670,
      "Bitmap": 4671,
      "Ġtr": 4672,
      "listen": 4673,
      "rac": 4674,
      "(\"\\": 4675,
      "ĠtestType": 4676,
      "Ġdiff": 4677,
      "sha": 4678,
      "blem": 4679,
      "Ġsubject": 4680,
      "Byte": 4681,
      "Ġrights": 4682,
      "dn": 4683,
      "pg": 4684,
      "year": 4685,
      "yaml": 4686,
      "enabled": 4687,
      "Ġwin": 4688,
      "\",\"": 4689,
      "Ġstore": 4690,
      "rappe": 4691,
      "filters": 4692,
      "Ġvideo": 4693,
      "Ġsymbol": 4694,
      ".',": 4695,
      "Be": 4696,
      "Menu": 4697,
      "PRE": 4698,
      "You": 4699,
      "å¸": 4700,
      "alpha": 4701,
      "arm": 4702,
      "Ġ_,": 4703,
      "tom": 4704,
      "Ġnamed": 4705,
      "ĠDI": 4706,
      "ATTR": 4707,
      "ĠWhen": 4708,
      "duction": 4709,
      "track": 4710,
      "``.": 4711,
      "creen": 4712,
      "Thread": 4713,
      "Cho": 4714,
      "Sty": 4715,
      "ere": 4716,
      "free": 4717,
      "sleep": 4718,
      "åĳ": 4719,
      "apt": 4720,
      "ĠLE": 4721,
      "']\"}),": 4722,
      "Ġproxy": 4723,
      "Ġenable": 4724,
      "aggreg": 4725,
      "Ġpartition": 4726,
      "basename": 4727,
      "Ġfeatures": 4728,
      "Ġimages": 4729,
      "reshold": 4730,
      "havior": 4731,
      ",)": 4732,
      "]+": 4733,
      "center": 4734,
      "orary": 4735,
      "Ġcy": 4736,
      "Ġ[-": 4737,
      "lain": 4738,
      "Ġderi": 4739,
      "Ġstmt": 4740,
      "ARK": 4741,
      "Length": 4742,
      "cri": 4743,
      "multip": 4744,
      "wfs": 4745,
      "å¤": 4746,
      "Ġindent": 4747,
      "chunk": 4748,
      "()),": 4749,
      "ithub": 4750,
      "shared": 4751,
      "Product": 4752,
      "cfg": 4753,
      "Ġtempfile": 4754,
      "æĬ¥": 4755,
      "Ġpayload": 4756,
      "87": 4757,
      "WS": 4758,
      "ai": 4759,
      "Ġtoo": 4760,
      "hould": 4761,
      "Ġconstruct": 4762,
      "Reference": 4763,
      "čĊčĊĠĠĠĠĠĠĠ": 4764,
      "Ġword": 4765,
      "events": 4766,
      "Disposal": 4767,
      "packages": 4768,
      "Ġevalu": 4769,
      "DELETE": 4770,
      "dentials": 4771,
      "StockDisposal": 4772,
      "'d": 4773,
      "_,": 4774,
      "fmt": 4775,
      "gments": 4776,
      "sur": 4777,
      "orage": 4778,
      "Ġ'')": 4779,
      "Ġnd": 4780,
      "perly": 4781,
      "Ġenti": 4782,
      "ĠWindows": 4783,
      "ifest": 4784,
      "subnet": 4785,
      "Ġneg": 4786,
      "\"'": 4787,
      "96": 4788,
      "Pl": 4789,
      "cwd": 4790,
      "Ġlayer": 4791,
      "Ġthrough": 4792,
      "Ġstat": 4793,
      "Exp": 4794,
      "ONE": 4795,
      "Ġchain": 4796,
      "Ġshort": 4797,
      "ront": 4798,
      "wxEVT": 4799,
      "MODE": 4800,
      "MachineState": 4801,
      ")',": 4802,
      "PC": 4803,
      "Pcap": 4804,
      "xc": 4805,
      "Ġclf": 4806,
      "Ġrequire": 4807,
      "Ġequal": 4808,
      "partition": 4809,
      "Ġmeans": 4810,
      "Ġmemory": 4811,
      "bosity": 4812,
      "Ġappend": 4813,
      "Ġgroups": 4814,
      "Ascii": 4815,
      "DEFIN": 4816,
      "MB": 4817,
      "Min": 4818,
      "gument": 4819,
      "lat": 4820,
      "mil": 4821,
      "Ġhow": 4822,
      "tegr": 4823,
      "Ġfill": 4824,
      "chine": 4825,
      "parsed": 4826,
      "tems": 4827,
      "Ġlock": 4828,
      "compute": 4829,
      "CHE": 4830,
      "begin": 4831,
      "Ġopenerp": 4832,
      "Ġcorrect": 4833,
      "Ġrules": 4834,
      "Local": 4835,
      "Same": 4836,
      "pure": 4837,
      "entity": 4838,
      "fid": 4839,
      "Ġdone": 4840,
      "Ġdec": 4841,
      "ĠMA": 4842,
      "rows": 4843,
      "Directory": 4844,
      "OLD": 4845,
      "cheduler": 4846,
      "Admin": 4847,
      "æłĩå¿": 4848,
      "æłĩå¿Ĺ": 4849,
      "95": 4850,
      "LA": 4851,
      "lass": 4852,
      "Ġds": 4853,
      "setdefault": 4854,
      "Ġdesc": 4855,
      "agic": 4856,
      "acquire": 4857,
      "Ġcfg": 4858,
      "/>.": 4859,
      ")*": 4860,
      "selenium": 4861,
      "pare": 4862,
      "ĠIO": 4863,
      "Ġseq": 4864,
      "ĠOTHER": 4865,
      "shift": 4866,
      "acute": 4867,
      "REQU": 4868,
      "running": 4869,
      "Right": 4870,
      "Sup": 4871,
      "TIME": 4872,
      "gy": 4873,
      "lon": 4874,
      "Ġzero": 4875,
      "gether": 4876,
      "ressed": 4877,
      "ĠOr": 4878,
      "ĠBy": 4879,
      "operations": 4880,
      "alytic": 4881,
      "Jo": 4882,
      "Popen": 4883,
      "UE": 4884,
      "imit": 4885,
      "same": 4886,
      "Ġcop": 4887,
      "Ġdt": 4888,
      "Ġdesired": 4889,
      "Ġcurrently": 4890,
      "img": 4891,
      "Ġvalidate": 4892,
      "Params": 4893,
      "country": 4894,
      "Color": 4895,
      "çº¦": 4896,
      "WORD": 4897,
      ".\\": 4898,
      "ftp": 4899,
      "ified": 4900,
      "sma": 4901,
      "slice": 4902,
      "integer": 4903,
      "alk": 4904,
      "Ġthose": 4905,
      "ulation": 4906,
      "('--": 4907,
      "created": 4908,
      "TextField": 4909,
      "Ġauthor": 4910,
      "Block": 4911,
      "seed": 4912,
      "ural": 4913,
      "setValue": 4914,
      "resources": 4915,
      "ĠGoogle": 4916,
      "ĠNO": 4917,
      "ĠEV": 4918,
      "csv": 4919,
      "Ġcallable": 4920,
      "REEK": 4921,
      "Only": 4922,
      "Ġimplementation": 4923,
      ",))": 4924,
      "Ab": 4925,
      "follow": 4926,
      "ä½": 4927,
      "Ġpol": 4928,
      "Ġinv": 4929,
      "export": 4930,
      "Ġ17": 4931,
      "buil": 4932,
      "ĠGroup": 4933,
      "ĠGREEK": 4934,
      "Ġraised": 4935,
      "signature": 4936,
      "IZE": 4937,
      "ide": 4938,
      "}.": 4939,
      "meth": 4940,
      "Ġpop": 4941,
      "pear": 4942,
      "hes": 4943,
      "Ġep": 4944,
      "Ġdivision": 4945,
      "Ġmeta": 4946,
      "Ġdefaults": 4947,
      "Serial": 4948,
      "Ġlisten": 4949,
      "flag": 4950,
      "LOCK": 4951,
      "atible": 4952,
      "Ġcharacters": 4953,
      ">',": 4954,
      "BA": 4955,
      "em": 4956,
      "selected": 4957,
      "algorithm": 4958,
      "Ġredirect": 4959,
      "Ġops": 4960,
      "company": 4961,
      "STFN": 4962,
      "tables": 4963,
      "DataFrame": 4964,
      "Ġmost": 4965,
      "Ġevents": 4966,
      "spect": 4967,
      "area": 4968,
      "Notify": 4969,
      "QUAL": 4970,
      "EMPL": 4971,
      "åĲĪçº¦": 4972,
      "Style": 4973,
      "IF": 4974,
      "mean": 4975,
      "ĠSpark": 4976,
      "Repe": 4977,
      "ower": 4978,
      "currency": 4979,
      "month": 4980,
      "registry": 4981,
      "(_(\"": 4982,
      "compiler": 4983,
      "ĠLEFT": 4984,
      "DEFINED": 4985,
      "92": 4986,
      "Rou": 4987,
      "dummy": 4988,
      "glob": 4989,
      "tz": 4990,
      "Ġrelated": 4991,
      "Ġsn": 4992,
      "Ġdom": 4993,
      "prod": 4994,
      "Ġcoun": 4995,
      "collector": 4996,
      "ograph": 4997,
      "ICE": 4998,
      "Search": 4999,
      "9999": 5000,
      "Ġgenerator": 5001,
      "Ġprivate": 5002,
      "(('": 5003,
      ",'": 5004,
      "1000": 5005,
      "Email": 5006,
      "SA": 5007,
      "dup": 5008,
      "gle": 5009,
      "history": 5010,
      "ible": 5011,
      "details": 5012,
      "tific": 5013,
      "route": 5014,
      "container": 5015,
      "Ġ-=": 5016,
      "ocab": 5017,
      "ĠRIGHT": 5018,
      "expand": 5019,
      "Ġarchive": 5020,
      "circle": 5021,
      "QuoteField": 5022,
      "789": 5023,
      ":\\": 5024,
      "SD": 5025,
      "USE": 5026,
      "Ġ])": 5027,
      "Ġ(-": 5028,
      "ĠAS": 5029,
      "cluster": 5030,
      "Ġdev": 5031,
      "lists": 5032,
      "Ġuntil": 5033,
      "Ġ32": 5034,
      "logging": 5035,
      "tains": 5036,
      "[:-": 5037,
      "DefaultAttributes": 5038,
      "Ġworks": 5039,
      "Ġwidgets": 5040,
      "hebrew": 5041,
      "51": 5042,
      "RC": 5043,
      "arrow": 5044,
      "uring": 5045,
      "Ġmight": 5046,
      "ĠTh": 5047,
      "ĠApp": 5048,
      "resp": 5049,
      "ĠMan": 5050,
      "Exten": 5051,
      "ARY": 5052,
      "Ġusers": 5053,
      "Ġactive": 5054,
      "ĊĠĠĠĠĠĠĠĠĠĠĠĠĠĠĠĠĠĠĠĠĠĠĠĠĠĠĠĠĠĠĠĠĠĠĠĠĠĠĠĠĠĠ": 5055,
      "Ġcontainer": 5056,
      "ĠJSON": 5057,
      "Ġsignature": 5058,
      "OWN": 5059,
      "ĠUNDEFINED": 5060,
      "dc": 5061,
      "jvm": 5062,
      "tod": 5063,
      "čĊĠĠĠĠĠĠĠĠ": 5064,
      "require": 5065,
      "Ġrequires": 5066,
      "Ġplot": 5067,
      "Ġspec": 5068,
      "Ġdisk": 5069,
      "CThostFtdcInput": 5070,
      "Ġcollections": 5071,
      "Channel": 5072,
      "Ġpair": 5073,
      "VERSION": 5074,
      "widgets": 5075,
      "Table": 5076,
      "cum": 5077,
      "fname": 5078,
      "Ġcer": 5079,
      "Ġclean": 5080,
      "atype": 5081,
      "utor": 5082,
      "Ġrv": 5083,
      "Ġproto": 5084,
      "Ġwere": 5085,
      "compress": 5086,
      "views": 5087,
      "messages": 5088,
      "docs": 5089,
      "MAX": 5090,
      "assertIsInstance": 5091,
      "Cancel": 5092,
      "Target": 5093,
      "family": 5094,
      "tar": 5095,
      "uk": 5096,
      "ĊĊĠĠĠĠĠĠĠĠĠĠĠĠĠĠĠĠĠĠĠ": 5097,
      "Ġaliases": 5098,
      "Ġbad": 5099,
      "ĠDAM": 5100,
      "oken": 5101,
      "Sequence": 5102,
      "templates": 5103,
      "pick": 5104,
      "marked": 5105,
      "Ġneeds": 5106,
      "Ġscalar": 5107,
      "Ġdense": 5108,
      "Doc": 5109,
      "Mask": 5110,
      "System": 5111,
      "ftime": 5112,
      "vol": 5113,
      "ĠĠĠĠĠĠĠĠĠĠĠĠĠĠĠ": 5114,
      "almost": 5115,
      "ĠIMP": 5116,
      "person": 5117,
      "hostname": 5118,
      "alized": 5119,
      "calendar": 5120,
      "owner": 5121,
      "Ġplt": 5122,
      "Hello": 5123,
      "ISE": 5124,
      "Norm": 5125,
      "One": 5126,
      "pted": 5127,
      "urlo": 5128,
      "Ġspark": 5129,
      "serve": 5130,
      "ritems": 5131,
      "Ġmany": 5132,
      "Ġescape": 5133,
      "ĠAs": 5134,
      "ĠMS": 5135,
      "lyr": 5136,
      "reater": 5137,
      "Provider": 5138,
      "Ġsupp": 5139,
      "Ġexplicit": 5140,
      "Method": 5141,
      "LIED": 5142,
      "ĠPoint": 5143,
      "]*": 5144,
      "ahead": 5145,
      "vl": 5146,
      "ĠError": 5147,
      "roy": 5148,
      "Ġbrow": 5149,
      "mag": 5150,
      "usage": 5151,
      "mox": 5152,
      "collection": 5153,
      "CThostFtdcSync": 5154,
      "Ġautomatic": 5155,
      "Ġstructure": 5156,
      "Changed": 5157,
      "Ġconnect": 5158,
      "uted": 5159,
      "Ġ).": 5160,
      "Ġ//": 5161,
      "inclu": 5162,
      "inja": 5163,
      "alchemy": 5164,
      "atforms": 5165,
      "Ġspace": 5166,
      "Ġok": 5167,
      "coeff": 5168,
      "Ġgtk": 5169,
      "Ġdirectly": 5170,
      "Ġprevious": 5171,
      "LECT": 5172,
      "sole": 5173,
      "stdin": 5174,
      "COL": 5175,
      "Ġsympy": 5176,
      "cpu": 5177,
      "ĠStringIO": 5178,
      "ClassDefaultAttributes": 5179,
      "Ġrepresenting": 5180,
      "Ġincluded": 5181,
      "sqrt": 5182,
      "ĠOptional": 5183,
      ".)": 5184,
      "Rel": 5185,
      "hn": 5186,
      "Ġignored": 5187,
      "units": 5188,
      "fiers": 5189,
      "uting": 5190,
      "named": 5191,
      "ĠLIMIT": 5192,
      "Project": 5193,
      "UTH": 5194,
      "Resource": 5195,
      "Video": 5196,
      "initial": 5197,
      "counter": 5198,
      "ĠGeo": 5199,
      "ĠIMPLIED": 5200,
      "52": 5201,
      "onts": 5202,
      "Ġsig": 5203,
      "light": 5204,
      "\"\"\")": 5205,
      "')]": 5206,
      "home": 5207,
      "Ġ1000": 5208,
      "Remove": 5209,
      "Ġloss": 5210,
      "Ġmail": 5211,
      "formance": 5212,
      "Ġapply": 5213,
      "IPT": 5214,
      "AGS": 5215,
      "polymorphic": 5216,
      "FE": 5217,
      "wner": 5218,
      "anel": 5219,
      "licies": 5220,
      "ĠST": 5221,
      "Ġvolume": 5222,
      "([])": 5223,
      "Ġaccept": 5224,
      "Ġstates": 5225,
      "Ġstatement": 5226,
      "when": 5227,
      "Ġsafe": 5228,
      "Ġchildren": 5229,
      "Load": 5230,
      "ufffe": 5231,
      "atterns": 5232,
      "Port": 5233,
      "Range": 5234,
      "branch": 5235,
      "gment": 5236,
      "ian": 5237,
      "reader": 5238,
      "alth": 5239,
      "arge": 5240,
      "Ġaverage": 5241,
      "Ġbit": 5242,
      "ĠSource": 5243,
      "Ġstill": 5244,
      "apps": 5245,
      "osv": 5246,
      "Ġattach": 5247,
      "ĠInteger": 5248,
      "ighb": 5249,
      "mediate": 5250,
      "gate": 5251,
      "gam": 5252,
      "vari": 5253,
      "}\".": 5254,
      "tical": 5255,
      "ards": 5256,
      "Ġpublic": 5257,
      "ctx": 5258,
      "()]": 5259,
      "001": 5260,
      "Ġ14": 5261,
      "ĠRedistribu": 5262,
      "compat": 5263,
      "ICAL": 5264,
      "newexp": 5265,
      "CHAR": 5266,
      "cycle": 5267,
      "servicelist": 5268,
      "localhost": 5269,
      "summary": 5270,
      "normal": 5271,
      "repeated": 5272,
      "ä¿Ŀ": 5273,
      "PT": 5274,
      "pyspark": 5275,
      "sorted": 5276,
      "derer": 5277,
      "ence": 5278,
      "Ġ(%": 5279,
      "lap": 5280,
      "Ġ13": 5281,
      "clone": 5282,
      "lineno": 5283,
      "timer": 5284,
      "provider": 5285,
      "Ġmedia": 5286,
      "ĠBUT": 5287,
      "compo": 5288,
      "ĊĠĠĠĠĠĠĠĠĠĠĠĠĠĠĠĠĠĠĠĠĠĠĠĠĠĠĠĠĠĠĠĠĠĠĠĠĠĠĠĠ": 5289,
      "assifier": 5290,
      "depth": 5291,
      "transport": 5292,
      "Ġusage": 5293,
      "Ġagainst": 5294,
      "Driver": 5295,
      "[^": 5296,
      "jar": 5297,
      "tb": 5298,
      "Ġheight": 5299,
      "Ġ\"<": 5300,
      "Ġsco": 5301,
      "dimen": 5302,
      "fies": 5303,
      "condition": 5304,
      "ĠAl": 5305,
      "Inf": 5306,
      "Dele": 5307,
      "Ġpool": 5308,
      "LED": 5309,
      "Ġshell": 5310,
      "Ġoutputs": 5311,
      "Ġchanges": 5312,
      "scriptor": 5313,
      "elements": 5314,
      "sensitive": 5315,
      "ffffffff": 5316,
      "HOST": 5317,
      "ĠLIMITED": 5318,
      "53": 5319,
      "»å": 5320,
      "Ġkw": 5321,
      "lev": 5322,
      "cos": 5323,
      "licate": 5324,
      "Ġensure": 5325,
      "Ġvtk": 5326,
      "Ġcompiler": 5327,
      "beat": 5328,
      "Unless": 5329,
      "translation": 5330,
      "Ġexecutable": 5331,
      "InvestorPosition": 5332,
      "SERT": 5333,
      "ĠOSError": 5334,
      "IE": 5335,
      "ving": 5336,
      "deprecated": 5337,
      "Ġrelease": 5338,
      "ĠLog": 5339,
      "cipy": 5340,
      "Ġmean": 5341,
      "cessary": 5342,
      "Ġkind": 5343,
      "Access": 5344,
      "Ġbounds": 5345,
      "Template": 5346,
      "Fail": 5347,
      "RI": 5348,
      "Ren": 5349,
      "VID": 5350,
      "Ġentries": 5351,
      "secs": 5352,
      "Ġwrapper": 5353,
      "()):": 5354,
      "Ġdefini": 5355,
      "ĠTable": 5356,
      "resses": 5357,
      "Ġ37": 5358,
      "ough": 5359,
      "ĠReg": 5360,
      "Ġcols": 5361,
      "Ġ{})": 5362,
      "available": 5363,
      "ĠQU": 5364,
      "sitory": 5365,
      "Disabled": 5366,
      "********************************": 5367,
      "tivity": 5368,
      "ĠSparkContext": 5369,
      "Ġeta": 5370,
      "tification": 5371,
      "Ġ'*": 5372,
      "asy": 5373,
      "Ġdraw": 5374,
      "upload": 5375,
      "appen": 5376,
      "strict": 5377,
      "Ġlogin": 5378,
      "ä»·": 5379,
      "ldp": 5380,
      "Comb": 5381,
      "commands": 5382,
      "handlers": 5383,
      "ĠRuntimeError": 5384,
      "nbsp": 5385,
      "3456789": 5386,
      "([\"": 5387,
      "Spa": 5388,
      "zes": 5389,
      "Ġfn": 5390,
      "Ġfrozen": 5391,
      "dialog": 5392,
      "eting": 5393,
      "found": 5394,
      "Ġfilenames": 5395,
      "ITS": 5396,
      "nected": 5397,
      "logy": 5398,
      "dence": 5399,
      "plus": 5400,
      "Ġrouter": 5401,
      "Ġsuffix": 5402,
      "flavor": 5403,
      "Ġ2012": 5404,
      "Ġmodified": 5405,
      "Ġwritten": 5406,
      "Python": 5407,
      "DATA": 5408,
      "Writer": 5409,
      "`\")": 5410,
      "imple": 5411,
      "wrapper": 5412,
      "Ġlayout": 5413,
      "oriz": 5414,
      "Ġio": 5415,
      "Ġglob": 5416,
      "Ġstack": 5417,
      "Ġfilepath": 5418,
      "rence": 5419,
      "Ġsite": 5420,
      "vely": 5421,
      "failure": 5422,
      "Ġnormal": 5423,
      "äº¤æĺĵæīĢä»£çłģ": 5424,
      "Ġpickle": 5425,
      "Ġdownload": 5426,
      "94": 5427,
      "Hash": 5428,
      "mut": 5429,
      "pdf": 5430,
      "vtk": 5431,
      "secret": 5432,
      "stro": 5433,
      "absent": 5434,
      "Ġedit": 5435,
      "cesses": 5436,
      "rong": 5437,
      "Ġleast": 5438,
      "symbols": 5439,
      "NotFound": 5440,
      "UND": 5441,
      "ExchangeID": 5442,
      "identity": 5443,
      "ĠNotes": 5444,
      "Geometry": 5445,
      "ĠLIABILITY": 5446,
      "Ġoccur": 5447,
      "My": 5448,
      "actor": 5449,
      "bum": 5450,
      "cid": 5451,
      "hy": 5452,
      "tected": 5453,
      "Ġfetch": 5454,
      "Ġreferences": 5455,
      "Ġsl": 5456,
      "ells": 5457,
      "unpack": 5458,
      "Ġ#:": 5459,
      "Ġissue": 5460,
      "ational": 5461,
      "Ġgm": 5462,
      "apply": 5463,
      "pytest": 5464,
      "need": 5465,
      "ird": 5466,
      "ENG": 5467,
      "Ġspecial": 5468,
      "expdat": 5469,
      "Ġvisit": 5470,
      "Ġsklearn": 5471,
      "staticmethod": 5472,
      "~~~~~~~~": 5473,
      "Market": 5474,
      "Ġblank": 5475,
      "Ġcorresponding": 5476,
      "$',": 5477,
      ")')": 5478,
      "81": 5479,
      "Limit": 5480,
      "Op": 5481,
      "TF": 5482,
      "bet": 5483,
      "ncurses": 5484,
      "off": 5485,
      "rup": 5486,
      "vas": 5487,
      "Ġord": 5488,
      "scar": 5489,
      "cessed": 5490,
      "fast": 5491,
      "Ġraises": 5492,
      "Ġknown": 5493,
      "outputs": 5494,
      "cyrillic": 5495,
      "Ġvia": 5496,
      "framework": 5497,
      "supported": 5498,
      "ĠQtGui": 5499,
      "crypt": 5500,
      "Ġndarray": 5501,
      "70": 5502,
      "91": 5503,
      "PY": 5504,
      "gu": 5505,
      "got": 5506,
      "kt": 5507,
      "pub": 5508,
      "Ġir": 5509,
      "Ġrelation": 5510,
      "lices": 5511,
      "ĠTo": 5512,
      "vec": 5513,
      "lso": 5514,
      "Ġstats": 5515,
      "ERP": 5516,
      "Ġsel": 5517,
      "Ġseen": 5518,
      "ysql": 5519,
      "scal": 5520,
      "Ġvl": 5521,
      "calcul": 5522,
      "Def": 5523,
      "Ġinterval": 5524,
      "snapshot": 5525,
      "Constraint": 5526,
      "(%": 5527,
      "74": 5528,
      "amp": 5529,
      "dom": 5530,
      "fc": 5531,
      "unct": 5532,
      "raction": 5533,
      "__()": 5534,
      "assertNot": 5535,
      "ssl": 5536,
      "ĠLIC": 5537,
      "Ġdeprecated": 5538,
      "ĠBe": 5539,
      "entication": 5540,
      "comboBox": 5541,
      "68": 5542,
      "Det": 5543,
      "GR": 5544,
      "MENT": 5545,
      "Queue": 5546,
      "Sparse": 5547,
      "final": 5548,
      "Ġremoved": 5549,
      "cookie": 5550,
      "ĠAR": 5551,
      "ĠIs": 5552,
      "Ġlower": 5553,
      "012": 5554,
      "ĠNULL": 5555,
      "orean": 5556,
      "Ġtimes": 5557,
      "Ġperson": 5558,
      "Ġopengm": 5559,
      "Ġhour": 5560,
      "operation": 5561,
      "Ġsupports": 5562,
      "Validation": 5563,
      "rules": 5564,
      "metrics": 5565,
      "RateField": 5566,
      "INFO": 5567,
      "CThostFtdcSyncing": 5568,
      "/'": 5569,
      "GE": 5570,
      "]):": 5571,
      "beta": 5572,
      "kana": 5573,
      "dian": 5574,
      "verify": 5575,
      "Ġconsi": 5576,
      "vide": 5577,
      "ĠOUT": 5578,
      "ITEM": 5579,
      "ĠWH": 5580,
      "plt": 5581,
      "expression": 5582,
      "symbol": 5583,
      "Ġtargets": 5584,
      "Ġdistribution": 5585,
      "RefCount": 5586,
      "macro": 5587,
      "SimpleRefCount": 5588,
      "ordinates": 5589,
      "FutureSign": 5590,
      "çĶ¨æĪ·": 5591,
      "ĠLICENSE": 5592,
      "\"/": 5593,
      "500": 5594,
      "Cleanup": 5595,
      "So": 5596,
      "fds": 5597,
      "micro": 5598,
      "publish": 5599,
      "ç±": 5600,
      "ĵį": 5601,
      "ĠĠĠĠĠĠĠĠĠĠĠĠĠ": 5602,
      "delay": 5603,
      "Ġclick": 5604,
      "ced": 5605,
      "Ġ()": 5606,
      "ĠTemp": 5607,
      "(\"/": 5608,
      "resolve": 5609,
      "Ġstage": 5610,
      "ends": 5611,
      "ĠMac": 5612,
      "nsure": 5613,
      "Ġnote": 5614,
      "Ġshutil": 5615,
      "INGLE": 5616,
      "Ġmatching": 5617,
      "Ġadditional": 5618,
      "unknown": 5619,
      "divid": 5620,
      "Layout": 5621,
      "-------------": 5622,
      "MarketData": 5623,
      "AV": 5624,
      "FS": 5625,
      "eg": 5626,
      "srf": 5627,
      "čĊĠĠĠĠĠĠĠĠĠĠĠĠĠĠĠĠĠĠĠĠĠĠĠ": 5628,
      "Ġul": 5629,
      "sequence": 5630,
      "ĠSp": 5631,
      "ĠSAP": 5632,
      "ĠCS": 5633,
      "ERT": 5634,
      "Ġenabled": 5635,
      "Ġonce": 5636,
      "ORIZ": 5637,
      "ĠRead": 5638,
      "Files": 5639,
      "Ġlet": 5640,
      "++++": 5641,
      "Left": 5642,
      "Ġnullable": 5643,
      "YRIGHT": 5644,
      "ĠRaises": 5645,
      "Ġpkg": 5646,
      "ĠTHIS": 5647,
      "CB": 5648,
      "LC": 5649,
      "OB": 5650,
      "flex": 5651,
      "Ġ))": 5652,
      "ero": 5653,
      "Ġpur": 5654,
      "etri": 5655,
      "licity": 5656,
      "ĠMeta": 5657,
      "Ġunits": 5658,
      "inity": 5659,
      "Ġprecision": 5660,
      "imer": 5661,
      "structure": 5662,
      "ynomial": 5663,
      "transform": 5664,
      "firm": 5665,
      "Ġlinks": 5666,
      "generator": 5667,
      "Ġappear": 5668,
      "PickerCtrl": 5669,
      "ONTAL": 5670,
      "ORIZONTAL": 5671,
      "83": 5672,
      "II": 5673,
      "New": 5674,
      "bra": 5675,
      "below": 5676,
      "game": 5677,
      "sses": 5678,
      "ceive": 5679,
      "paren": 5680,
      "Ġ\"\"\"<": 5681,
      "Ġbehavior": 5682,
      "accept": 5683,
      "struction": 5684,
      "Types": 5685,
      "days": 5686,
      "ĠIndex": 5687,
      "foreign": 5688,
      "AttributeValue": 5689,
      "Ġcases": 5690,
      "MIN": 5691,
      "Next": 5692,
      "bb": 5693,
      "ited": 5694,
      "sf": 5695,
      "Ġetc": 5696,
      "ŀĭ": 5697,
      "inc": 5698,
      "ino": 5699,
      "unexpected": 5700,
      "rig": 5701,
      "Ġmigrations": 5702,
      "external": 5703,
      "__\":": 5704,
      "Ġgrid": 5705,
      "ogr": 5706,
      "Ġchecked": 5707,
      "Ġexceptions": 5708,
      "browser": 5709,
      "invoke": 5710,
      ")(": 5711,
      "Msg": 5712,
      "Utf": 5713,
      "gits": 5714,
      "sin": 5715,
      "udio": 5716,
      "deg": 5717,
      "Ġowner": 5718,
      "Ġedi": 5719,
      "atakana": 5720,
      "visible": 5721,
      "correct": 5722,
      "Ġcodecs": 5723,
      "Ġinstalled": 5724,
      "original": 5725,
      "Ġiterable": 5726,
      "åĳĺ": 5727,
      "Foo": 5728,
      "fb": 5729,
      "rm": 5730,
      "å¼": 5731,
      "separ": 5732,
      "stmt": 5733,
      "Ġ\"\")": 5734,
      "Ġsync": 5735,
      "distance": 5736,
      "\"\",": 5737,
      "Ġwell": 5738,
      "house": 5739,
      "]).": 5740,
      "Ġvari": 5741,
      "ports": 5742,
      "Parameter": 5743,
      "Timeout": 5744,
      "[:]": 5745,
      "ĊĠĠĠĠĠĠĠĠĠĠĠĠĠĠĠĠĠĠĠĠĠĠĠĠĠĠĠĠĠĠĠĠĠĠĠĠĠĠĠĠĠĠĠĠĠĠ": 5746,
      "Ġplatforms": 5747,
      "sistent": 5748,
      "Serialized": 5749,
      "Spin": 5750,
      "ĠIOError": 5751,
      "»åŀĭ": 5752,
      "ç±»åŀĭ": 5753,
      "DR": 5754,
      "TREE": 5755,
      "ied": 5756,
      "ites": 5757,
      "rl": 5758,
      "yes": 5759,
      "inventory": 5760,
      "atom": 5761,
      "ĊĠĠĠĠĠĠĠĠĠĠĠĠĊĠĠĠĠĠĠĠĠĠĠĠ": 5762,
      "Ġrepe": 5763,
      "Ġbelow": 5764,
      "expi": 5765,
      "getLogger": 5766,
      "trunc": 5767,
      "ĠSystem": 5768,
      "Ġstored": 5769,
      "power": 5770,
      "='',": 5771,
      "Ġshared": 5772,
      "Ġpermission": 5773,
      "Ġnumbers": 5774,
      "Ġupload": 5775,
      "CRIPT": 5776,
      "ĠCOPYRIGHT": 5777,
      "sock": 5778,
      "Ġuri": 5779,
      "cture": 5780,
      "dims": 5781,
      "ĠTra": 5782,
      "quo": 5783,
      "istration": 5784,
      "Ġvs": 5785,
      "acter": 5786,
      "ĠThese": 5787,
      "ario": 5788,
      "000000": 5789,
      "Ġverify": 5790,
      "translate": 5791,
      "Feed": 5792,
      "ordinate": 5793,
      "Price": 5794,
      "æĬ¥åįķ": 5795,
      ".\"),": 5796,
      "href": 5797,
      "iver": 5798,
      "ru": 5799,
      "tili": 5800,
      "Ġ\")": 5801,
      "Ġfi": 5802,
      "Ġput": 5803,
      "Ġnc": 5804,
      "Ġtm": 5805,
      "Ġtab": 5806,
      "Ġown": 5807,
      "Ġboolean": 5808,
      "__',": 5809,
      "tras": 5810,
      "Ġcondition": 5811,
      "Ġtesting": 5812,
      "Ġgdata": 5813,
      "agent": 5814,
      "fede": 5815,
      "DEBUG": 5816,
      "ROOT": 5817,
      "ynam": 5818,
      "Ġworld": 5819,
      "AGES": 5820,
      "Ġconnections": 5821,
      "Ġdelta": 5822,
      "Ġthreading": 5823,
      "Double": 5824,
      "Ġ-----": 5825,
      "##############################################################################": 5826,
      "63": 5827,
      "ECT": 5828,
      "SO": 5829,
      "vors": 5830,
      "vlan": 5831,
      "Ġduring": 5832,
      "setting": 5833,
      "Ġutils": 5834,
      "Ġev": 5835,
      "ĠSINGLE": 5836,
      "fromUtf": 5837,
      "ĠFROM": 5838,
      "Ġdirectories": 5839,
      "Insert": 5840,
      "ĠOther": 5841,
      "ĠWindow": 5842,
      "ĠRE": 5843,
      "Ġnecessary": 5844,
      "Ġtuples": 5845,
      "Install": 5846,
      "41": 5847,
      "62": 5848,
      "Obj": 5849,
      "Windows": 5850,
      "impl": 5851,
      "æķ": 5852,
      "reindex": 5853,
      "dee": 5854,
      "deleted": 5855,
      "align": 5856,
      "Ġaut": 5857,
      "getCurrent": 5858,
      "ĠAlso": 5859,
      "ouquet": 5860,
      "quiv": 5861,
      "RED": 5862,
      "Ġ{}),": 5863,
      "Ġworker": 5864,
      "iterable": 5865,
      "Ġrole": 5866,
      "xyz": 5867,
      "Ġ2013": 5868,
      "Ġfactor": 5869,
      "literals": 5870,
      "Deleter": 5871,
      "Detail": 5872,
      "dividual": 5873,
      "*.": 5874,
      "93": 5875,
      "SIZE": 5876,
      "Use": 5877,
      "\\.": 5878,
      "github": 5879,
      "hass": 5880,
      "variant": 5881,
      "ticket": 5882,
      "lide": 5883,
      "Ġmd": 5884,
      "Ġdump": 5885,
      "')))": 5886,
      "strftime": 5887,
      "ĠSU": 5888,
      "ĠSize": 5889,
      "Ġexperiment": 5890,
      "ĠOne": 5891,
      "bounded": 5892,
      "ĠNet": 5893,
      "eek": 5894,
      "aving": 5895,
      "Positive": 5896,
      "Ġtables": 5897,
      "ç»ĵ": 5898,
      "effici": 5899,
      "effect": 5900,
      "è´§": 5901,
      "Ġnegative": 5902,
      "NS": 5903,
      "gb": 5904,
      "alle": 5905,
      "sertion": 5906,
      "radio": 5907,
      "itor": 5908,
      "ssh": 5909,
      "Ġexpect": 5910,
      "ĠLOG": 5911,
      "Ġyet": 5912,
      "clusive": 5913,
      "iteritems": 5914,
      "``,": 5915,
      "while": 5916,
      "Ġmanager": 5917,
      "IBUT": 5918,
      "pendency": 5919,
      "VALID": 5920,
      "black": 5921,
      "SIGNAL": 5922,
      "82": 5923,
      ">\"": 5924,
      "Copy": 5925,
      "Identi": 5926,
      "Wor": 5927,
      "band": 5928,
      "lu": 5929,
      "ä¼": 5930,
      "eng": 5931,
      "digest": 5932,
      "cohort": 5933,
      "issue": 5934,
      "ĠDate": 5935,
      "ĠMARK": 5936,
      "\"]:": 5937,
      "Ġengine": 5938,
      "ITE": 5939,
      "Ġcomplex": 5940,
      "layers": 5941,
      "============": 5942,
      "Filename": 5943,
      "createDataFrame": 5944,
      "Ġversions": 5945,
      "Ġregion": 5946,
      "switch": 5947,
      "Ġsomething": 5948,
      "warnings": 5949,
      "Ġswitch": 5950,
      "Choice": 5951,
      "Ġfrozenset": 5952,
      "/')": 5953,
      "FC": 5954,
      "PLE": 5955,
      "dst": 5956,
      "gon": 5957,
      "rst": 5958,
      "å¯": 5959,
      "selection": 5960,
      "reload": 5961,
      "ansible": 5962,
      "Ġ')": 5963,
      "ĠTensor": 5964,
      "ĠForm": 5965,
      "ĠMap": 5966,
      "Ġcluster": 5967,
      "STR": 5968,
      "ANS": 5969,
      "Ġpokemon": 5970,
      "XXXX": 5971,
      "period": 5972,
      "Ġsqlalchemy": 5973,
      "Normal": 5974,
      "Ġautomatically": 5975,
      "DAT": 5976,
      "Est": 5977,
      "EQUAL": 5978,
      "Lib": 5979,
      "Make": 5980,
      "Slider": 5981,
      "cut": 5982,
      "egg": 5983,
      "hist": 5984,
      "åĬ": 5985,
      "ģ¯": 5986,
      "standard": 5987,
      "Ġreset": 5988,
      "Ġregex": 5989,
      "utc": 5990,
      "Ġmultip": 5991,
      "ado": 5992,
      "romote": 5993,
      "ĠAC": 5994,
      "Reader": 5995,
      "ĠDjango": 5996,
      "Ġunsigned": 5997,
      "Ġcolour": 5998,
      "Ġatt": 5999,
      "Ġ40": 6000,
      "Ġcomm": 6001,
      "subset": 6002,
      "Ġdouble": 6003,
      "Ġknow": 6004,
      "priate": 6005,
      "sgi": 6006,
      "mydate": 6007,
      "suite": 6008,
      "astype": 6009,
      "Ġupdated": 6010,
      "InvestorID": 6011,
      "baz": 6012,
      "Ġcharacter": 6013,
      "Backend": 6014,
      "ĠMoved": 6015,
      "æĬķèµĦèĢħä»£çłģ": 6016,
      "BB": 6017,
      "CLI": 6018,
      "PASS": 6019,
      "TC": 6020,
      "cce": 6021,
      "æģ¯": 6022,
      "çļ": 6023,
      "encoder": 6024,
      "lier": 6025,
      "exclude": 6026,
      "ortran": 6027,
      "=\"/": 6028,
      "spon": 6029,
      "ĠBu": 6030,
      "Ġalign": 6031,
      "Ġchecks": 6032,
      "Unit": 6033,
      "Package": 6034,
      "Ġmerge": 6035,
      "çļĦ": 6036,
      "(\"\"\"": 6037,
      "=('": 6038,
      "raries": 6039,
      "Ġ--------------------------------": 6040,
      "Ġ':": 6041,
      "att": 6042,
      "rou": 6043,
      "series": 6044,
      "disk": 6045,
      "digit": 6046,
      "Ġbasic": 6047,
      "expect": 6048,
      "sitions": 6049,
      "sibility": 6050,
      "ulate": 6051,
      "testing": 6052,
      "ĠPO": 6053,
      "datastore": 6054,
      "ä»ĵ": 6055,
      "Unable": 6056,
      "fully": 6057,
      "Ġcharset": 6058,
      "disable": 6059,
      "Ġtakes": 6060,
      "Ġtraceback": 6061,
      "FLAGS": 6062,
      ",\\": 6063,
      "Cre": 6064,
      "Rule": 6065,
      "cate": 6066,
      "sync": 6067,
      "æŁ": 6068,
      "Ġ64": 6069,
      "tect": 6070,
      "assign": 6071,
      "attach": 6072,
      "cedence": 6073,
      "Ġslim": 6074,
      "Ġisn": 6075,
      "Ġresources": 6076,
      "Ġ<<": 6077,
      "ĠNe": 6078,
      "Ġwords": 6079,
      "funcs": 6080,
      "mitive": 6081,
      "Ġprovide": 6082,
      "éĩı": 6083,
      "Ġincluding": 6084,
      "Ġmacro": 6085,
      "/\"": 6086,
      "211": 6087,
      "Over": 6088,
      "cen": 6089,
      "edi": 6090,
      "vis": 6091,
      "æĵį": 6092,
      "requen": 6093,
      "detail": 6094,
      "lead": 6095,
      "Ġsalt": 6096,
      "limi": 6097,
      "Ġavoid": 6098,
      "Regex": 6099,
      "strings": 6100,
      "Ġlang": 6101,
      "Values": 6102,
      "checkbox": 6103,
      "TextAttr": 6104,
      "Ġsuite": 6105,
      "ĠWeb": 6106,
      "ä½ľ": 6107,
      "æĵįä½ľ": 6108,
      ",\"": 6109,
      "CAL": 6110,
      "xm": 6111,
      "Ġ\"\",": 6112,
      "dictions": 6113,
      "')[": 6114,
      "Ġeffect": 6115,
      "Ġgive": 6116,
      "ĠField": 6117,
      "Ġhigh": 6118,
      "Ġhappen": 6119,
      "ĠThere": 6120,
      "rank": 6121,
      "curr": 6122,
      "ducer": 6123,
      "subject": 6124,
      "Ġ50": 6125,
      "Could": 6126,
      "tasks": 6127,
      "FIX": 6128,
      "ExecOrderField": 6129,
      "æĹ¶": 6130,
      "xxxxxxxx": 6131,
      "seek": 6132,
      "payload": 6133,
      "FILES": 6134,
      "Ġappropriate": 6135,
      "tegral": 6136,
      "etrieve": 6137,
      "NOT": 6138,
      "Token": 6139,
      "UID": 6140,
      "gui": 6141,
      "kip": 6142,
      "æĢ": 6143,
      "selfref": 6144,
      "Ġcach": 6145,
      "Ġ#@": 6146,
      "Ġdrop": 6147,
      "(\"-": 6148,
      "former": 6149,
      "quested": 6150,
      "INSERT": 6151,
      "Ġvariant": 6152,
      "ĠUP": 6153,
      "readline": 6154,
      "logs": 6155,
      "NameStr": 6156,
      "ĠVERT": 6157,
      "ABSTFN": 6158,
      "Enabled": 6159,
      "Args": 6160,
      "lexible": 6161,
      "è¯¢": 6162,
      "Te": 6163,
      "az": 6164,
      "korean": 6165,
      "uz": 6166,
      "éĹ": 6167,
      "retry": 6168,
      "tid": 6169,
      "Ġfolder": 6170,
      "Ġtx": 6171,
      "Ġtwisted": 6172,
      "ĠSub": 6173,
      "ĠDIG": 6174,
      "bou": 6175,
      "Ġitself": 6176,
      "017": 6177,
      "ĠBE": 6178,
      "pendent": 6179,
      "refs": 6180,
      "Items": 6181,
      "OSS": 6182,
      "Ġactually": 6183,
      "HelperFor": 6184,
      "ĠVERTICAL": 6185,
      "éĹ´": 6186,
      "CF": 6187,
      "scheme": 6188,
      "laimer": 6189,
      "INTER": 6190,
      "cip": 6191,
      "spf": 6192,
      "Ġclone": 6193,
      "worker": 6194,
      "configure": 6195,
      "Ġnotify": 6196,
      "Ġcalls": 6197,
      "extensions": 6198,
      "Argument": 6199,
      "Ġcalendar": 6200,
      "Ġexecute": 6201,
      "closed": 6202,
      "ĠCommandline": 6203,
      "stroke": 6204,
      "XML": 6205,
      "\\'": 6206,
      "]'": 6207,
      "gmail": 6208,
      "ior": 6209,
      "jor": 6210,
      "ĠĠĠĠĠĠĠĠĠĠĠĠĠĠ": 6211,
      "three": 6212,
      "Ġfast": 6213,
      "Ġtar": 6214,
      "('.": 6215,
      "versed": 6216,
      "amo": 6217,
      "prop": 6218,
      "Ġbest": 6219,
      "Ġencode": 6220,
      "Ġsetattr": 6221,
      "Ġattemp": 6222,
      "Provision": 6223,
      "Ġpositive": 6224,
      "Ġcombin": 6225,
      "Ġside": 6226,
      "Timer": 6227,
      "CONT": 6228,
      "wards": 6229,
      "RESP": 6230,
      "11111111": 6231,
      "ĠAuthors": 6232,
      "unicate": 6233,
      "Ġmetric": 6234,
      "æĹ¶éĹ´": 6235,
      "ĠDIGIT": 6236,
      "WN": 6237,
      "duration": 6238,
      "ier": 6239,
      "erature": 6240,
      "enforce": 6241,
      "Ġast": 6242,
      "android": 6243,
      "ĠTime": 6244,
      "consumer": 6245,
      "Ġ18": 6246,
      "ĠSpeci": 6247,
      "Ġexternal": 6248,
      "Ġlow": 6249,
      "ĊĠĠĠĠĠĠĠĠĊĠĠĠ": 6250,
      "comments": 6251,
      "Ġvpc": 6252,
      "Ġsets": 6253,
      "Ġ31": 6254,
      "ĠHe": 6255,
      "ĠHORIZONTAL": 6256,
      "Ġcollection": 6257,
      "128": 6258,
      "corator": 6259,
      "Trader": 6260,
      "Ġsymbols": 6261,
      "abcdef": 6262,
      "Ġinitiali": 6263,
      "alent": 6264,
      "ĠDataType": 6265,
      "Parent": 6266,
      "Operation": 6267,
      "Ġsqrt": 6268,
      "ynamic": 6269,
      "Database": 6270,
      "EPS": 6271,
      "IV": 6272,
      "SQL": 6273,
      "cancel": 6274,
      "embedding": 6275,
      "migration": 6276,
      "ye": 6277,
      "once": 6278,
      "mem": 6279,
      "road": 6280,
      "ĠCH": 6281,
      "Ġrespon": 6282,
      "Ġmem": 6283,
      "boot": 6284,
      "ĠQu": 6285,
      "ĊĠĠĠĠĠĠĠĠĠĠĠĠĠĠĠĠĠĠĠĠĠĠĠĠĠĠĠĠĠĠĠĠĠĠĠĠĠĠĠĠĠĠĠ": 6286,
      "StringIO": 6287,
      "syntax": 6288,
      "Ġdestination": 6289,
      "Ġintegr": 6290,
      "Ġdimensions": 6291,
      "Route": 6292,
      "IBUTORS": 6293,
      "Provisioner": 6294,
      "JSON": 6295,
      "SIG": 6296,
      "SUP": 6297,
      "kb": 6298,
      "px": 6299,
      "png": 6300,
      "tv": 6301,
      "rees": 6302,
      "arange": 6303,
      "ench": 6304,
      "Ġrest": 6305,
      "Ġscheme": 6306,
      "Ġtran": 6307,
      "rase": 6308,
      "gettext": 6309,
      "iling": 6310,
      "ĠPath": 6311,
      "rypto": 6312,
      "Ġparsing": 6313,
      "ĠNumber": 6314,
      "ĠBY": 6315,
      "Profile": 6316,
      "utili": 6317,
      "\"></": 6318,
      "Ġinstances": 6319,
      "Ġaggreg": 6320,
      "2007": 6321,
      "which": 6322,
      "Ġfails": 6323,
      "Ġbetter": 6324,
      "controller": 6325,
      "Hosts": 6326,
      "Ġbuiltin": 6327,
      "Descri": 6328,
      "Ġbrowser": 6329,
      "ä¼ļ": 6330,
      ":])": 6331,
      "Gm": 6332,
      "Pool": 6333,
      "arDown": 6334,
      "Ġclear": 6335,
      "Ġremain": 6336,
      "Ġnor": 6337,
      "Ġbot": 6338,
      "Ġdefine": 6339,
      "setUp": 6340,
      "together": 6341,
      "Instr": 6342,
      "addCleanup": 6343,
      "ĠMode": 6344,
      "\"][\"": 6345,
      "ĠReserved": 6346,
      "archive": 6347,
      "ROL": 6348,
      "Ġ1024": 6349,
      "Ġverbosity": 6350,
      "Bytes": 6351,
      "Ġhome": 6352,
      "Ġpackages": 6353,
      "Algorithm": 6354,
      "assification": 6355,
      "Ġcreator": 6356,
      "specific": 6357,
      "ĠOpenERP": 6358,
      "Ġdisclaimer": 6359,
      "modified": 6360,
      "Metadata": 6361,
      "æķ°": 6362,
      "quivalent": 6363,
      ",),": 6364,
      "125": 6365,
      "FB": 6366,
      "cmp": 6367,
      "cus": 6368,
      "dldp": 6369,
      "uses": 6370,
      "Ġhead": 6371,
      "dead": 6372,
      "atrix": 6373,
      "lots": 6374,
      "utors": 6375,
      "chrome": 6376,
      "Ġcontact": 6377,
      "prob": 6378,
      "pores": 6379,
      "Ġprob": 6380,
      "scan": 6381,
      "Ġcohort": 6382,
      "Ġcommit": 6383,
      "configuration": 6384,
      "Ġ{},": 6385,
      "Ġsubclass": 6386,
      "2014": 6387,
      "OptionInstr": 6388,
      "limits": 6389,
      "randint": 6390,
      "urlopen": 6391,
      "Ġsupplied": 6392,
      "*(": 6393,
      ".],": 6394,
      "gent": 6395,
      "jax": 6396,
      "titem": 6397,
      "Ġpe": 6398,
      "Ġsources": 6399,
      "Ġalert": 6400,
      "utron": 6401,
      "ably": 6402,
      "('<": 6403,
      "isol": 6404,
      "=='": 6405,
      "ĠCA": 6406,
      "Ġproc": 6407,
      "([('": 6408,
      "validation": 6409,
      "ĠInter": 6410,
      "refresh": 6411,
      "Ġreadonly": 6412,
      "Ġextract": 6413,
      "nonzero": 6414,
      "arguments": 6415,
      "svc": 6416,
      "Serializer": 6417,
      "vertices": 6418,
      "!!!!!!!!!!!!!!!!": 6419,
      "ĠTemplate": 6420,
      ";'": 6421,
      "Branch": 6422,
      "IVE": 6423,
      "Job": 6424,
      "OF": 6425,
      "RF": 6426,
      "dash": 6427,
      "eded": 6428,
      "king": 6429,
      "watch": 6430,
      "Ġcat": 6431,
      "lags": 6432,
      "Ġdistance": 6433,
      "INCLUDING": 6434,
      "screen": 6435,
      "riteri": 6436,
      "cached": 6437,
      "ĠRights": 6438,
      "fixed": 6439,
      "phi": 6440,
      "Ġround": 6441,
      "Ġoperations": 6442,
      "Level": 6443,
      "QueryAccountField": 6444,
      "placeholder": 6445,
      "Ġimg": 6446,
      "payment": 6447,
      "STATIC": 6448,
      "milar": 6449,
      "Failure": 6450,
      "'%": 6451,
      "Last": 6452,
      "Please": 6453,
      "]+)": 6454,
      "high": 6455,
      "lti": 6456,
      "pod": 6457,
      "since": 6458,
      "xA": 6459,
      "æĿ": 6460,
      "ords": 6461,
      "decoder": 6462,
      "tivate": 6463,
      "ascript": 6464,
      "Ġsur": 6465,
      "abstract": 6466,
      "ĠSE": 6467,
      "ĠMulti": 6468,
      "Ġyear": 6469,
      "Ġcore": 6470,
      "fact": 6471,
      "prev": 6472,
      "Ġatom": 6473,
      "Ġalpha": 6474,
      "scribe": 6475,
      "Ġcompute": 6476,
      "Ġlex": 6477,
      "Ġlead": 6478,
      "processor": 6479,
      "ROUP": 6480,
      "Entity": 6481,
      "ĠTests": 6482,
      "Ġdoctest": 6483,
      "2012": 6484,
      "Ċĉĉĉĉĉĉ": 6485,
      "deploy": 6486,
      "æľŁè´§": 6487,
      "repeat": 6488,
      "ĠCONTRIBUTORS": 6489,
      "Sample": 6490,
      "clause": 6491,
      "gz": 6492,
      "mysql": 6493,
      "numpy": 6494,
      "oom": 6495,
      "rstrip": 6496,
      "vrf": 6497,
      "selector": 6498,
      "Ġfit": 6499,
      "disc": 6500,
      "exer": 6501,
      "contact": 6502,
      "Ġcontrib": 6503,
      "ĠCode": 6504,
      "proc": 6505,
      "Ġbegin": 6506,
      "owen": 6507,
      "Ġlists": 6508,
      "submit": 6509,
      "Raw": 6510,
      "pix": 6511,
      "DefaultDeleter": 6512,
      "cert": 6513,
      "choice": 6514,
      "Ġserialized": 6515,
      "æĹ¥æľŁ": 6516,
      "Impl": 6517,
      "break": 6518,
      "ks": 6519,
      "kind": 6520,
      "å¹": 6521,
      "Ġicon": 6522,
      "Ġrec": 6523,
      "Ġpag": 6524,
      "complex": 6525,
      "ĠSimple": 6526,
      "ĠClient": 6527,
      "ĠAb": 6528,
      "']\",": 6529,
      "perm": 6530,
      "prompt": 6531,
      "Ġsep": 6532,
      "Ġproblem": 6533,
      "Ġxm": 6534,
      "SELECT": 6535,
      "avascript": 6536,
      "Ġtasks": 6537,
      "Ġrepresentation": 6538,
      "literal": 6539,
      "numeric": 6540,
      "Plugin": 6541,
      "Repeal": 6542,
      "orizont": 6543,
      "73": 6544,
      "Import": 6545,
      "OO": 6546,
      "multiple": 6547,
      "sources": 6548,
      "åľ": 6549,
      "relation": 6550,
      "tit": 6551,
      "Ġfname": 6552,
      "Ġtb": 6553,
      "diffe": 6554,
      "Ġdefer": 6555,
      "edu": 6556,
      "')).": 6557,
      "lations": 6558,
      "(\".": 6559,
      "ĠImage": 6560,
      "bucket": 6561,
      "=\"%": 6562,
      "ETHER": 6563,
      "updates": 6564,
      "avg": 6565,
      "Dataset": 6566,
      "Ġcodec": 6567,
      "Ġinternal": 6568,
      "before": 6569,
      "errno": 6570,
      "Ġmaximum": 6571,
      "2013": 6572,
      "Ġtokens": 6573,
      "Ġcorrectly": 6574,
      "Ġ%}{%": 6575,
      "Ġcreating": 6576,
      "symlinks": 6577,
      "Ġserializer": 6578,
      "wiki": 6579,
      "Ġdimension": 6580,
      "amount": 6581,
      ">')": 6582,
      "Width": 6583,
      "har": 6584,
      "ology": 6585,
      "sess": 6586,
      "alg": 6587,
      "allation": 6588,
      "analytic": 6589,
      "rog": 6590,
      "Ġrecur": 6591,
      "ater": 6592,
      "chan": 6593,
      "Ġdependencies": 6594,
      "Ġ23": 6595,
      "ATOR": 6596,
      "CThostFtdcNotify": 6597,
      "ESIS": 6598,
      "Keys": 6599,
      "ĠVi": 6600,
      "phinx": 6601,
      "Ġgeneric": 6602,
      "suffix": 6603,
      "ĠUnicode": 6604,
      "white": 6605,
      "æľº": 6606,
      "Ġfailure": 6607,
      "tmpfile": 6608,
      "Ġthreads": 6609,
      "================================================================": 6610,
      "SERVER": 6611,
      "PARAM": 6612,
      "ĠPROVID": 6613,
      "PRESS": 6614,
      "existing": 6615,
      "Ġcopies": 6616,
      "builtin": 6617,
      "ighbors": 6618,
      "requency": 6619,
      "Ki": 6620,
      "NING": 6621,
      "Sys": 6622,
      "Save": 6623,
      "VB": 6624,
      "cnt": 6625,
      "infer": 6626,
      "requires": 6627,
      "Ġreader": 6628,
      "geom": 6629,
      "Ġsrf": 6630,
      "Ġind": 6631,
      "ĠTe": 6632,
      "Ġcond": 6633,
      "Ġexpi": 6634,
      "qualified": 6635,
      "Ġhar": 6636,
      "sph": 6637,
      "Ġxrange": 6638,
      "Ġenc": 6639,
      "Ġvm": 6640,
      "CThostFtdcTransfer": 6641,
      "tenv": 6642,
      "ĠUp": 6643,
      "Ġprev": 6644,
      "cording": 6645,
      "Ratio": 6646,
      "Ġmove": 6647,
      "HEAD": 6648,
      "images": 6649,
      "Ġnormalize": 6650,
      "traceback": 6651,
      "Ġderived": 6652,
      "ĠDAMAGES": 6653,
      "\\\"": 6654,
      "ire": 6655,
      "kit": 6656,
      "nor": 6657,
      "tl": 6658,
      "uation": 6659,
      "wls": 6660,
      "¥è¯¢": 6661,
      "Ġ?": 6662,
      "onal": 6663,
      "Ġinsert": 6664,
      "diere": 6665,
      "istered": 6666,
      "__.__": 6667,
      "ĠAc": 6668,
      "linux": 6669,
      "ĠON": 6670,
      "Ġgettext": 6671,
      "ospace": 6672,
      "KeyField": 6673,
      "doctype": 6674,
      "rtwls": 6675,
      "Ġzone": 6676,
      "ternative": 6677,
      "Ġroute": 6678,
      "transfer": 6679,
      "DIRECT": 6680,
      "tilde": 6681,
      "Ġlookahead": 6682,
      "TESTS": 6683,
      "tabstop": 6684,
      "ĠDEFAULT": 6685,
      "InstrumentID": 6686,
      "è¯ģéĩĳ": 6687,
      "radius": 6688,
      "ĠEVENT": 6689,
      "ä¿Ŀè¯ģéĩĳ": 6690,
      "æŁ¥è¯¢": 6691,
      "CRE": 6692,
      "Csma": 6693,
      "Dist": 6694,
      "MAP": 6695,
      "mar": 6696,
      "mid": 6697,
      "pending": 6698,
      "yper": 6699,
      "Ã¡": 6700,
      "records": 6701,
      "--+": 6702,
      "Ġpr": 6703,
      "Ġpix": 6704,
      "ullet": 6705,
      "ada": 6706,
      "ĠTrans": 6707,
      "===": 6708,
      "ĊĊĉĉ": 6709,
      "ĠCol": 6710,
      "Ġhex": 6711,
      "Ġhard": 6712,
      "Ġenforce": 6713,
      "Ġaddr": 6714,
      "241": 6715,
      "ĠXXX": 6716,
      "speed": 6717,
      "oxia": 6718,
      "bling": 6719,
      "Login": 6720,
      "Ġallows": 6721,
      "Modi": 6722,
      "sphinx": 6723,
      "RIGHT": 6724,
      "SG": 6725,
      "Show": 6726,
      "Zip": 6727,
      "bal": 6728,
      "tabs": 6729,
      "Ð¾": 6730,
      "reason": 6731,
      "Ġcap": 6732,
      "Ġrecords": 6733,
      "Ġboto": 6734,
      "Ġmuch": 6735,
      "isfile": 6736,
      "Ġuuid": 6737,
      "appa": 6738,
      "posed": 6739,
      "Ġselection": 6740,
      "EqualSign": 6741,
      "assertEqualAnd": 6742,
      "tries": 6743,
      "spatch": 6744,
      "Exist": 6745,
      "shell": 6746,
      "CThostFtdcBroker": 6747,
      "ORY": 6748,
      "outer": 6749,
      "ogc": 6750,
      "compare": 6751,
      "ListCtrl": 6752,
      "ĠINCLUDING": 6753,
      "ĠCONT": 6754,
      "Ġprovider": 6755,
      "clip": 6756,
      "Ġrendered": 6757,
      "TreeCtrl": 6758,
      "plotlib": 6759,
      "Permission": 6760,
      "Ġretrieve": 6761,
      "Ġentities": 6762,
      "åĲĪçº¦ä»£çłģ": 6763,
      "Estimator": 6764,
      "assertEqualAndEqualSign": 6765,
      "404": 6766,
      "Cannot": 6767,
      "DATE": 6768,
      "Flow": 6769,
      "Flexible": 6770,
      "It": 6771,
      "Opt": 6772,
      "Sum": 6773,
      "hand": 6774,
      "walk": 6775,
      "inte": 6776,
      "rev": 6777,
      "Ġ'+": 6778,
      "ashes": 6779,
      "Ġfix": 6780,
      "geo": 6781,
      "ges": 6782,
      "Ġturn": 6783,
      "Ġactions": 6784,
      "ateri": 6785,
      "loud": 6786,
      "cost": 6787,
      "peak": 6788,
      "Ġda": 6789,
      "isdir": 6790,
      "ĠCho": 6791,
      "apter": 6792,
      "ĠBSD": 6793,
      "undle": 6794,
      "rant": 6795,
      "ĠEvent": 6796,
      "notify": 6797,
      "based": 6798,
      "CHANG": 6799,
      "FIEL": 6800,
      "constants": 6801,
      "Ġassume": 6802,
      "ToolBar": 6803,
      "Ġlinprog": 6804,
      "cremental": 6805,
      "Ġmetrics": 6806,
      "REQUEST": 6807,
      "CLIENT": 6808,
      "/.": 6809,
      "300": 6810,
      "Http": 6811,
      "_)": 6812,
      "cas": 6813,
      "category": 6814,
      "hw": 6815,
      "sheet": 6816,
      "deep": 6817,
      "Ġfmt": 6818,
      "loor": 6819,
      "Ġbug": 6820,
      "rad": 6821,
      "getattr": 6822,
      "Ġ19": 6823,
      "Ġelem": 6824,
      "allback": 6825,
      "ticular": 6826,
      "Radio": 6827,
      "ools": 6828,
      "(_('": 6829,
      "PEC": 6830,
      "Ġdocuments": 6831,
      "InterfaceAddress": 6832,
      "ships": 6833,
      "Ġtraining": 6834,
      "ographic": 6835,
      "ĠACUTE": 6836,
      "FlexibleForeignKey": 6837,
      "First": 6838,
      "TEMPL": 6839,
      "freq": 6840,
      "ffici": 6841,
      "gi": 6842,
      "lm": 6843,
      "lab": 6844,
      "saved": 6845,
      "windows": 6846,
      "¢æĪ·": 6847,
      "revision": 6848,
      "Ġpred": 6849,
      "Ġpip": 6850,
      "',),": 6851,
      "Ġsamples": 6852,
      "Ġinherit": 6853,
      "under": 6854,
      "conver": 6855,
      "laces": 6856,
      "Ġexport": 6857,
      "ables": 6858,
      "Ġ{%": 6859,
      "ĠPY": 6860,
      "prox": 6861,
      "Ġproperly": 6862,
      "ĠDatabase": 6863,
      "tential": 6864,
      "ants": 6865,
      "statement": 6866,
      "updated": 6867,
      "Ġargv": 6868,
      "Posi": 6869,
      "ĠXML": 6870,
      "crete": 6871,
      "Ġhostname": 6872,
      "Ġarrays": 6873,
      "Ġmanual": 6874,
      "disabled": 6875,
      "Verify": 6876,
      "volumes": 6877,
      "ĠLIABLE": 6878,
      "å®¢æĪ·": 6879,
      "ĠSHALL": 6880,
      "Ġfilters": 6881,
      "timize": 6882,
      "composite": 6883,
      "Ġdefinition": 6884,
      "DU": 6885,
      "DES": 6886,
      "JECT": 6887,
      "Long": 6888,
      "VAC": 6889,
      "cla": 6890,
      "ring": 6891,
      "vc": 6892,
      "wf": 6893,
      "ensure": 6894,
      "amera": 6895,
      "uni": 6896,
      "umflex": 6897,
      "']]": 6898,
      "scr": 6899,
      "Ġenviron": 6900,
      "Ġvocab": 6901,
      "prepare": 6902,
      "Ġweight": 6903,
      "Dep": 6904,
      "GetClassDefaultAttributes": 6905,
      "Encoder": 6906,
      "ISING": 6907,
      "Ġmapped": 6908,
      "ofc": 6909,
      "realpath": 6910,
      "Ġiterator": 6911,
      "allowed": 6912,
      "ĠHttpResponse": 6913,
      "invoice": 6914,
      "mmar": 6915,
      "åĪĨ": 6916,
      "pickle": 6917,
      "ĠRedistributions": 6918,
      "ĠARISING": 6919,
      "PositiveIntegerField": 6920,
      "ĠPROVIDED": 6921,
      "#----------------------------------------------------------------": 6922,
      "199": 6923,
      "Float": 6924,
      "Main": 6925,
      "Middleware": 6926,
      "Transport": 6927,
      "WIN": 6928,
      "_%": 6929,
      "but": 6930,
      "gml": 6931,
      "inct": 6932,
      "deri": 6933,
      "Ġtransport": 6934,
      "live": 6935,
      "services": 6936,
      "itle": 6937,
      "ĠTORT": 6938,
      "Ġutili": 6939,
      "ĠCourse": 6940,
      "ressions": 6941,
      "xtures": 6942,
      "filepath": 6943,
      "timezone": 6944,
      "cipi": 6945,
      "ĠDoc": 6946,
      "Ġvlan": 6947,
      "CThostFtdcErr": 6948,
      "Condition": 6949,
      "ĠRemove": 6950,
      "denom": 6951,
      "Ġshift": 6952,
      "manual": 6953,
      "COMP": 6954,
      "Common": 6955,
      "initiali": 6956,
      "Ġvals": 6957,
      "è¯·": 6958,
      "OPT": 6959,
      "atibility": 6960,
      "duced": 6961,
      "ĠCONTRACT": 6962,
      "ĠWHETHER": 6963,
      "71": 6964,
      "Day": 6965,
      "EB": 6966,
      "QObject": 6967,
      "RS": 6968,
      "]\",": 6969,
      "iro": 6970,
      "pad": 6971,
      "pip": 6972,
      "xpath": 6973,
      "thumbnail": 6974,
      "async": 6975,
      "Ġsolver": 6976,
      "litext": 6977,
      "\"\")": 6978,
      "utter": 6979,
      "exe": 6980,
      "sim": 6981,
      "opf": 6982,
      "ĠLIGHT": 6983,
      "Ġdecode": 6984,
      "tack": 6985,
      "sca": 6986,
      "ĠOver": 6987,
      "ĠInvalid": 6988,
      "velop": 6989,
      "POINT": 6990,
      "transaction": 6991,
      "AttributeChecker": 6992,
      "Buil": 6993,
      "servers": 6994,
      "Ġexecution": 6995,
      "Ġstdin": 6996,
      "relpath": 6997,
      "Ġquo": 6998,
      "(?:": 6999,
      "poll": 7000,
      "evolve": 7001,
      "vertical": 7002,
      "Ġsprites": 7003,
      "Extra": 7004,
      "Extension": 7005,
      "RepealField": 7006,
      "={}": 7007,
      "CII": 7008,
      "DP": 7009,
      "PACE": 7010,
      "ever": 7011,
      "eps": 7012,
      "embed": 7013,
      "sr": 7014,
      "tw": 7015,
      "ya": 7016,
      "æĶ": 7017,
      "tim": 7018,
      "eries": 7019,
      "Ġsaved": 7020,
      "lies": 7021,
      "Ġinside": 7022,
      "Ġwrong": 7023,
      "('.')": 7024,
      "lazy": 7025,
      "ĠAD": 7026,
      "partial": 7027,
      "ĠImp": 7028,
      "Received": 7029,
      "Ġlon": 7030,
      "Stop": 7031,
      "Ġleg": 7032,
      "Seq": 7033,
      "Selected": 7034,
      "grave": 7035,
      "Unicode": 7036,
      "UserID": 7037,
      "Ġ80": 7038,
      "DefaultSize": 7039,
      "OutputStream": 7040,
      "actual": 7041,
      "finished": 7042,
      "Ġidentifier": 7043,
      "Ġpipe": 7044,
      "ĠOnly": 7045,
      "PREFIX": 7046,
      "ĠCONTROL": 7047,
      ")\\": 7048,
      "->": 7049,
      "Actions": 7050,
      "Cell": 7051,
      "WISE": 7052,
      "xD": 7053,
      "æĮ": 7054,
      "theta": 7055,
      "Ġce": 7056,
      "Ġcpu": 7057,
      "Ġcrtwls": 7058,
      "lid": 7059,
      "Ġinf": 7060,
      "Ġinner": 7061,
      "Ġmime": 7062,
      "upgrade": 7063,
      "Ġui": 7064,
      "ĠSY": 7065,
      "ĠAUTH": 7066,
      "Ġstar": 7067,
      "\")],": 7068,
      "tached": 7069,
      "ĠDATA": 7070,
      "ĠGE": 7071,
      "ĠWor": 7072,
      "ENCE": 7073,
      "ĠEach": 7074,
      "weet": 7075,
      "runner": 7076,
      "ToMany": 7077,
      "Ġrot": 7078,
      "2015": 7079,
      "ordering": 7080,
      "LIB": 7081,
      "Ġ2014": 7082,
      "ĠNOTE": 7083,
      "origin": 7084,
      "TradingAccountField": 7085,
      "edges": 7086,
      "ĠAdmin": 7087,
      "ĠMAX": 7088,
      "agicMock": 7089,
      "åĳĺä»£çłģ": 7090,
      "orizontal": 7091,
      "\"})": 7092,
      "Del": 7093,
      "SY": 7094,
      "SAP": 7095,
      "YP": 7096,
      "YPE": 7097,
      "ade": 7098,
      "bg": 7099,
      "Ġvector": 7100,
      "Ġ\"_": 7101,
      "Ġfrappe": 7102,
      "uess": 7103,
      "extras": 7104,
      "ĠTask": 7105,
      "intain": 7106,
      "parameter": 7107,
      "Rep": 7108,
      "Ġ27": 7109,
      "permissions": 7110,
      "outube": 7111,
      "istic": 7112,
      "Ġcoeffici": 7113,
      "gration": 7114,
      "ASH": 7115,
      "Ġvertex": 7116,
      "ĊĠĠĠĠĠĠĠĠĠĠĠĠĠĠĠĠĠĠĠĠĠĠĠĠĠĠĠĠĠĠĠĠĠĠĠĠĠĠĠĠĠĠĠĠĠĠĠĠĠĠĠĠĠĠĠĠĠĠĠĠ": 7117,
      "generic": 7118,
      "Ġ/>')": 7119,
      "plugins": 7120,
      "ĠEXPRESS": 7121,
      "Symbol": 7122,
      "VARCHAR": 7123,
      "Ġdetermine": 7124,
      "listener": 7125,
      "ractive": 7126,
      "å¸Ĳ": 7127,
      "ĠQUOT": 7128,
      "ĠOtherwise": 7129,
      "'<": 7130,
      "(',": 7131,
      ">,": 7132,
      "Ite": 7133,
      "cleanup": 7134,
      "gri": 7135,
      "gpu": 7136,
      "panel": 7137,
      "writer": 7138,
      "Ġqui": 7139,
      "Ġ'\"": 7140,
      "serif": 7141,
      "('_": 7142,
      "002": 7143,
      "vig": 7144,
      "ĠAnd": 7145,
      "Ġ24": 7146,
      "Ġassign": 7147,
      "ĠMark": 7148,
      "Ġparticular": 7149,
      "checked": 7150,
      "ABC": 7151,
      "0338": 7152,
      "Active": 7153,
      "quences": 7154,
      "192": 7155,
      "ĠExpected": 7156,
      "ighted": 7157,
      "slug": 7158,
      "Ġpages": 7159,
      "Ġdirs": 7160,
      "TYP": 7161,
      "rewall": 7162,
      "special": 7163,
      "Ġbytearray": 7164,
      "Bounded": 7165,
      "Ġdiffs": 7166,
      "globals": 7167,
      "dimension": 7168,
      "å¯Ĩ": 7169,
      "PASSWORD": 7170,
      "OutputStreamWrapper": 7171,
      ":-": 7172,
      ";&": 7173,
      "Play": 7174,
      "Poly": 7175,
      "XY": 7176,
      "gress": 7177,
      "gger": 7178,
      "guid": 7179,
      "nested": 7180,
      "sage": 7181,
      "slot": 7182,
      "xB": 7183,
      "relative": 7184,
      "Ġctypes": 7185,
      "ene": 7186,
      "Ġthumbnail": 7187,
      "come": 7188,
      "cover": 7189,
      "exis": 7190,
      "Ġdtypes": 7191,
      "Ġdummy": 7192,
      "ĠTry": 7193,
      "ĠAB": 7194,
      "(\"<": 7195,
      "(\"--": 7196,
      "ĠItem": 7197,
      "poch": 7198,
      "Ġrp": 7199,
      "owski": 7200,
      "Ġansw": 7201,
      "irror": 7202,
      "Stats": 7203,
      "ĠInst": 7204,
      "members": 7205,
      "voice": 7206,
      "mtree": 7207,
      "Ġworking": 7208,
      "Ġaxes": 7209,
      "backends": 7210,
      "QtCore": 7211,
      "Ġvars": 7212,
      "Stack": 7213,
      "ĠOTHERWISE": 7214,
      "InvestorPositionField": 7215,
      ")}": 7216,
      "CAP": 7217,
      "IR": 7218,
      "Imp": 7219,
      "Speci": 7220,
      "alert": 7221,
      "bre": 7222,
      "solver": 7223,
      "square": 7224,
      "vhd": 7225,
      "za": 7226,
      "Ġlyr": 7227,
      "sect": 7228,
      "anded": 7229,
      "Ġ\"{": 7230,
      "geos": 7231,
      "dius": 7232,
      "assertSerialized": 7233,
      "Ġequivalent": 7234,
      "ĠSTR": 7235,
      "ĠSUP": 7236,
      "esser": 7237,
      "Ġdelay": 7238,
      "Record": 7239,
      "ĠDOWN": 7240,
      "Ġmachine": 7241,
      "ĠEC": 7242,
      "Ġtimedelta": 7243,
      "monospace": 7244,
      "csrf": 7245,
      "imal": 7246,
      "Comm": 7247,
      "venio": 7248,
      "Ġ2015": 7249,
      "makedirs": 7250,
      "lexer": 7251,
      "absolute": 7252,
      "Ġviews": 7253,
      "svg": 7254,
      "Generate": 7255,
      "communicate": 7256,
      "HERE": 7257,
      "titude": 7258,
      "Kioxia": 7259,
      "72": 7260,
      "Big": 7261,
      "Lin": 7262,
      "VS": 7263,
      "WG": 7264,
      "dl": 7265,
      "nav": 7266,
      "patterns": 7267,
      "scheduler": 7268,
      "}/": 7269,
      "ģæ": 7270,
      "alcul": 7271,
      "titions": 7272,
      "ingo": 7273,
      "direction": 7274,
      "('''": 7275,
      "quared": 7276,
      "ĠCan": 7277,
      "ĠLesser": 7278,
      "Ġdeal": 7279,
      "Ġdim": 7280,
      "Ġrrp": 7281,
      "lying": 7282,
      "predict": 7283,
      "latest": 7284,
      "gsm": 7285,
      "requests": 7286,
      "READ": 7287,
      "Ġcomponents": 7288,
      "copyright": 7289,
      "Ġvalidation": 7290,
      "prefixlen": 7291,
      "termine": 7292,
      "Ġhook": 7293,
      "Factor": 7294,
      "Short": 7295,
      "circumflex": 7296,
      "ĠCThostFtdcQry": 7297,
      "Store": 7298,
      "TransferField": 7299,
      "ä¿¡": 7300,
      "Ġcalculate": 7301,
      "cedure": 7302,
      "bouquet": 7303,
      "KioxiaProvisioner": 7304,
      ":\",": 7305,
      "NC": 7306,
      "Schema": 7307,
      "katakana": 7308,
      "srid": 7309,
      "wt": 7310,
      "wsgi": 7311,
      "é¢": 7312,
      "éĶ": 7313,
      "semb": 7314,
      "Ġful": 7315,
      "Ġthree": 7316,
      "Ġtyp": 7317,
      "('#": 7318,
      "Ġdriver": 7319,
      "olved": 7320,
      "Ġ25": 7321,
      "perf": 7322,
      "permission": 7323,
      "Ini": 7324,
      "ussion": 7325,
      "Ġlocale": 7326,
      "Ġyaml": 7327,
      "previous": 7328,
      "calls": 7329,
      "STATE": 7330,
      "ĠEnsure": 7331,
      "ĠHow": 7332,
      "Proto": 7333,
      "1234": 7334,
      "izard": 7335,
      "theme": 7336,
      "Ġvim": 7337,
      "locations": 7338,
      "flavors": 7339,
      "parents": 7340,
      "NodeContainer": 7341,
      "Ġgeom": 7342,
      "deva": 7343,
      "Ġwriter": 7344,
      "Ġincludes": 7345,
      "Ġimplemented": 7346,
      "Ġjoincond": 7347,
      "progress": 7348,
      "timizer": 7349,
      "variance": 7350,
      "*',": 7351,
      "Bouquet": 7352,
      "SSL": 7353,
      "]\\": 7354,
      "afe": 7355,
      "gl": 7356,
      "javascript": 7357,
      "mas": 7358,
      "åº": 7359,
      "ç§": 7360,
      "ç®": 7361,
      "anization": 7362,
      "Ġ'[": 7363,
      "Ġ'=',": 7364,
      "Ġtheme": 7365,
      "Ġ(%(": 7366,
      "isode": 7367,
      "too": 7368,
      "Ġdeleted": 7369,
      "Ġ22": 7370,
      "ĠPri": 7371,
      "ically": 7372,
      "ERUSER": 7373,
      "cion": 7374,
      "Ġloaded": 7375,
      "acc": 7376,
      "ipv": 7377,
      "ĠExt": 7378,
      "LEFT": 7379,
      "without": 7380,
      "Ġlaunch": 7381,
      "region": 7382,
      "Ġnever": 7383,
      "ĠGenerate": 7384,
      "terminal": 7385,
      "Ġ'/'": 7386,
      "forcement": 7387,
      "Temporary": 7388,
      "aggregate": 7389,
      "HostsFile": 7390,
      "pixel": 7391,
      "å¹³": 7392,
      "AF": 7393,
      "EY": 7394,
      "Rect": 7395,
      "Single": 7396,
      "alect": 7397,
      "clf": 7398,
      "frappe": 7399,
      "ka": 7400,
      "slices": 7401,
      "wb": 7402,
      "wri": 7403,
      "youtube": 7404,
      "inher": 7405,
      "teps": 7406,
      "stant": 7407,
      "Ġ''.": 7408,
      "Ġpadding": 7409,
      "mpath": 7410,
      "Ġinventory": 7411,
      "Ġexamples": 7412,
      "Ġexact": 7413,
      "toString": 7414,
      "Required": 7415,
      "Ġ21": 7416,
      "Ġ36": 7417,
      "joint": 7418,
      "tend": 7419,
      "cairo": 7420,
      "Ġcolors": 7421,
      "Ġtimer": 7422,
      "REG": 7423,
      "Ġlogits": 7424,
      "Ġconstraint": 7425,
      "ItemId": 7426,
      "2010": 7427,
      "2011": 7428,
      "Ġorigin": 7429,
      "serializer": 7430,
      "Ġitertools": 7431,
      "AndReturn": 7432,
      "merge": 7433,
      "Generator": 7434,
      "ĠEnforcement": 7435,
      "AsciiTrace": 7436,
      "æĢģ": 7437,
      "ĠEnforcementError": 7438,
      "FER": 7439,
      "Ln": 7440,
      "Mapping": 7441,
      "PK": 7442,
      "Pay": 7443,
      "SK": 7444,
      "TIM": 7445,
      "aws": 7446,
      "dag": 7447,
      "lp": 7448,
      "}\"": 7449,
      "restart": 7450,
      "tell": 7451,
      "Ġcenter": 7452,
      "asure": 7453,
      "Ġ\"[": 7454,
      "cool": 7455,
      "Ġbits": 7456,
      "Ġbox": 7457,
      "sical": 7458,
      "silon": 7459,
      "getvalue": 7460,
      "setDisabled": 7461,
      "apsed": 7462,
      "ĠLa": 7463,
      "ĠLanguage": 7464,
      "Ġgoogle": 7465,
      "forward": 7466,
      "INST": 7467,
      "Ġmade": 7468,
      "cafe": 7469,
      "Design": 7470,
      "comparison": 7471,
      "note": 7472,
      "DED": 7473,
      "2022": 7474,
      "processing": 7475,
      "ASK": 7476,
      "Post": 7477,
      "constraint": 7478,
      "ENTIAL": 7479,
      "Ġvery": 7480,
      "Ġ'%(": 7481,
      "Ġscra": 7482,
      "Ġordering": 7483,
      "disconnect": 7484,
      "MAIL": 7485,
      "precation": 7486,
      "ExecOrderActionField": 7487,
      "UMENT": 7488,
      "'+',": 7489,
      "secure": 7490,
      "ĠDEBUG": 7491,
      "Ġseparate": 7492,
      "StockDisposalActionField": 7493,
      "today": 7494,
      "cidr": 7495,
      "federation": 7496,
      "rouped": 7497,
      "enchmark": 7498,
      "ĠQUOTATION": 7499,
      "ä¿¡æģ¯": 7500,
      ">\"\"\")": 7501,
      "Basic": 7502,
      "Free": 7503,
      "NOR": 7504,
      "bz": 7505,
      "efs": 7506,
      "ko": 7507,
      "pus": 7508,
      "rtype": 7509,
      "tc": 7510,
      "uous": 7511,
      "čĊĠĠĠĠĠĠĠĠĠĠĠĠ": 7512,
      "restore": 7513,
      "threshold": 7514,
      "leaf": 7515,
      "Ġide": 7516,
      "Ġcm": 7517,
      "Ġcross": 7518,
      "Ġcells": 7519,
      "Ġscale": 7520,
      "inger": 7521,
      "cont": 7522,
      "setCurrent": 7523,
      "003": 7524,
      "\")]": 7525,
      "Ġprov": 7526,
      "splitext": 7527,
      "colors": 7528,
      "okies": 7529,
      "ivar": 7530,
      "Ġless": 7531,
      "Selenium": 7532,
      "IPS": 7533,
      "charset": 7534,
      "ĠtearDown": 7535,
      "ĠKEY": 7536,
      "Ġtransfer": 7537,
      "slash": 7538,
      "('/')": 7539,
      "recv": 7540,
      "OpenAccountField": 7541,
      "symlink": 7542,
      "mkdir": 7543,
      ")+'": 7544,
      "Ġseparator": 7545,
      "Ġconverted": 7546,
      "SerialField": 7547,
      "CancelAccountField": 7548,
      "ValidationError": 7549,
      "utterance": 7550,
      "Ġanswer": 7551,
      "BACK": 7552,
      "Ip": 7553,
      "MD": 7554,
      "OFF": 7555,
      "RET": 7556,
      "Url": 7557,
      "best": 7558,
      "kill": 7559,
      "qs": 7560,
      "æµ": 7561,
      "Ġslot": 7562,
      "Ġscipy": 7563,
      "Ġtz": 7564,
      "didate": 7565,
      "rain": 7566,
      "Ġday": 7567,
      "ĊĊĊĊ": 7568,
      "igs": 7569,
      "Ġhistory": 7570,
      "Ġlarge": 7571,
      "ĠWhether": 7572,
      "alib": 7573,
      "ENAME": 7574,
      "umeration": 7575,
      "ĠIni": 7576,
      "Ġurlparse": 7577,
      "CODE": 7578,
      "Ġcalling": 7579,
      "Ġformats": 7580,
      "findall": 7581,
      "2949": 7582,
      "Ġagent": 7583,
      "DefaultPosition": 7584,
      "Ġfuncs": 7585,
      "normalize": 7586,
      "Does": 7587,
      "Ġdistutils": 7588,
      "Ġbuilder": 7589,
      "Processing": 7590,
      "Ġterminal": 7591,
      "0123456789": 7592,
      "400": 7593,
      "BE": 7594,
      "Can": 7595,
      "Grid": 7596,
      "Part": 7597,
      "Top": 7598,
      "vation": 7599,
      "ãģ": 7600,
      "increment": 7601,
      "Ġ=>": 7602,
      "Ġfonts": 7603,
      "roles": 7604,
      "Ġthings": 7605,
      "cepted": 7606,
      "Ġpcs": 7607,
      "urm": 7608,
      "sian": 7609,
      "getAttribute": 7610,
      "tral": 7611,
      "ĠSUB": 7612,
      "Ġstride": 7613,
      "focus": 7614,
      "ĠDist": 7615,
      "ĠModule": 7616,
      "Ġoutfile": 7617,
      "UTF": 7618,
      "Ġbucket": 7619,
      "ĊĠĠĠĠĠĠĠĠĠĠĠĠĠĠĠĠĠĠĠĠĠĠĠĠĠĠĠĠĠĠĠĠĠĠĠĠĠĠĠĠĠ": 7620,
      "Ġbasestring": 7621,
      "ĠConnection": 7622,
      "ĠAny": 7623,
      "Ġ2010": 7624,
      "ĠExample": 7625,
      "dicate": 7626,
      "projects": 7627,
      "graphy": 7628,
      "Ċĉĉĉĉĉĉĉ": 7629,
      "rective": 7630,
      "assertIsNone": 7631,
      "ĠAnsibleModule": 7632,
      "ntaxError": 7633,
      "Ġimmediate": 7634,
      "CONFIG": 7635,
      "ManyToMany": 7636,
      "ä¸ļ": 7637,
      "LockField": 7638,
      "Abstract": 7639,
      "ENGTH": 7640,
      "ĠNetwork": 7641,
      "roadcast": 7642,
      "Builder": 7643,
      "'ll": 7644,
      "+\"": 7645,
      "Icon": 7646,
      "MAL": 7647,
      "Pos": 7648,
      "Qgs": 7649,
      "Retrieve": 7650,
      "Step": 7651,
      "`)": 7652,
      "cn": 7653,
      "sco": 7654,
      "salt": 7655,
      "uate": 7656,
      "xE": 7657,
      "}:": 7658,
      "stics": 7659,
      "deps": 7660,
      "dependent": 7661,
      "Ġsin": 7662,
      "look": 7663,
      "peer": 7664,
      "Ġms": 7665,
      "sib": 7666,
      "getcwd": 7667,
      "quad": 7668,
      "contains": 7669,
      "ssue": 7670,
      "formed": 7671,
      "Ġhass": 7672,
      "Ġseed": 7673,
      "ĠDIS": 7674,
      "presen": 7675,
      "CThostFtdcInstrument": 7676,
      "Ġcomparison": 7677,
      "php": 7678,
      "manent": 7679,
      "spection": 7680,
      "Ġvalidator": 7681,
      "Ġteam": 7682,
      "Ġscan": 7683,
      "LOAD": 7684,
      "Classifier": 7685,
      "ĠZIP": 7686,
      "InfoField": 7687,
      "tmpdir": 7688,
      "ĠVerify": 7689,
      "buttons": 7690,
      "Ġlineno": 7691,
      "ĠGeometry": 7692,
      "Ġgood": 7693,
      "Static": 7694,
      "separator": 7695,
      "riterion": 7696,
      "IST": 7697,
      "Null": 7698,
      "Space": 7699,
      "[(": 7700,
      "sans": 7701,
      "uent": 7702,
      "°´": 7703,
      "ĠValid": 7704,
      "decimal": 7705,
      "Ġcategory": 7706,
      "urlen": 7707,
      "unity": 7708,
      "Ġband": 7709,
      "sited": 7710,
      "oney": 7711,
      "pag": 7712,
      "Redirect": 7713,
      "Ġstorage": 7714,
      "ĠPack": 7715,
      "Ġrt": 7716,
      "ERV": 7717,
      "anced": 7718,
      "Ġmet": 7719,
      "\"\"\"\\": 7720,
      "ĠOper": 7721,
      "ĠONE": 7722,
      "Ġvol": 7723,
      "codes": 7724,
      "ĠBad": 7725,
      "ETIME": 7726,
      "ĠHas": 7727,
      "noop": 7728,
      "umeric": 7729,
      "\"><": 7730,
      "phone": 7731,
      "Ġones": 7732,
      "DOC": 7733,
      "half": 7734,
      "Ġlibraries": 7735,
      "Ġfinished": 7736,
      "Ġcreation": 7737,
      "protobuf": 7738,
      "destroy": 7739,
      "numer": 7740,
      "caten": 7741,
      "ģæ°´": 7742,
      "æµģæ°´": 7743,
      "'[": 7744,
      ")-": 7745,
      "FR": 7746,
      "LY": 7747,
      "Print": 7748,
      "Script": 7749,
      "TA": 7750,
      "jpg": 7751,
      "rnn": 7752,
      "æ±": 7753,
      "descriptor": 7754,
      "that": 7755,
      "alarm": 7756,
      "album": 7757,
      "Ġcrypto": 7758,
      "asc": 7759,
      "Ġnone": 7760,
      "Ġtp": 7761,
      "Ġinverse": 7762,
      "Ġtheta": 7763,
      "Ġmis": 7764,
      "()])": 7765,
      "(':": 7766,
      "Ġ128": 7767,
      "Ġdeg": 7768,
      "listdir": 7769,
      "trip": 7770,
      "coming": 7771,
      "Ġenum": 7772,
      "Ġ('/": 7773,
      "precision": 7774,
      "CThostFtdcMarketData": 7775,
      "....": 7776,
      "compatible": 7777,
      "Ġ{}\".": 7778,
      "Names": 7779,
      "Ġperform": 7780,
      "Ġinternet": 7781,
      "prise": 7782,
      "999": 7783,
      "Environment": 7784,
      "Unknown": 7785,
      "ToType": 7786,
      "Ġsyntax": 7787,
      "2008": 7788,
      "iterator": 7789,
      "Nodes": 7790,
      "Ġerrno": 7791,
      "Ġblocks": 7792,
      "27241": 7793,
      "Ġimplements": 7794,
      "Ġflatten": 7795,
      "Application": 7796,
      "IntToType": 7797,
      "BadValueError": 7798,
      "jected": 7799,
      "ĠDIA": 7800,
      "Ġlistener": 7801,
      "Ġsnapshot": 7802,
      "tificate": 7803,
      "Ġvarious": 7804,
      "å¸Ĳåı·": 7805,
      "+',": 7806,
      "/(": 7807,
      "Bind": 7808,
      "LENGTH": 7809,
      "fm": 7810,
      "have": 7811,
      "udent": 7812,
      "Âł": 7813,
      "rename": 7814,
      "memo": 7815,
      "antity": 7816,
      "Ġpd": 7817,
      "Ġogr": 7818,
      "unlink": 7819,
      "firewall": 7820,
      "chmod": 7821,
      "Ġdue": 7822,
      "setText": 7823,
      "ĠCall": 7824,
      "Ġexclude": 7825,
      "esh": 7826,
      "ĠLe": 7827,
      "\":\"": 7828,
      "ERESIS": 7829,
      "addWidget": 7830,
      "Ġunpack": 7831,
      "colon": 7832,
      "Conf": 7833,
      "250": 7834,
      "component": 7835,
      "ĠHOLD": 7836,
      "Ġnothing": 7837,
      "Ġaddresses": 7838,
      "Ġkappa": 7839,
      "splitlines": 7840,
      "Ġanything": 7841,
      "Ġbasename": 7842,
      "Ġinterfaces": 7843,
      "shapes": 7844,
      "ĊĠĠĠĠĠĠĠĠĠĠĠĠĠĠĠĠĠĠĠĠĠĠĠĠĠĠĠĠĠĠĠĠĠĠĠĠĠĠĠĠĠĠĠĠĠĠĠ": 7845,
      "ĠContent": 7846,
      "steps": 7847,
      "Ġreply": 7848,
      "Ġcause": 7849,
      "ĠJava": 7850,
      "Ġprovides": 7851,
      "Ġprocessing": 7852,
      "CONST": 7853,
      "mpling": 7854,
      "Configured": 7855,
      "Ġdisabled": 7856,
      "capt": 7857,
      "ategy": 7858,
      "Ġxmlns": 7859,
      "MSBuild": 7860,
      "ĠOptions": 7861,
      "Author": 7862,
      "Ġwhose": 7863,
      "ĠSymbol": 7864,
      "Ġstrip": 7865,
      "Ġpolynomial": 7866,
      "requirements": 7867,
      "ĠGeoIP": 7868,
      "engali": 7869,
      "ĠDIAERESIS": 7870,
      ")\")": 7871,
      "Batch": 7872,
      "FO": 7873,
      "Handle": 7874,
      "Scal": 7875,
      "Ter": 7876,
      "[[": 7877,
      "bf": 7878,
      "gst": 7879,
      "oauth": 7880,
      "rd": 7881,
      "ony": 7882,
      "ancer": 7883,
      "Ġfixed": 7884,
      "Ġouter": 7885,
      "Ġdot": 7886,
      "pacity": 7887,
      "construct": 7888,
      "004": 7889,
      "ĠSphinx": 7890,
      "igi": 7891,
      "Example": 7892,
      "ddy": 7893,
      "ĠWith": 7894,
      "versions": 7895,
      "irt": 7896,
      "formats": 7897,
      "224": 7898,
      "Ġcomponent": 7899,
      "Ġ51": 7900,
      "skb": 7901,
      "Ġinterpre": 7902,
      "Ġzinfo": 7903,
      "COUN": 7904,
      "pages": 7905,
      "environment": 7906,
      "ĠProcess": 7907,
      "Ġmatplotlib": 7908,
      "Generic": 7909,
      "ĠEnvironment": 7910,
      ".*?": 7911,
      "6729": 7912,
      "Ġphase": 7913,
      "loyee": 7914,
      "ĠMethod": 7915,
      "WriteLn": 7916,
      "ĠService": 7917,
      "Formatter": 7918,
      "Ġmonth": 7919,
      "assertNotEqual": 7920,
      "ĠMovedAttribute": 7921,
      "Description": 7922,
      "normpath": 7923,
      "29496729": 7924,
      "Non": 7925,
      "YY": 7926,
      "bidden": 7927,
      "qa": 7928,
      "sd": 7929,
      "vg": 7930,
      "čĊĠ": 7931,
      "Ġmp": 7932,
      "rea": 7933,
      "enario": 7934,
      "cel": 7935,
      "Ġpower": 7936,
      "Ġts": 7937,
      "ateway": 7938,
      "005": 7939,
      "ĠSession": 7940,
      "ĠCO": 7941,
      "togg": 7942,
      "ĠFirst": 7943,
      "pathname": 7944,
      "igrate": 7945,
      "prov": 7946,
      "Ġloader": 7947,
      "ĠMax": 7948,
      "Ġcoordinates": 7949,
      "Ġlr": 7950,
      "Ġgets": 7951,
      "ORE": 7952,
      "ĠRow": 7953,
      "validators": 7954,
      "nobs": 7955,
      "ective": 7956,
      "ANCE": 7957,
      "Ġcolli": 7958,
      "Ġadding": 7959,
      "Ġ\\\\": 7960,
      "Ġappen": 7961,
      "Parameters": 7962,
      "Ġpermitted": 7963,
      "ä»¶": 7964,
      "packet": 7965,
      "BaseReg": 7966,
      "Ġreading": 7967,
      "NotExist": 7968,
      "Ġprior": 7969,
      "numberOf": 7970,
      "ĠParse": 7971,
      "smart": 7972,
      "Elements": 7973,
      "Ġcredentials": 7974,
      "ChangeAccountField": 7975,
      "Ġconstants": 7976,
      "Ġgrammar": 7977,
      "Ġsummary": 7978,
      "Labels": 7979,
      "started": 7980,
      "apture": 7981,
      "rupt": 7982,
      "HelperForIpv": 7983,
      "ĠModel": 7984,
      "ç®Ĺ": 7985,
      "æµģæ°´åı·": 7986,
      "'#": 7987,
      "101": 7988,
      ":\"": 7989,
      ";,": 7990,
      "??": 7991,
      "AIT": 7992,
      "DER": 7993,
      "Fragment": 7994,
      "Site": 7995,
      "Var": 7996,
      "ball": 7997,
      "brid": 7998,
      "eu": 7999,
      "ham": 8000,
      "push": 8001,
      "padding": 8002,
      "sul": 8003,
      "vpc": 8004,
      "xF": 8005,
      "åĨ": 8006,
      "ĊĊĠĠĠĠĠĠĠĠĠĠĠĠĠĠĠĠĠĠĠĠĠĠĠ": 8007,
      "čĊĠĠĠĠ": 8008,
      "inary": 8009,
      "orn": 8010,
      "tis": 8011,
      "ernel": 8012,
      "Ġclause": 8013,
      "Ġindividual": 8014,
      "Ġbig": 8015,
      "choo": 8016,
      "romium": 8017,
      "clar": 8018,
      "ĠLink": 8019,
      "Replay": 8020,
      "Ġ28": 8021,
      "Ġdid": 8022,
      "take": 8023,
      "Internal": 8024,
      "usted": 8025,
      "ĠOut": 8026,
      "ĠBo": 8027,
      "osync": 8028,
      "irth": 8029,
      "STY": 8030,
      "little": 8031,
      "Ġshard": 8032,
      "spawn": 8033,
      "phrase": 8034,
      "price": 8035,
      "Arrow": 8036,
      "Ġauthentication": 8037,
      "Ġtemplates": 8038,
      "ragana": 8039,
      "Ġmanifest": 8040,
      "ServiceReference": 8041,
      "CThostFtdcQryExchange": 8042,
      "Less": 8043,
      "BOOK": 8044,
      "è´¹": 8045,
      "Ġeverything": 8046,
      "Ġclosed": 8047,
      "EnableAscii": 8048,
      "pairs": 8049,
      "Success": 8050,
      "Ġhandled": 8051,
      "Accessor": 8052,
      "digital": 8053,
      "ĠUpdate": 8054,
      "fficient": 8055,
      "é¢Ŀ": 8056,
      "NORMAL": 8057,
      "'m": 8058,
      ">`": 8059,
      "Drive": 8060,
      "FEX": 8061,
      "LT": 8062,
      "Tuple": 8063,
      "VR": 8064,
      "hSlider": 8065,
      "mtime": 8066,
      "nop": 8067,
      "teri": 8068,
      "roperly": 8069,
      "Ġtol": 8070,
      "lict": 8071,
      "Ġmaster": 8072,
      "cks": 8073,
      "Ġdce": 8074,
      "itter": 8075,
      "qualname": 8076,
      "Ġgu": 8077,
      "Ġdele": 8078,
      "ĠFunction": 8079,
      "Ġhig": 8080,
      "Ġhidden": 8081,
      "Ġsecurity": 8082,
      "Ġproduction": 8083,
      "Ġpara": 8084,
      "Decoder": 8085,
      "temperature": 8086,
      "GetOutput": 8087,
      "''')": 8088,
      "Ġcomments": 8089,
      "Ġcompare": 8090,
      "Ġaccording": 8091,
      "menian": 8092,
      "ĠTestCase": 8093,
      "NUM": 8094,
      "ĠDelete": 8095,
      "hasattr": 8096,
      "2004": 8097,
      "Ġtransaction": 8098,
      "CLASS": 8099,
      "hiragana": 8100,
      "ELL": 8101,
      "Ġshown": 8102,
      "canvas": 8103,
      "binding": 8104,
      "Ġgrad": 8105,
      "Ġskipped": 8106,
      "ctypes": 8107,
      "VALUE": 8108,
      "ĠServer": 8109,
      "STATUS": 8110,
      "ĠTreeItemId": 8111,
      "../../": 8112,
      "surface": 8113,
      "Ġentire": 8114,
      "cumul": 8115,
      "LimitPosi": 8116,
      "calculator": 8117,
      "Ġaggregate": 8118,
      ";;": 8119,
      "Clause": 8120,
      "CURE": 8121,
      "Mon": 8122,
      "]',": 8123,
      "^^": 8124,
      "mad": 8125,
      "nl": 8126,
      "}'": 8127,
      "Ã³": 8128,
      "Ġquestion": 8129,
      "ordered": 8130,
      "lec": 8131,
      "chdir": 8132,
      "chool": 8133,
      "()).": 8134,
      "openerp": 8135,
      "Ġusu": 8136,
      "Ġconnected": 8137,
      "ĠSome": 8138,
      "tok": 8139,
      "Ġimports": 8140,
      "zeug": 8141,
      "ATOM": 8142,
      "ĠWrite": 8143,
      "ĠNode": 8144,
      "Ġradius": 8145,
      "ĠThey": 8146,
      "tended": 8147,
      "Ġpretty": 8148,
      "Ġshouldn": 8149,
      "replication": 8150,
      "pipe": 8151,
      "AMPLE": 8152,
      "grad": 8153,
      "Ġliter": 8154,
      "FFFF": 8155,
      "7777": 8156,
      "oston": 8157,
      "hide": 8158,
      "Ġdepth": 8159,
      "Ġinclusion": 8160,
      "alysis": 8161,
      "Ġblack": 8162,
      "ĠQgsVector": 8163,
      "hooks": 8164,
      "rotate": 8165,
      "ByteTag": 8166,
      "Ġscores": 8167,
      "sponder": 8168,
      "\"',": 8169,
      ":&": 8170,
      ";\\": 8171,
      "Cube": 8172,
      "DD": 8173,
      "Park": 8174,
      "Some": 8175,
      "UST": 8176,
      "bon": 8177,
      "bam": 8178,
      "gather": 8179,
      "imap": 8180,
      "kzeug": 8181,
      "ospf": 8182,
      "plain": 8183,
      "vp": 8184,
      "ÅĤ": 8185,
      "reet": 8186,
      "dependencies": 8187,
      "Ġ=================================================================": 8188,
      "Ġ'{{": 8189,
      "Ġfig": 8190,
      "Ġrepro": 8191,
      "ura": 8192,
      "Ġna": 8193,
      "life": 8194,
      "Ġmicro": 8195,
      "ando": 8196,
      "ĠTag": 8197,
      "machine": 8198,
      "ĠCustom": 8199,
      "resolver": 8200,
      "ĠPort": 8201,
      "tax": 8202,
      "Ġresolve": 8203,
      "using": 8204,
      "Ġprod": 8205,
      "Ġasync": 8206,
      "\"]),": 8207,
      "ATED": 8208,
      "Ġunknown": 8209,
      "START": 8210,
      "REES": 8211,
      "LEX": 8212,
      "Ġseries": 8213,
      "tract": 8214,
      "Ġvisible": 8215,
      "Ġmaps": 8216,
      "Ġaround": 8217,
      "Ġmanage": 8218,
      "website": 8219,
      "ggreg": 8220,
      "Ġflask": 8221,
      "ĠResponse": 8222,
      "itespace": 8223,
      "aterials": 8224,
      "å¯Ĩçłģ": 8225,
      "STYLE": 8226,
      "Parked": 8227,
      "Send": 8228,
      "Tube": 8229,
      "Zero": 8230,
      "echo": 8231,
      "fg": 8232,
      "gres": 8233,
      "knobs": 8234,
      "sal": 8235,
      "vative": 8236,
      "¶æĢģ": 8237,
      "çĬ": 8238,
      "received": 8239,
      "tet": 8240,
      "stone": 8241,
      "ante": 8242,
      "Ġcb": 8243,
      "roken": 8244,
      "Ġrequested": 8245,
      "Ġphi": 8246,
      "coords": 8247,
      "Ġwindows": 8248,
      "Ġmk": 8249,
      "rases": 8250,
      "Ġforward": 8251,
      "Ġreturning": 8252,
      "')(": 8253,
      "may": 8254,
      "heel": 8255,
      "-----------": 8256,
      "Ġhelper": 8257,
      "proj": 8258,
      "probe": 8259,
      "ARCH": 8260,
      "Conditional": 8261,
      "ponen": 8262,
      "ĠUsed": 8263,
      "////": 8264,
      "sizeof": 8265,
      "Properties": 8266,
      "326": 8267,
      "SEQU": 8268,
      "Ġserial": 8269,
      "checks": 8270,
      "ĠConvert": 8271,
      "2016": 8272,
      "masked": 8273,
      "æľĢ": 8274,
      "encoded": 8275,
      "Loop": 8276,
      "{}'.": 8277,
      "Ġinitialize": 8278,
      "deredDict": 8279,
      "Ġdeploy": 8280,
      "caron": 8281,
      "training": 8282,
      "Role": 8283,
      "ACKET": 8284,
      "documents": 8285,
      "negative": 8286,
      "blah": 8287,
      "Ġ-----------------------------------------------------------------------------": 8288,
      "ByteSize": 8289,
      "Ġpagure": 8290,
      "PECIAL": 8291,
      "çĬ¶æĢģ": 8292,
      "(.": 8293,
      "Cust": 8294,
      "Flags": 8295,
      "LIN": 8296,
      "Ne": 8297,
      "Round": 8298,
      "aken": 8299,
      "bits": 8300,
      "dating": 8301,
      "eof": 8302,
      "Ġ=====": 8303,
      "Ġfs": 8304,
      "Ġrestri": 8305,
      "getitem": 8306,
      "Ġsyn": 8307,
      "Ġsleep": 8308,
      "Ġsmall": 8309,
      "define": 8310,
      "dispatch": 8311,
      "lobs": 8312,
      "Ġwon": 8313,
      "cki": 8314,
      "Ġ[{": 8315,
      "illi": 8316,
      "verts": 8317,
      "vest": 8318,
      "Ġec": 8319,
      "Rec": 8320,
      "ĠFind": 8321,
      "Fields": 8322,
      "ĠMigration": 8323,
      "ĠGtk": 8324,
      "ĠBasic": 8325,
      "IDENT": 8326,
      "cay": 8327,
      "cales": 8328,
      "lerance": 8329,
      "Ġsimp": 8330,
      "ICES": 8331,
      "Ġcompile": 8332,
      "Ġchecking": 8333,
      "runtime": 8334,
      "primitive": 8335,
      "Ġstarting": 8336,
      "locate": 8337,
      "OUTPUT": 8338,
      "levels": 8339,
      "Ġrenderer": 8340,
      "Ġwebsite": 8341,
      "Ġquote": 8342,
      "bytecode": 8343,
      "Ġtrim": 8344,
      "supports": 8345,
      "ĠAuthor": 8346,
      "METHO": 8347,
      "ManyToManyField": 8348,
      "ĠHOLDERS": 8349,
      "ReplayAll": 8350,
      "roperlyConfigured": 8351,
      "BL": 8352,
      "Custom": 8353,
      "Course": 8354,
      "Dest": 8355,
      "Find": 8356,
      "bd": 8357,
      "dns": 8358,
      "mq": 8359,
      "pipeline": 8360,
      "tu": 8361,
      "xC": 8362,
      "}]": 8363,
      "ĊĊĊĠĠĠĠĠĠĠ": 8364,
      "oring": 8365,
      "allen": 8366,
      "Ġ\"|": 8367,
      "Ġfew": 8368,
      "Ġnested": 8369,
      "Ġscreen": 8370,
      "Ġtw": 8371,
      "Ġinspect": 8372,
      "union": 8373,
      "peed": 8374,
      "peGraph": 8375,
      "isual": 8376,
      "ĠSpa": 8377,
      "ĠCI": 8378,
      "Ġdecimal": 8379,
      "ĠFake": 8380,
      "Ġorg": 8381,
      "ĠPlease": 8382,
      "lica": 8383,
      "mos": 8384,
      "Ġ429496729": 8385,
      "scrib": 8386,
      "Program": 8387,
      "interfaces": 8388,
      "Ġidset": 8389,
      "Ġconfigured": 8390,
      "plural": 8391,
      "rawler": 8392,
      "Ġmakes": 8393,
      "3333": 8394,
      "Ġgeo": 8395,
      "æľ¬": 8396,
      "Ġabstract": 8397,
      "ĠStart": 8398,
      "Signature": 8399,
      "Ġflush": 8400,
      "000000000000": 8401,
      "crypted": 8402,
      "enticated": 8403,
      "assertAllClose": 8404,
      "unication": 8405,
      "WebDriver": 8406,
      "uestion": 8407,
      "Ġexplicitly": 8408,
      "gamma": 8409,
      "cceed": 8410,
      "ĠBuild": 8411,
      "ĠPOST": 8412,
      "CONTENT": 8413,
      "æ±Ĥ": 8414,
      ";,&": 8415,
      "Binder": 8416,
      "CAR": 8417,
      "GT": 8418,
      "Greater": 8419,
      "NULL": 8420,
      "SU": 8421,
      "SUB": 8422,
      "TAR": 8423,
      "border": 8424,
      "cross": 8425,
      "nect": 8426,
      "tot": 8427,
      "uom": 8428,
      "want": 8429,
      "ĠEND": 8430,
      "thai": 8431,
      "tities": 8432,
      "Ġiris": 8433,
      "Ġcwd": 8434,
      "Ġ\"#": 8435,
      "Ġreuse": 8436,
      "Ġamount": 8437,
      "dire": 8438,
      "covery": 8439,
      "Ġisol": 8440,
      "maz": 8441,
      "008": 8442,
      "hemer": 8443,
      "ĠAuto": 8444,
      "---------": 8445,
      "Ġ256": 8446,
      "policies": 8447,
      "lyph": 8448,
      "Ġenter": 8449,
      "Ġunless": 8450,
      "Ġcover": 8451,
      "askbot": 8452,
      "ĠBLOCK": 8453,
      "readonly": 8454,
      "ENC": 8455,
      "caller": 8456,
      "maxdb": 8457,
      "roots": 8458,
      "127": 8459,
      "URI": 8460,
      "Encoding": 8461,
      "Ġruns": 8462,
      "Ġregistry": 8463,
      "Ġvirtual": 8464,
      "Ġimported": 8465,
      "EventBinder": 8466,
      "scripts": 8467,
      "Ġminimum": 8468,
      "Ġarc": 8469,
      "PyEventBinder": 8470,
      "Ġlatest": 8471,
      "Ġlocations": 8472,
      "Stru": 8473,
      "ĠSelect": 8474,
      "Ġmembership": 8475,
      "Ġbuilt": 8476,
      "Children": 8477,
      "Multicast": 8478,
      "aemon": 8479,
      "Ġpairs": 8480,
      "included": 8481,
      "levant": 8482,
      "Ġoccurred": 8483,
      "ĠSprite": 8484,
      "BranchID": 8485,
      "Ġcontributors": 8486,
      "deepcopy": 8487,
      "è¯·æ±Ĥ": 8488,
      "Iteration": 8489,
      "DoesNotExist": 8490,
      "ponential": 8491,
      "hemeral": 8492,
      "\"%": 8493,
      "Ali": 8494,
      "BLOCK": 8495,
      "Tri": 8496,
      "average": 8497,
      "cpp": 8498,
      "csel": 8499,
      "front": 8500,
      "green": 8501,
      "gcd": 8502,
      "kf": 8503,
      "pull": 8504,
      "sla": 8505,
      "schedule": 8506,
      "sdk": 8507,
      "should": 8508,
      "Ġquot": 8509,
      "deli": 8510,
      "Ġssl": 8511,
      "Ġ05": 8512,
      "olds": 8513,
      "ĠSh": 8514,
      "ĠCloud": 8515,
      "Ġgran": 8516,
      "Ġ255": 8517,
      "processes": 8518,
      "INY": 8519,
      "Expected": 8520,
      "Ġcomple": 8521,
      "shards": 8522,
      "acle": 8523,
      "latex": 8524,
      "outh": 8525,
      "mapped": 8526,
      "Ġnova": 8527,
      "ĠIntegral": 8528,
      "Ġjava": 8529,
      "Diff": 8530,
      "EDI": 8531,
      "Ġstatements": 8532,
      "ListEx": 8533,
      "Ġintersection": 8534,
      "Ġregular": 8535,
      "Ġ70": 8536,
      "matches": 8537,
      "Comment": 8538,
      "Ġ2011": 8539,
      "tokens": 8540,
      "certs": 8541,
      "ĠProject": 8542,
      "EGER": 8543,
      "mulator": 8544,
      "tivation": 8545,
      "bounds": 8546,
      "RUListEx": 8547,
      "å¸ģ": 8548,
      "å¤´": 8549,
      "BASE": 8550,
      "magic": 8551,
      "çĶ¨æĪ·ä»£çłģ": 8552,
      "inotify": 8553,
      "ĠCHAR": 8554,
      "dieresis": 8555,
      ">%": 8556,
      "EVER": 8557,
      "Fixed": 8558,
      "FLEX": 8559,
      "GROUP": 8560,
      "Lexer": 8561,
      "Matrix": 8562,
      "Note": 8563,
      "Sec": 8564,
      "Skip": 8565,
      "Title": 8566,
      "WR": 8567,
      "izer": 8568,
      "must": 8569,
      "mime": 8570,
      "mutable": 8571,
      "nr": 8572,
      "por": 8573,
      "qos": 8574,
      "xp": 8575,
      "çĽ": 8576,
      "Ġurls": 8577,
      "relay": 8578,
      "erkzeug": 8579,
      "Ġable": 8580,
      "Ġawait": 8581,
      "digits": 8582,
      "ribu": 8583,
      "rics": 8584,
      "raft": 8585,
      "uper": 8586,
      "illa": 8587,
      "resolution": 8588,
      "Ġdescriptor": 8589,
      "Ġselector": 8590,
      "ĠDB": 8591,
      "Ġcookie": 8592,
      "favor": 8593,
      "neighbors": 8594,
      "netmask": 8595,
      "Debug": 8596,
      "226": 8597,
      "within": 8598,
      "TextCtrl": 8599,
      "blocks": 8600,
      "LOCAL": 8601,
      "serialized": 8602,
      "webdriver": 8603,
      "channels": 8604,
      "UMFLEX": 8605,
      "Runner": 8606,
      "finite": 8607,
      "Ġhashlib": 8608,
      "sqlite": 8609,
      "Background": 8610,
      "toolbar": 8611,
      "WORK": 8612,
      "Ġestimator": 8613,
      "Ġscaling": 8614,
      "META": 8615,
      "Ġcompletely": 8616,
      "YouTube": 8617,
      "USED": 8618,
      "RCUMFLEX": 8619,
      "čĊĠĠĠĠĠĠĠĠčĊĠĠĠĠĠĠĠ": 8620,
      "ĠTensorFlow": 8621,
      "æķ°éĩı": 8622,
      "CREATE": 8623,
      "TEMPLATE": 8624,
      "ĠDocument": 8625,
      "existent": 8626,
      "ĠQgsVectorLayer": 8627,
      "ĠCIRCUMFLEX": 8628,
      ",_": 8629,
      ":,": 8630,
      "CESS": 8631,
      "Called": 8632,
      "ILE": 8633,
      "Mac": 8634,
      "Mso": 8635,
      "Tran": 8636,
      "Wait": 8637,
      "dm": 8638,
      "dll": 8639,
      "dtypes": 8640,
      "emit": 8641,
      "fan": 8642,
      "ij": 8643,
      "iris": 8644,
      "pend": 8645,
      "syn": 8646,
      "tun": 8647,
      "tcp": 8648,
      "æĸ": 8649,
      "Ġterm": 8650,
      "references": 8651,
      "stic": 8652,
      "arn": 8653,
      "asarray": 8654,
      "ender": 8655,
      "Ġthemes": 8656,
      "Ġbal": 8657,
      "Ġbeta": 8658,
      "Ġ(?": 8659,
      "examples": 8660,
      "006": 8661,
      "ĠSERV": 8662,
      "intro": 8663,
      "Ġgame": 8664,
      "ĠFoo": 8665,
      "Ġdiag": 8666,
      "Inte": 8667,
      "cib": 8668,
      "cipe": 8669,
      "ATURE": 8670,
      "codecs": 8671,
      "ĠNEG": 8672,
      "Ġresulting": 8673,
      "Deferred": 8674,
      "Ġarea": 8675,
      "ICK": 8676,
      "Ġjs": 8677,
      "Ġcompress": 8678,
      "DEX": 8679,
      "veloper": 8680,
      "returns": 8681,
      "ListItem": 8682,
      "voke": 8683,
      "Enter": 8684,
      "=[(": 8685,
      "ĊĠĠĠĠĠĠĠĠĠĠĠĠĠĠĠĠĠĠĠĠĠĠĠĠĠĠĠĠĠĠĠĠĠĠĠĠĠĠĠĠĠĠĠĠĠ": 8686,
      "Ġ2016": 8687,
      "Ġpriority": 8688,
      "ilities": 8689,
      "metaclass": 8690,
      "identifier": 8691,
      "skipUnless": 8692,
      "Register": 8693,
      "MockValue": 8694,
      "Any": 8695,
      "clicked": 8696,
      "Serialize": 8697,
      "timesince": 8698,
      "Ġwhole": 8699,
      "Ġspecifying": 8700,
      "inclusion": 8701,
      "gateway": 8702,
      "jarati": 8703,
      "degree": 8704,
      "issues": 8705,
      "difference": 8706,
      "HEADER": 8707,
      "FIELD": 8708,
      "WINDO": 8709,
      "initializer": 8710,
      "Ġimmediately": 8711,
      "MsoNormal": 8712,
      "${": 8713,
      ")\")),": 8714,
      "/<": 8715,
      "=[\"": 8716,
      "La": 8717,
      "Solver": 8718,
      "Variant": 8719,
      "gd": 8720,
      "week": 8721,
      "çİ": 8722,
      "Ġ####": 8723,
      "thro": 8724,
      "ander": 8725,
      "Ġthing": 8726,
      "Ġrev": 8727,
      "Ġpt": 8728,
      "Ġssh": 8729,
      "Ġsolve": 8730,
      "ulls": 8731,
      "adder": 8732,
      "ĠTR": 8733,
      "ĠCre": 8734,
      "Ġrank": 8735,
      "Exit": 8736,
      "Ġwhite": 8737,
      "ferer": 8738,
      "ippe": 8739,
      "oggle": 8740,
      "ĠHAS": 8741,
      "ĠHost": 8742,
      "noti": 8743,
      "Ġposix": 8744,
      "background": 8745,
      "Stub": 8746,
      "Ġcompatible": 8747,
      "Ġcomputed": 8748,
      "Ġconfigure": 8749,
      "Ġcreates": 8750,
      "Respon": 8751,
      "manifest": 8752,
      "priority": 8753,
      "Ġmocked": 8754,
      "ĠINTER": 8755,
      "Memory": 8756,
      "\")).": 8757,
      "OutField": 8758,
      "CLA": 8759,
      "Ġloading": 8760,
      "TESTFN": 8761,
      "={\"": 8762,
      "finish": 8763,
      "HOME": 8764,
      "Geo": 8765,
      "HasField": 8766,
      "SparseTensor": 8767,
      "FutureSignOutField": 8768,
      "ĠSAPMessage": 8769,
      "DATETIME": 8770,
      "Ġattempt": 8771,
      "assertSerializedEqual": 8772,
      "Ġfully": 8773,
      "ĠPackage": 8774,
      "irtual": 8775,
      ":#": 8776,
      "Cor": 8777,
      "Na": 8778,
      "Win": 8779,
      "]=": 8780,
      "elem": 8781,
      "gf": 8782,
      "hparam": 8783,
      "ope": 8784,
      "runc": 8785,
      "tlement": 8786,
      "æŀ": 8787,
      "Ġ^": 8788,
      "Ġet": 8789,
      "ĠES": 8790,
      "reuse": 8791,
      "devices": 8792,
      "Ġcard": 8793,
      "atural": 8794,
      "Ġpor": 8795,
      "Ġpipeline": 8796,
      "',)": 8797,
      "locale": 8798,
      "losses": 8799,
      "cogn": 8800,
      "utdown": 8801,
      "andas": 8802,
      "Ġ[%": 8803,
      "Ġtools": 8804,
      "Ġeps": 8805,
      "ĠSta": 8806,
      "intf": 8807,
      "Ġtestvol": 8808,
      "Reverse": 8809,
      "ĠFa": 8810,
      "ĠFIX": 8811,
      "urement": 8812,
      "ĠOO": 8813,
      "Ġthisown": 8814,
      "ĠNew": 8815,
      "([-": 8816,
      "STIT": 8817,
      "Settlement": 8818,
      "Ġsubst": 8819,
      "plan": 8820,
      "Timestamp": 8821,
      "COOK": 8822,
      "ditor": 8823,
      "Ġoverwrite": 8824,
      "Ġlooking": 8825,
      "FAKE": 8826,
      "Lookup": 8827,
      "Transform": 8828,
      "ĠState": 8829,
      "ĠComment": 8830,
      "Ġrepresents": 8831,
      "Ġswap": 8832,
      "destination": 8833,
      "Ġdatatype": 8834,
      "Ġindicates": 8835,
      "swigregister": 8836,
      "tracker": 8837,
      "Ġcountry": 8838,
      "CombActionField": 8839,
      "ĠSAPParam": 8840,
      "Ġastroid": 8841,
      "lecule": 8842,
      "210": 8843,
      "DIS": 8844,
      "HIT": 8845,
      "Missing": 8846,
      "Migration": 8847,
      "bank": 8848,
      "hic": 8849,
      "ike": 8850,
      "uv": 8851,
      "tection": 8852,
      "alls": 8853,
      "tively": 8854,
      "aring": 8855,
      "Ġcir": 8856,
      "lig": 8857,
      "Ġinser": 8858,
      "Ġaa": 8859,
      "serial": 8860,
      "sisten": 8861,
      "odbc": 8862,
      "major": 8863,
      "007": 8864,
      "Ġconsole": 8865,
      "ĠSPECIAL": 8866,
      "allclose": 8867,
      "ĠLine": 8868,
      "Ġgl": 8869,
      "Ġdirect": 8870,
      "fileno": 8871,
      "Ġhist": 8872,
      "ĠPl": 8873,
      "ptables": 8874,
      "food": 8875,
      "Ġenough": 8876,
      "Ġlu": 8877,
      "predictions": 8878,
      "([^": 8879,
      "Conv": 8880,
      "Ġrather": 8881,
      "minus": 8882,
      "ĠRo": 8883,
      "joined": 8884,
      "Storage": 8885,
      "Chrome": 8886,
      "čĊčĊč": 8887,
      "foobar": 8888,
      "ABEL": 8889,
      "Ġneutron": 8890,
      "Enum": 8891,
      "Ġupgrade": 8892,
      "frames": 8893,
      "failUnless": 8894,
      "swf": 8895,
      "Ġface": 8896,
      "Ġ2006": 8897,
      "Ġmarkup": 8898,
      "stylesheet": 8899,
      "counters": 8900,
      "Ġduplicate": 8901,
      "distinct": 8902,
      "ĠDataFrame": 8903,
      "Ġhandlers": 8904,
      "criptor": 8905,
      "èµĦéĩĳ": 8906,
      "Ġheap": 8907,
      "jection": 8908,
      "ĠManagement": 8909,
      "ukhi": 8910,
      "Ġ------------------------------------------------": 8911,
      "ĠView": 8912,
      "ĠImproperlyConfigured": 8913,
      "urmukhi": 8914,
      "+'": 8915,
      ">=": 8916,
      "Full": 8917,
      "MIS": 8918,
      "NI": 8919,
      "Uri": 8920,
      "gge": 8921,
      "migrations": 8922,
      "pot": 8923,
      "rx": 8924,
      "xff": 8925,
      "Ã©": 8926,
      "ÅĦ": 8927,
      "Ġri": 8928,
      "inge": 8929,
      "rol": 8930,
      "Ġreally": 8931,
      "Ġsock": 8932,
      "Ġsteps": 8933,
      "limin": 8934,
      "dil": 8935,
      "experiment": 8936,
      "Ġ[(\"": 8937,
      "edx": 8938,
      "009": 8939,
      "ĠAM": 8940,
      "ĠLin": 8941,
      "ĠIF": 8942,
      "Ġgst": 8943,
      "Ġgit": 8944,
      "Ġdigest": 8945,
      "Ġdialect": 8946,
      "Ġordered": 8947,
      "timedelta": 8948,
      "fox": 8949,
      "ĠObject": 8950,
      "mous": 8951,
      "ĠNow": 8952,
      "irq": 8953,
      "minutes": 8954,
      "Ġcompat": 8955,
      "Ġcurr": 8956,
      "matched": 8957,
      "streams": 8958,
      "Features": 8959,
      "Ġ90": 8960,
      "vateKey": 8961,
      "Vertex": 8962,
      "æīĭ": 8963,
      "Ġbook": 8964,
      "svn": 8965,
      "enticate": 8966,
      "SyncKeyField": 8967,
      "NECTION": 8968,
      "ĠTreeEstimator": 8969,
      "Ġretries": 8970,
      "Ġhandling": 8971,
      "Ġrequirement": 8972,
      "Ġcert": 8973,
      "Document": 8974,
      "InfParam": 8975,
      "å¼Ģ": 8976,
      "limited": 8977,
      "EPSG": 8978,
      "Ġremaining": 8979,
      "åľ°": 8980,
      "memoized": 8981,
      "çİĩ": 8982,
      "CLAIM": 8983,
      "ĠFIXME": 8984,
      "'')": 8985,
      "Actor": 8986,
      "AUT": 8987,
      "AIL": 8988,
      "CD": 8989,
      "EP": 8990,
      "FG": 8991,
      "Small": 8992,
      "Word": 8993,
      "dr": 8994,
      "tt": 8995,
      "åķ": 8996,
      "ĠValue": 8997,
      "arrays": 8998,
      "Ġ'(": 8999,
      "Ġcid": 9000,
      "endian": 9001,
      "Ġtc": 9002,
      "rices": 9003,
      "Ġ(`": 9004,
      "chase": 9005,
      "chron": 9006,
      "isten": 9007,
      "maker": 9008,
      "Ġemp": 9009,
      "Ġdialog": 9010,
      "Ġdigits": 9011,
      "performance": 9012,
      "Ġfilesystem": 9013,
      "=''):": 9014,
      "ĠDon": 9015,
      "ĠMask": 9016,
      "more": 9017,
      "Ġunused": 9018,
      "Ġatn": 9019,
      "STOR": 9020,
      "ĠHVAC": 9021,
      "Ġsimilar": 9022,
      "reporter": 9023,
      "Ġapplied": 9024,
      "Ġperformance": 9025,
      "networks": 9026,
      "openssl": 9027,
      "explicit": 9028,
      "Ġexpressions": 9029,
      "doctest": 9030,
      "omer": 9031,
      "Ġformatted": 9032,
      "Ġservers": 9033,
      "scriptors": 9034,
      "swap": 9035,
      "QUE": 9036,
      "tilt": 9037,
      "Currency": 9038,
      "Assign": 9039,
      "realm": 9040,
      "Ġwebpage": 9041,
      "datum": 9042,
      "assertIsNot": 9043,
      "Ġarchiv": 9044,
      "ĠphKey": 9045,
      "icrosoft": 9046,
      "ĠĠĠĠĠĠĠĠĠĠĠĠĠĠĠĠĠĠĠĠĠĠĠĠĠĠĠĠĠĠĠĠĠĠĠĠĠĠĠĠĠĠĠĠĠĠĠĠĠĠĠĠĠĠĠĠĠĠĠĠĠĠĠĠ": 9047,
      "QuoteActionField": 9048,
      "bigend": 9049,
      "sprites": 9050,
      "Ġstrict": 9051,
      "scalar": 9052,
      "unctuation": 9053,
      "Ġrepeat": 9054,
      "åĬ¡": 9055,
      "Ġcached": 9056,
      "Ġpixel": 9057,
      "cipient": 9058,
      "ingerprint": 9059,
      "ĠSUBSTIT": 9060,
      "åķĨ": 9061,
      "ĠSUBSTITUTE": 9062,
      ",%": 9063,
      "Av": 9064,
      "FUN": 9065,
      "Front": 9066,
      "GB": 9067,
      "HA": 9068,
      "LP": 9069,
      "Multiple": 9070,
      "Mesh": 9071,
      "ood": 9072,
      "promote": 9073,
      "sque": 9074,
      "scipy": 9075,
      "ua": 9076,
      "yrillic": 9077,
      "Ã§": 9078,
      "ç½": 9079,
      "ĊĊĠĠĠĠĠĠĠĠĠ": 9080,
      "dec": 9081,
      "Ġretain": 9082,
      "Ġrelevant": 9083,
      "Ġnative": 9084,
      "ely": 9085,
      "chor": 9086,
      "Ġdc": 9087,
      "vey": 9088,
      "ĠStop": 9089,
      "ĠCa": 9090,
      "ĠAT": 9091,
      "Ġ{{": 9092,
      "protected": 9093,
      "])]": 9094,
      "ĠDes": 9095,
      "appings": 9096,
      "ĠWh": 9097,
      "ĠEmpty": 9098,
      "notes": 9099,
      "Ġpredi": 9100,
      "227": 9101,
      "Ġjinja": 9102,
      "Ġcompatibility": 9103,
      "Security": 9104,
      "pie": 9105,
      "AMPL": 9106,
      "Ġruntime": 9107,
      "Ġregistered": 9108,
      "ĠINT": 9109,
      "ĠExp": 9110,
      "Ġmodification": 9111,
      "ragments": 9112,
      "Ġdirname": 9113,
      "uffle": 9114,
      "çĶ³": 9115,
      "PRIV": 9116,
      "modify": 9117,
      "ĠLoad": 9118,
      "ĠDIRECT": 9119,
      "latin": 9120,
      "æĿĥ": 9121,
      "Ġcoefficients": 9122,
      "ä¸ļåĬ¡": 9123,
      "ĠDISCLAIM": 9124,
      "lifecycle": 9125,
      "AMPLES": 9126,
      "\"+": 9127,
      "Agent": 9128,
      "Clear": 9129,
      "Fl": 9130,
      "Fin": 9131,
      "NAM": 9132,
      "NOW": 9133,
      "auti": 9134,
      "guest": 9135,
      "jinja": 9136,
      "ndim": 9137,
      "sz": 9138,
      "slots": 9139,
      "vv": 9140,
      "zap": 9141,
      "}',": 9142,
      "ĠÐ": 9143,
      "seen": 9144,
      "lent": 9145,
      "Ġira": 9146,
      "Ġcapi": 9147,
      "Ġ\"(('": 9148,
      "geometry": 9149,
      "mpa": 9150,
      "Ġincar": 9151,
      "dictionary": 9152,
      "\"\"\",": 9153,
      "chart": 9154,
      "sites": 9155,
      "urnal": 9156,
      "contain": 9157,
      "ople": 9158,
      "setpoint": 9159,
      "tru": 9160,
      "ultin": 9161,
      "**(": 9162,
      "Ġ26": 9163,
      "Ġangle": 9164,
      "share": 9165,
      "Ġlat": 9166,
      "ĠWHERE": 9167,
      "([],": 9168,
      "254": 9169,
      "ĠRandom": 9170,
      "Ġ44": 9171,
      "Ġpolicies": 9172,
      "221": 9173,
      "Ġnoqa": 9174,
      "120": 9175,
      "Ġ56": 9176,
      "weighted": 9177,
      "csma": 9178,
      "URN": 9179,
      "Ġ./": 9180,
      "ĊĠĠĠĠĠĠĠĠĠĠĠĠĠĠĠĠĠĠĠĠĠĠĠĠĠĠĠĠĠĠĠĠĠĠĠĠĠĠĠĠĠĠĠĠĠĠĠĠĠĠ": 9181,
      "vention": 9182,
      "180": 9183,
      "gories": 9184,
      "general": 9185,
      "Ġchoose": 9186,
      "flat": 9187,
      "FromString": 9188,
      "diffs": 9189,
      "datatype": 9190,
      "Codec": 9191,
      "Ġiterations": 9192,
      "Ġsuccessful": 9193,
      "Ġproducts": 9194,
      "ACTER": 9195,
      "Descriptor": 9196,
      "Ġbinding": 9197,
      "CACHE": 9198,
      "Ġcopied": 9199,
      "utilization": 9200,
      "BigAutoField": 9201,
      "ĠOutput": 9202,
      "ggregate": 9203,
      "METHOD": 9204,
      "ç½®": 9205,
      "'\")": 9206,
      "10000": 9207,
      ":],": 9208,
      "AUTH": 9209,
      "Num": 9210,
      "Total": 9211,
      "bundle": 9212,
      "fu": 9213,
      "hr": 9214,
      "ln": 9215,
      "player": 9216,
      "rmtree": 9217,
      "twisted": 9218,
      "utive": 9219,
      "xis": 9220,
      "zA": 9221,
      "Ġjobs": 9222,
      "Ġ'':": 9223,
      "Ġcsma": 9224,
      "Ġ\"+": 9225,
      "Ġpow": 9226,
      "Ġpush": 9227,
      "Ġpending": 9228,
      "Ġsr": 9229,
      "unused": 9230,
      "Ġmut": 9231,
      "launch": 9232,
      "ĠSparse": 9233,
      "ĠCur": 9234,
      "Ġguest": 9235,
      "Ġsequences": 9236,
      "addon": 9237,
      "CThostFtdcInvestor": 9238,
      "CThostFtdcOptionInstr": 9239,
      "Ġatten": 9240,
      "irflow": 9241,
      "loading": 9242,
      "formset": 9243,
      "228": 9244,
      "changes": 9245,
      "ĠVB": 9246,
      "Ġdocstring": 9247,
      "ldap": 9248,
      "ĠGeneric": 9249,
      "ĠINDIRECT": 9250,
      "Ġtrailing": 9251,
      "Ġupper": 9252,
      "ĠCONSEQU": 9253,
      "Ġinstanti": 9254,
      "Ġarr": 9255,
      "Interval": 9256,
      "Ġchoice": 9257,
      "OPEN": 9258,
      "assistant": 9259,
      "letter": 9260,
      "Ġlanguages": 9261,
      "Ġrealm": 9262,
      "RESULT": 9263,
      "PacketTag": 9264,
      "Ġticket": 9265,
      "implicit": 9266,
      "Ġplaylist": 9267,
      "REQUI": 9268,
      "Ġscored": 9269,
      "quoted": 9270,
      "Ġprobably": 9271,
      "adao": 9272,
      "uniform": 9273,
      "ĠCONSEQUENTIAL": 9274,
      "'(": 9275,
      ".])": 9276,
      "/\",": 9277,
      ">\",": 9278,
      "AIN": 9279,
      "Java": 9280,
      "Rout": 9281,
      "TE": 9282,
      "TREES": 9283,
      "acl": 9284,
      "cmb": 9285,
      "ered": 9286,
      "jc": 9287,
      "mf": 9288,
      "rq": 9289,
      "sound": 9290,
      "ulo": 9291,
      "xlink": 9292,
      "zie": 9293,
      "Ļè¯": 9294,
      "describe": 9295,
      "Ġct": 9296,
      "Ġretry": 9297,
      "Ġincoming": 9298,
      "Ġbitmap": 9299,
      "ratio": 9300,
      "ulk": 9301,
      "quent": 9302,
      "heat": 9303,
      "health": 9304,
      "lam": 9305,
      "ĠALL": 9306,
      "classification": 9307,
      "ĠLOSS": 9308,
      "Represent": 9309,
      "Ġ{:": 9310,
      "Information": 9311,
      "INDEX": 9312,
      "Ġproduce": 9313,
      "CTRL": 9314,
      "nsors": 9315,
      "comma": 9316,
      "aging": 9317,
      "Ġ*',": 9318,
      "ĠBlock": 9319,
      "ĠURI": 9320,
      "ouse": 9321,
      "ĠRFC": 9322,
      "ogram": 9323,
      "compiled": 9324,
      "compressed": 9325,
      "STD": 9326,
      "ĠHandle": 9327,
      "SetItem": 9328,
      "Ġposcar": 9329,
      "backup": 9330,
      "223": 9331,
      "States": 9332,
      "ductions": 9333,
      "Ġapps": 9334,
      "Separ": 9335,
      "phan": 9336,
      "ROID": 9337,
      "Env": 9338,
      "=[]": 9339,
      "ALLOW": 9340,
      "Ġminutes": 9341,
      "Ġspecification": 9342,
      "Alchemy": 9343,
      "ĊĠĠĊĠ": 9344,
      "Headers": 9345,
      "Shape": 9346,
      "IBILITY": 9347,
      "Ġphone": 9348,
      "Adjust": 9349,
      "Ġflavor": 9350,
      "æĪĲ": 9351,
      "ĠMessage": 9352,
      "evolution": 9353,
      "mappers": 9354,
      "=-=-": 9355,
      "TradeField": 9356,
      "ĠSHA": 9357,
      "audio": 9358,
      "SETT": 9359,
      "ĠDefaults": 9360,
      "Ġbuttons": 9361,
      "StockDisposalField": 9362,
      "Ġcounter": 9363,
      "beatle": 9364,
      "videos": 9365,
      "SpinBox": 9366,
      "=============": 9367,
      "ĠAbstract": 9368,
      "scaler": 9369,
      "Extractor": 9370,
      "BoundedBigAutoField": 9371,
      "éĶĻè¯": 9372,
      "Ġliteral": 9373,
      "TARGET": 9374,
      "éĶĻè¯¯": 9375,
      "!\")": 9376,
      ":'": 9377,
      ">.": 9378,
      "Bullet": 9379,
      "FROM": 9380,
      "FITS": 9381,
      "JOB": 9382,
      "LIG": 9383,
      "Language": 9384,
      "MC": 9385,
      "PU": 9386,
      "Scope": 9387,
      "VK": 9388,
      "alf": 9389,
      "cles": 9390,
      "ga": 9391,
      "goto": 9392,
      "oul": 9393,
      "srs": 9394,
      "zh": 9395,
      "zilla": 9396,
      "ģä»ĵ": 9397,
      "ani": 9398,
      "Ġcp": 9399,
      "Ġ\"\":": 9400,
      "Ġfuture": 9401,
      "Ġfunct": 9402,
      "Ġfrog": 9403,
      "Ġpp": 9404,
      "Ġpad": 9405,
      "Ġpromote": 9406,
      "Ġsm": 9407,
      "liz": 9408,
      "Ġmi": 9409,
      "Ġmagic": 9410,
      "exv": 9411,
      "silent": 9412,
      "adm": 9413,
      "ots": 9414,
      "ĠTEST": 9415,
      "consume": 9416,
[...]
